{
  "version": "1.0",
  "truncation": null,
  "padding": null,
  "added_tokens": [],
  "normalizer": null,
  "pre_tokenizer": {
    "type": "Whitespace"
  },
  "post_processor": null,
  "decoder": null,
  "model": {
    "type": "BPE",
    "dropout": null,
    "unk_token": null,
    "continuing_subword_prefix": null,
    "end_of_word_suffix": "▁",
    "fuse_unk": false,
    "byte_fallback": false,
    "ignore_merges": false,
    "vocab": {
      "!": 0,
      "\"": 1,
      "#": 2,
      "$": 3,
      "%": 4,
      "&": 5,
      "'": 6,
      "(": 7,
      ")": 8,
      "*": 9,
      "+": 10,
      ",": 11,
      "-": 12,
      ".": 13,
      "/": 14,
      "0": 15,
      "1": 16,
      "2": 17,
      "3": 18,
      "4": 19,
      "5": 20,
      "6": 21,
      "7": 22,
      "8": 23,
      "9": 24,
      ":": 25,
      ";": 26,
      "<": 27,
      "=": 28,
      ">": 29,
      "?": 30,
      "@": 31,
      "A": 32,
      "B": 33,
      "C": 34,
      "D": 35,
      "E": 36,
      "F": 37,
      "G": 38,
      "H": 39,
      "I": 40,
      "J": 41,
      "K": 42,
      "L": 43,
      "M": 44,
      "N": 45,
      "O": 46,
      "P": 47,
      "Q": 48,
      "R": 49,
      "S": 50,
      "T": 51,
      "U": 52,
      "V": 53,
      "W": 54,
      "X": 55,
      "Y": 56,
      "Z": 57,
      "[": 58,
      "\\": 59,
      "]": 60,
      "^": 61,
      "_": 62,
      "`": 63,
      "a": 64,
      "b": 65,
      "c": 66,
      "d": 67,
      "e": 68,
      "f": 69,
      "g": 70,
      "h": 71,
      "i": 72,
      "j": 73,
      "k": 74,
      "l": 75,
      "m": 76,
      "n": 77,
      "o": 78,
      "p": 79,
      "q": 80,
      "r": 81,
      "s": 82,
      "t": 83,
      "u": 84,
      "v": 85,
      "w": 86,
      "x": 87,
      "y": 88,
      "z": 89,
      "|": 90,
      "}": 91,
      "~": 92,
      "": 93,
      "": 94,
      "¡": 95,
      "¢": 96,
      "£": 97,
      "¥": 98,
      "§": 99,
      "°": 100,
      "±": 101,
      "²": 102,
      "³": 103,
      "´": 104,
      "µ": 105,
      "·": 106,
      "º": 107,
      "½": 108,
      "¿": 109,
      "Á": 110,
      "Ä": 111,
      "Å": 112,
      "Æ": 113,
      "Ç": 114,
      "É": 115,
      "Í": 116,
      "Î": 117,
      "Ñ": 118,
      "Ó": 119,
      "Ö": 120,
      "×": 121,
      "Ø": 122,
      "Ú": 123,
      "Ü": 124,
      "Þ": 125,
      "ß": 126,
      "à": 127,
      "á": 128,
      "â": 129,
      "ã": 130,
      "ä": 131,
      "å": 132,
      "æ": 133,
      "ç": 134,
      "è": 135,
      "é": 136,
      "ê": 137,
      "ë": 138,
      "ì": 139,
      "í": 140,
      "î": 141,
      "ï": 142,
      "ð": 143,
      "ñ": 144,
      "ò": 145,
      "ó": 146,
      "ô": 147,
      "ö": 148,
      "ø": 149,
      "ù": 150,
      "ú": 151,
      "û": 152,
      "ü": 153,
      "ý": 154,
      "þ": 155,
      "Ā": 156,
      "ā": 157,
      "ă": 158,
      "ą": 159,
      "ć": 160,
      "Č": 161,
      "č": 162,
      "Đ": 163,
      "đ": 164,
      "Ē": 165,
      "ē": 166,
      "Ĕ": 167,
      "ĕ": 168,
      "ė": 169,
      "ę": 170,
      "ğ": 171,
      "ħ": 172,
      "ī": 173,
      "İ": 174,
      "ı": 175,
      "Ľ": 176,
      "Ł": 177,
      "ł": 178,
      "ń": 179,
      "Ō": 180,
      "ō": 181,
      "œ": 182,
      "ř": 183,
      "Ś": 184,
      "ś": 185,
      "Ş": 186,
      "ş": 187,
      "Š": 188,
      "š": 189,
      "ţ": 190,
      "ũ": 191,
      "ū": 192,
      "ů": 193,
      "ų": 194,
      "ź": 195,
      "Ż": 196,
      "ż": 197,
      "Ž": 198,
      "ž": 199,
      "ơ": 200,
      "ư": 201,
      "ǎ": 202,
      "ǔ": 203,
      "Ș": 204,
      "ș": 205,
      "ț": 206,
      "ȯ": 207,
      "ɐ": 208,
      "ɑ": 209,
      "ɒ": 210,
      "ɔ": 211,
      "ə": 212,
      "ɛ": 213,
      "ɜ": 214,
      "ɡ": 215,
      "ɢ": 216,
      "ɪ": 217,
      "ɫ": 218,
      "ɳ": 219,
      "ɽ": 220,
      "ɾ": 221,
      "ʁ": 222,
      "ʃ": 223,
      "ʊ": 224,
      "ʋ": 225,
      "ʒ": 226,
      "ʔ": 227,
      "ʕ": 228,
      "ʲ": 229,
      "ʻ": 230,
      "ʼ": 231,
      "ʾ": 232,
      "ʿ": 233,
      "ˈ": 234,
      "ˌ": 235,
      "ː": 236,
      "́": 237,
      "̃": 238,
      "̍": 239,
      "̥": 240,
      "̯": 241,
      "͍": 242,
      "Α": 243,
      "Δ": 244,
      "Κ": 245,
      "Ν": 246,
      "Π": 247,
      "Τ": 248,
      "Φ": 249,
      "Χ": 250,
      "Ω": 251,
      "ά": 252,
      "έ": 253,
      "ή": 254,
      "ί": 255,
      "α": 256,
      "β": 257,
      "γ": 258,
      "δ": 259,
      "ε": 260,
      "η": 261,
      "θ": 262,
      "ι": 263,
      "κ": 264,
      "λ": 265,
      "μ": 266,
      "ν": 267,
      "ξ": 268,
      "ο": 269,
      "π": 270,
      "ρ": 271,
      "ς": 272,
      "σ": 273,
      "τ": 274,
      "υ": 275,
      "χ": 276,
      "ψ": 277,
      "ω": 278,
      "ό": 279,
      "ύ": 280,
      "ώ": 281,
      "А": 282,
      "Б": 283,
      "В": 284,
      "Г": 285,
      "К": 286,
      "П": 287,
      "Р": 288,
      "С": 289,
      "У": 290,
      "Х": 291,
      "Я": 292,
      "а": 293,
      "в": 294,
      "г": 295,
      "д": 296,
      "е": 297,
      "ж": 298,
      "з": 299,
      "и": 300,
      "й": 301,
      "к": 302,
      "л": 303,
      "м": 304,
      "н": 305,
      "о": 306,
      "п": 307,
      "р": 308,
      "с": 309,
      "т": 310,
      "у": 311,
      "х": 312,
      "ц": 313,
      "ш": 314,
      "ъ": 315,
      "ы": 316,
      "ь": 317,
      "ю": 318,
      "я": 319,
      "є": 320,
      "ֵ": 321,
      "ֶ": 322,
      "ָ": 323,
      "ֹ": 324,
      "ּ": 325,
      "א": 326,
      "ב": 327,
      "ג": 328,
      "ה": 329,
      "ו": 330,
      "ז": 331,
      "ח": 332,
      "י": 333,
      "ל": 334,
      "ם": 335,
      "מ": 336,
      "ן": 337,
      "נ": 338,
      "ס": 339,
      "ף": 340,
      "פ": 341,
      "צ": 342,
      "ר": 343,
      "ש": 344,
      "ת": 345,
      "ء": 346,
      "أ": 347,
      "إ": 348,
      "ا": 349,
      "ب": 350,
      "ة": 351,
      "ت": 352,
      "ث": 353,
      "ج": 354,
      "ح": 355,
      "خ": 356,
      "د": 357,
      "ذ": 358,
      "ر": 359,
      "س": 360,
      "ش": 361,
      "ص": 362,
      "ع": 363,
      "ف": 364,
      "ق": 365,
      "ك": 366,
      "ل": 367,
      "م": 368,
      "ن": 369,
      "ه": 370,
      "و": 371,
      "ي": 372,
      "ܐ": 373,
      "ܕ": 374,
      "ܗ": 375,
      "ܝ": 376,
      "ܠ": 377,
      "ܢ": 378,
      "ܬ": 379,
      "ܲ": 380,
      "ܵ": 381,
      "ं": 382,
      "अ": 383,
      "ई": 384,
      "क": 385,
      "ग": 386,
      "ण": 387,
      "त": 388,
      "द": 389,
      "न": 390,
      "प": 391,
      "ब": 392,
      "म": 393,
      "य": 394,
      "र": 395,
      "ल": 396,
      "व": 397,
      "स": 398,
      "ह": 399,
      "ा": 400,
      "ि": 401,
      "ु": 402,
      "ू": 403,
      "े": 404,
      "ै": 405,
      "्": 406,
      "আ": 407,
      "ল": 408,
      "হ": 409,
      "া": 410,
      "্": 411,
      "ਅ": 412,
      "ਲ": 413,
      "ਹ": 414,
      "ਾ": 415,
      "ੁ": 416,
      "ੱ": 417,
      "അ": 418,
      "ള": 419,
      "ഹ": 420,
      "ാ": 421,
      "്": 422,
      "ก": 423,
      "ค": 424,
      "ง": 425,
      "ช": 426,
      "ซ": 427,
      "ญ": 428,
      "ฐ": 429,
      "ณ": 430,
      "ด": 431,
      "ต": 432,
      "น": 433,
      "บ": 434,
      "ป": 435,
      "พ": 436,
      "ภ": 437,
      "ม": 438,
      "ย": 439,
      "ร": 440,
      "ล": 441,
      "ว": 442,
      "ศ": 443,
      "ษ": 444,
      "ส": 445,
      "ห": 446,
      "อ": 447,
      "ฮ": 448,
      "ะ": 449,
      "ั": 450,
      "า": 451,
      "ิ": 452,
      "ี": 453,
      "ึ": 454,
      "เ": 455,
      "แ": 456,
      "ไ": 457,
      "็": 458,
      "่": 459,
      "้": 460,
      "๊": 461,
      "์": 462,
      "Ⴀ": 463,
      "Ⴂ": 464,
      "Ⴃ": 465,
      "Ⴈ": 466,
      "Ⴌ": 467,
      "Ⴕ": 468,
      "Ⴟ": 469,
      "ა": 470,
      "ბ": 471,
      "გ": 472,
      "დ": 473,
      "ე": 474,
      "ვ": 475,
      "ზ": 476,
      "თ": 477,
      "ი": 478,
      "კ": 479,
      "ლ": 480,
      "მ": 481,
      "ნ": 482,
      "ო": 483,
      "პ": 484,
      "ჟ": 485,
      "რ": 486,
      "ს": 487,
      "ტ": 488,
      "უ": 489,
      "ფ": 490,
      "ქ": 491,
      "ღ": 492,
      "ყ": 493,
      "შ": 494,
      "ჩ": 495,
      "ც": 496,
      "ძ": 497,
      "წ": 498,
      "ჭ": 499,
      "ხ": 500,
      "ჯ": 501,
      "ჰ": 502,
      "ჱ": 503,
      "ჲ": 504,
      "ჳ": 505,
      "ჴ": 506,
      "ჵ": 507,
      "ჶ": 508,
      "ჷ": 509,
      "ჸ": 510,
      "ჹ": 511,
      "ჺ": 512,
      "჻": 513,
      "ᵻ": 514,
      "ḍ": 515,
      "ḏ": 516,
      "Ḥ": 517,
      "ḥ": 518,
      "ḷ": 519,
      "ṃ": 520,
      "ṅ": 521,
      "ṇ": 522,
      "ṛ": 523,
      "ṣ": 524,
      "ṭ": 525,
      "ṯ": 526,
      "ạ": 527,
      "ả": 528,
      "ấ": 529,
      "ầ": 530,
      "ậ": 531,
      "ắ": 532,
      "ễ": 533,
      "ệ": 534,
      "ị": 535,
      "ọ": 536,
      "ỏ": 537,
      "ỗ": 538,
      "ộ": 539,
      "ớ": 540,
      "ứ": 541,
      "ử": 542,
      "ữ": 543,
      "ỳ": 544,
      "ỹ": 545,
      "ἀ": 546,
      "ἰ": 547,
      "ὀ": 548,
      "ὁ": 549,
      "ὑ": 550,
      "​": 551,
      "‐": 552,
      "‑": 553,
      "–": 554,
      "—": 555,
      "―": 556,
      "‘": 557,
      "’": 558,
      "“": 559,
      "”": 560,
      "„": 561,
      "†": 562,
      "‡": 563,
      "•": 564,
      "…": 565,
      "′": 566,
      "″": 567,
      "⁄": 568,
      "₣": 569,
      "₤": 570,
      "€": 571,
      "₹": 572,
      "⅓": 573,
      "⅔": 574,
      "→": 575,
      "−": 576,
      "≡": 577,
      "≤": 578,
      "①": 579,
      "☉": 580,
      "☫": 581,
      "♀": 582,
      "♭": 583,
      "♯": 584,
      "⚳": 585,
      "〈": 586,
      "〉": 587,
      "〜": 588,
      "あ": 589,
      "い": 590,
      "う": 591,
      "お": 592,
      "か": 593,
      "が": 594,
      "き": 595,
      "ぎ": 596,
      "く": 597,
      "ぐ": 598,
      "け": 599,
      "こ": 600,
      "ご": 601,
      "さ": 602,
      "し": 603,
      "す": 604,
      "ず": 605,
      "ぜ": 606,
      "た": 607,
      "だ": 608,
      "ち": 609,
      "っ": 610,
      "つ": 611,
      "と": 612,
      "な": 613,
      "に": 614,
      "の": 615,
      "は": 616,
      "ば": 617,
      "ひ": 618,
      "ふ": 619,
      "ほ": 620,
      "ま": 621,
      "み": 622,
      "め": 623,
      "も": 624,
      "ゃ": 625,
      "ゆ": 626,
      "ょ": 627,
      "ら": 628,
      "り": 629,
      "る": 630,
      "れ": 631,
      "わ": 632,
      "を": 633,
      "ん": 634,
      "ァ": 635,
      "ア": 636,
      "ィ": 637,
      "イ": 638,
      "ゥ": 639,
      "ェ": 640,
      "エ": 641,
      "ォ": 642,
      "オ": 643,
      "カ": 644,
      "ガ": 645,
      "キ": 646,
      "ク": 647,
      "グ": 648,
      "ゲ": 649,
      "コ": 650,
      "サ": 651,
      "シ": 652,
      "ジ": 653,
      "ス": 654,
      "ズ": 655,
      "セ": 656,
      "タ": 657,
      "ダ": 658,
      "チ": 659,
      "ッ": 660,
      "ツ": 661,
      "テ": 662,
      "デ": 663,
      "ト": 664,
      "ド": 665,
      "ナ": 666,
      "ニ": 667,
      "ネ": 668,
      "ノ": 669,
      "ハ": 670,
      "バ": 671,
      "パ": 672,
      "フ": 673,
      "ブ": 674,
      "プ": 675,
      "ヘ": 676,
      "ベ": 677,
      "マ": 678,
      "ミ": 679,
      "ム": 680,
      "モ": 681,
      "ャ": 682,
      "ュ": 683,
      "ョ": 684,
      "ラ": 685,
      "リ": 686,
      "ル": 687,
      "レ": 688,
      "ロ": 689,
      "ン": 690,
      "ヴ": 691,
      "・": 692,
      "ー": 693,
      "一": 694,
      "七": 695,
      "下": 696,
      "世": 697,
      "丙": 698,
      "中": 699,
      "主": 700,
      "乃": 701,
      "之": 702,
      "乙": 703,
      "九": 704,
      "二": 705,
      "云": 706,
      "人": 707,
      "今": 708,
      "付": 709,
      "作": 710,
      "侗": 711,
      "依": 712,
      "信": 713,
      "傳": 714,
      "儚": 715,
      "充": 716,
      "光": 717,
      "全": 718,
      "兵": 719,
      "其": 720,
      "具": 721,
      "円": 722,
      "再": 723,
      "出": 724,
      "判": 725,
      "前": 726,
      "剛": 727,
      "劇": 728,
      "劉": 729,
      "動": 730,
      "化": 731,
      "北": 732,
      "华": 733,
      "厂": 734,
      "去": 735,
      "古": 736,
      "可": 737,
      "台": 738,
      "史": 739,
      "同": 740,
      "名": 741,
      "君": 742,
      "吳": 743,
      "周": 744,
      "命": 745,
      "和": 746,
      "咲": 747,
      "善": 748,
      "四": 749,
      "國": 750,
      "園": 751,
      "圣": 752,
      "在": 753,
      "坂": 754,
      "堤": 755,
      "場": 756,
      "塘": 757,
      "夕": 758,
      "大": 759,
      "天": 760,
      "夫": 761,
      "女": 762,
      "妙": 763,
      "姚": 764,
      "子": 765,
      "孟": 766,
      "守": 767,
      "安": 768,
      "宋": 769,
      "完": 770,
      "宗": 771,
      "宝": 772,
      "宫": 773,
      "寝": 774,
      "寺": 775,
      "小": 776,
      "少": 777,
      "尾": 778,
      "山": 779,
      "岳": 780,
      "川": 781,
      "州": 782,
      "巳": 783,
      "市": 784,
      "師": 785,
      "平": 786,
      "广": 787,
      "庆": 788,
      "府": 789,
      "座": 790,
      "廬": 791,
      "建": 792,
      "式": 793,
      "張": 794,
      "彌": 795,
      "彩": 796,
      "彼": 797,
      "後": 798,
      "御": 799,
      "德": 800,
      "思": 801,
      "愛": 802,
      "憑": 803,
      "憶": 804,
      "應": 805,
      "懷": 806,
      "战": 807,
      "戦": 808,
      "扈": 809,
      "技": 810,
      "拉": 811,
      "拳": 812,
      "挑": 813,
      "揺": 814,
      "攻": 815,
      "放": 816,
      "政": 817,
      "散": 818,
      "斯": 819,
      "方": 820,
      "日": 821,
      "旦": 822,
      "旭": 823,
      "昌": 824,
      "明": 825,
      "星": 826,
      "春": 827,
      "晋": 828,
      "景": 829,
      "曦": 830,
      "月": 831,
      "望": 832,
      "未": 833,
      "本": 834,
      "李": 835,
      "村": 836,
      "杜": 837,
      "束": 838,
      "来": 839,
      "林": 840,
      "桜": 841,
      "梶": 842,
      "棘": 843,
      "椎": 844,
      "楊": 845,
      "楚": 846,
      "榮": 847,
      "橘": 848,
      "機": 849,
      "正": 850,
      "殻": 851,
      "殿": 852,
      "母": 853,
      "水": 854,
      "汉": 855,
      "沂": 856,
      "沙": 857,
      "河": 858,
      "泗": 859,
      "波": 860,
      "泣": 861,
      "洪": 862,
      "淹": 863,
      "清": 864,
      "湯": 865,
      "漢": 866,
      "澄": 867,
      "澤": 868,
      "火": 869,
      "灯": 870,
      "灵": 871,
      "灼": 872,
      "焼": 873,
      "熱": 874,
      "物": 875,
      "狐": 876,
      "狸": 877,
      "玄": 878,
      "王": 879,
      "玩": 880,
      "珂": 881,
      "珙": 882,
      "球": 883,
      "理": 884,
      "琦": 885,
      "琪": 886,
      "瓊": 887,
      "生": 888,
      "田": 889,
      "畢": 890,
      "番": 891,
      "瘡": 892,
      "白": 893,
      "皮": 894,
      "真": 895,
      "砲": 896,
      "礮": 897,
      "祈": 898,
      "神": 899,
      "祠": 900,
      "秋": 901,
      "空": 902,
      "立": 903,
      "精": 904,
      "約": 905,
      "絵": 906,
      "織": 907,
      "義": 908,
      "翠": 909,
      "者": 910,
      "耕": 911,
      "肖": 912,
      "胡": 913,
      "膀": 914,
      "臂": 915,
      "興": 916,
      "良": 917,
      "花": 918,
      "芳": 919,
      "芽": 920,
      "若": 921,
      "英": 922,
      "藕": 923,
      "藥": 924,
      "蘄": 925,
      "蘇": 926,
      "行": 927,
      "裁": 928,
      "規": 929,
      "覺": 930,
      "观": 931,
      "解": 932,
      "記": 933,
      "誓": 934,
      "誡": 935,
      "誰": 936,
      "謎": 937,
      "许": 938,
      "谭": 939,
      "豪": 940,
      "豫": 941,
      "費": 942,
      "贵": 943,
      "赤": 944,
      "趙": 945,
      "足": 946,
      "跡": 947,
      "転": 948,
      "辛": 949,
      "逆": 950,
      "遇": 951,
      "運": 952,
      "過": 953,
      "遠": 954,
      "選": 955,
      "邦": 956,
      "邱": 957,
      "部": 958,
      "郭": 959,
      "都": 960,
      "酈": 961,
      "里": 962,
      "野": 963,
      "金": 964,
      "銃": 965,
      "鋼": 966,
      "錄": 967,
      "錡": 968,
      "鍵": 969,
      "鐵": 970,
      "钱": 971,
      "铁": 972,
      "關": 973,
      "防": 974,
      "阿": 975,
      "陈": 976,
      "陳": 977,
      "陽": 978,
      "隊": 979,
      "階": 980,
      "集": 981,
      "雪": 982,
      "雲": 983,
      "霖": 984,
      "霹": 985,
      "靂": 986,
      "韓": 987,
      "願": 988,
      "顯": 989,
      "颜": 990,
      "马": 991,
      "高": 992,
      "龍": 993,
      "대": 994,
      "독": 995,
      "라": 996,
      "립": 997,
      "병": 998,
      "보": 999,
      "부": 1000,
      "알": 1001,
      "연": 1002,
      "제": 1003,
      "ﷲ": 1004,
      "ﻋ": 1005,
      "﻿": 1006,
      "／": 1007,
      "３": 1008,
      "～": 1009,
      "�": 1010,
      "a▁": 1011,
      "s▁": 1012,
      "h▁": 1013,
      "l▁": 1014,
      "n▁": 1015,
      "u▁": 1016,
      "t▁": 1017,
      "e▁": 1018,
      "z▁": 1019,
      "i▁": 1020,
      "d▁": 1021,
      "r▁": 1022,
      "o▁": 1023,
      "m▁": 1024,
      "銃▁": 1025,
      "k▁": 1026,
      "ə▁": 1027,
      "w▁": 1028,
      "क▁": 1029,
      "S▁": 1030,
      "F▁": 1031,
      "B▁": 1032,
      "y▁": 1033,
      "5▁": 1034,
      "0▁": 1035,
      "g▁": 1036,
      "x▁": 1037,
      "p▁": 1038,
      "7▁": 1039,
      "c▁": 1040,
      "9▁": 1041,
      "1▁": 1042,
      "j▁": 1043,
      "4▁": 1044,
      "N▁": 1045,
      "2▁": 1046,
      "6▁": 1047,
      "狐▁": 1048,
      "v▁": 1049,
      "f▁": 1050,
      "b▁": 1051,
      "X▁": 1052,
      "3▁": 1053,
      "け▁": 1054,
      "い▁": 1055,
      "A▁": 1056,
      "R▁": 1057,
      "T▁": 1058,
      "ê▁": 1059,
      "E▁": 1060,
      "C▁": 1061,
      "ი▁": 1062,
      "″▁": 1063,
      "ς▁": 1064,
      "ī▁": 1065,
      "χ▁": 1066,
      "V▁": 1067,
      "q▁": 1068,
      "ḥ▁": 1069,
      "L▁": 1070,
      "Y▁": 1071,
      "W▁": 1072,
      "ย▁": 1073,
      "8▁": 1074,
      "á▁": 1075,
      "ई▁": 1076,
      "!▁": 1077,
      "Z▁": 1078,
      "ブ▁": 1079,
      "P▁": 1080,
      "ū▁": 1081,
      "宫▁": 1082,
      "ფ▁": 1083,
      "ä▁": 1084,
      "M▁": 1085,
      "I▁": 1086,
      "é▁": 1087,
      "ー▁": 1088,
      "O▁": 1089,
      "ć▁": 1090,
      "-▁": 1091,
      "ب▁": 1092,
      "▁": 1093,
      ":▁": 1094,
      "D▁": 1095,
      "U▁": 1096,
      "J▁": 1097,
      "”▁": 1098,
      "ჷ▁": 1099,
      "\"▁": 1100,
      "ā▁": 1101,
      "ą▁": 1102,
      "ア▁": 1103,
      "剛▁": 1104,
      "H▁": 1105,
      "漢▁": 1106,
      "º▁": 1107,
      "्▁": 1108,
      "Ⴕ▁": 1109,
      "о▁": 1110,
      "ν▁": 1111,
      "世▁": 1112,
      "ネ▁": 1113,
      "_▁": 1114,
      "й▁": 1115,
      "ี▁": 1116,
      "ス▁": 1117,
      "华▁": 1118,
      "ご▁": 1119,
      "=▁": 1120,
      "ộ▁": 1121,
      "G▁": 1122,
      "ル▁": 1123,
      "誡▁": 1124,
      "ś▁": 1125,
      "ნ▁": 1126,
      "♯▁": 1127,
      "ɑ▁": 1128,
      "シ▁": 1129,
      "市▁": 1130,
      "γ▁": 1131,
      "ô▁": 1132,
      "錄▁": 1133,
      "჻▁": 1134,
      "ם▁": 1135,
      "う▁": 1136,
      "K▁": 1137,
      "&▁": 1138,
      "ı▁": 1139,
      "£▁": 1140,
      "ლ▁": 1141,
      ".▁": 1142,
      "ら▁": 1143,
      "̥▁": 1144,
      "í▁": 1145,
      "ე▁": 1146,
      "ュ▁": 1147,
      "信▁": 1148,
      "ੁ▁": 1149,
      "ള▁": 1150,
      "ō▁": 1151,
      "…▁": 1152,
      "里▁": 1153,
      "ჩ▁": 1154,
      "跡▁": 1155,
      "ó▁": 1156,
      "ჰ▁": 1157,
      "ה▁": 1158,
      "ξ▁": 1159,
      "師▁": 1160,
      "ǔ▁": 1161,
      "☫▁": 1162,
      "द▁": 1163,
      "−▁": 1164,
      "義▁": 1165,
      "☉▁": 1166,
      "з▁": 1167,
      "Q▁": 1168,
      "ן▁": 1169,
      "球▁": 1170,
      "ต▁": 1171,
      "ซ▁": 1172,
      "ण▁": 1173,
      "თ▁": 1174,
      "村▁": 1175,
      "ა▁": 1176,
      "旭▁": 1177,
      "ग▁": 1178,
      "中▁": 1179,
      "ჹ▁": 1180,
      "‘▁": 1181,
      "イ▁": 1182,
      "α▁": 1183,
      "る▁": 1184,
      "ح▁": 1185,
      "า▁": 1186,
      "州▁": 1187,
      "絵▁": 1188,
      "¢▁": 1189,
      "@▁": 1190,
      "昌▁": 1191,
      "ė▁": 1192,
      "๊▁": 1193,
      "à▁": 1194,
      "♀▁": 1195,
      "拉▁": 1196,
      "ư▁": 1197,
      "ल▁": 1198,
      "ه▁": 1199,
      "ズ▁": 1200,
      "棘▁": 1201,
      "р▁": 1202,
      "₣▁": 1203,
      "ø▁": 1204,
      "明▁": 1205,
      "３▁": 1206,
      "Ⴈ▁": 1207,
      "ん▁": 1208,
      "้▁": 1209,
      "作▁": 1210,
      "ニ▁": 1211,
      "霖▁": 1212,
      "ั▁": 1213,
      "خ▁": 1214,
      "€▁": 1215,
      "場▁": 1216,
      "♭▁": 1217,
      "在▁": 1218,
      "ह▁": 1219,
      "ɪ▁": 1220,
      "瓊▁": 1221,
      "Ⴀ▁": 1222,
      "を▁": 1223,
      "د▁": 1224,
      "Å▁": 1225,
      "ź▁": 1226,
      "チ▁": 1227,
      "่▁": 1228,
      "ナ▁": 1229,
      "�▁": 1230,
      "а▁": 1231,
      "政▁": 1232,
      "น▁": 1233,
      "キ▁": 1234,
      "พ▁": 1235,
      "¿▁": 1236,
      "¡▁": 1237,
      "ا▁": 1238,
      "ɛ▁": 1239,
      "ɫ▁": 1240,
      "Ⴟ▁": 1241,
      "‡▁": 1242,
      "ι▁": 1243,
      "ﻋ▁": 1244,
      "ჱ▁": 1245,
      "²▁": 1246,
      "豪▁": 1247,
      "〜▁": 1248,
      "ت▁": 1249,
      "ჶ▁": 1250,
      "æ▁": 1251,
      "დ▁": 1252,
      "望▁": 1253,
      "贵▁": 1254,
      "შ▁": 1255,
      "き▁": 1256,
      "技▁": 1257,
      "⚳▁": 1258,
      "英▁": 1259,
      "塘▁": 1260,
      "ს▁": 1261,
      "ბ▁": 1262,
      "¥▁": 1263,
      "子▁": 1264,
      "ã▁": 1265,
      "+▁": 1266,
      "澤▁": 1267,
      "梶▁": 1268,
      "女▁": 1269,
      "／▁": 1270,
      "Χ▁": 1271,
      "ö▁": 1272,
      "ც▁": 1273,
      "ů▁": 1274,
      "ก▁": 1275,
      "†▁": 1276,
      "ن▁": 1277,
      "・▁": 1278,
      "①▁": 1279,
      "/▁": 1280,
      "্▁": 1281,
      "³▁": 1282,
      "遇▁": 1283,
      "部▁": 1284,
      "]▁": 1285,
      "“▁": 1286,
      "(▁": 1287,
      "堤▁": 1288,
      "者▁": 1289,
      "丙▁": 1290,
      "ă▁": 1291,
      "花▁": 1292,
      "•▁": 1293,
      "⁄▁": 1294,
      "л▁": 1295,
      "橘▁": 1296,
      "ú▁": 1297,
      "ɐ▁": 1298,
      "府▁": 1299,
      "礮▁": 1300,
      "א▁": 1301,
      "ܐ▁": 1302,
      "็▁": 1303,
      "观▁": 1304,
      "%▁": 1305,
      "ر▁": 1306,
      "主▁": 1307,
      "š▁": 1308,
      "〈▁": 1309,
      "ჭ▁": 1310,
      "ò▁": 1311,
      "͍▁": 1312,
      "—▁": 1313,
      "ń▁": 1314,
      "ỹ▁": 1315,
      "#▁": 1316,
      "關▁": 1317,
      "ʔ▁": 1318,
      "ン▁": 1319,
      "台▁": 1320,
      "ṯ▁": 1321,
      "旦▁": 1322,
      "[▁": 1323,
      "*▁": 1324,
      "ო▁": 1325,
      "砲▁": 1326,
      "კ▁": 1327,
      "ʿ▁": 1328,
      "ị▁": 1329,
      "ร▁": 1330,
      "規▁": 1331,
      ">▁": 1332,
      "っ▁": 1333,
      "ド▁": 1334,
      "战▁": 1335,
      "<▁": 1336,
      "‐▁": 1337,
      "り▁": 1338,
      "た▁": 1339,
      "と▁": 1340,
      "я▁": 1341,
      "ฮ▁": 1342,
      "方▁": 1343,
      "უ▁": 1344,
      "è▁": 1345,
      "ყ▁": 1346,
      "名▁": 1347,
      "č▁": 1348,
      "清▁": 1349,
      "ɔ▁": 1350,
      "ɢ▁": 1351,
      "±▁": 1352,
      "彩▁": 1353,
      "§▁": 1354,
      "れ▁": 1355,
      "灯▁": 1356,
      "空▁": 1357,
      "乃▁": 1358,
      "ﷲ▁": 1359,
      "ạ▁": 1360,
      "琦▁": 1361,
      "е▁": 1362,
      "春▁": 1363,
      "ß▁": 1364,
      "û▁": 1365,
      "ჲ▁": 1366,
      "Ⴂ▁": 1367,
      "ึ▁": 1368,
      "ʻ▁": 1369,
      "テ▁": 1370,
      "\\▁": 1371,
      "沙▁": 1372,
      "鋼▁": 1373,
      "全▁": 1374,
      "琪▁": 1375,
      "→▁": 1376,
      "榮▁": 1377,
      "人▁": 1378,
      "ù▁": 1379,
      "錡▁": 1380,
      "判▁": 1381,
      "平▁": 1382,
      "്▁": 1383,
      "י▁": 1384,
      "–▁": 1385,
      ";▁": 1386,
      "ύ▁": 1387,
      "ː▁": 1388,
      "হ▁": 1389,
      "ਹ▁": 1390,
      "с▁": 1391,
      "°▁": 1392,
      "Ⴌ▁": 1393,
      "ഹ▁": 1394,
      "ิ▁": 1395,
      "ま▁": 1396,
      "̍▁": 1397,
      "ω▁": 1398,
      "め▁": 1399,
      "愛▁": 1400,
      "月▁": 1401,
      "â▁": 1402,
      "ჯ▁": 1403,
      "川▁": 1404,
      "β▁": 1405,
      "河▁": 1406,
      "珙▁": 1407,
      "·▁": 1408,
      "珂▁": 1409,
      "წ▁": 1410,
      ")▁": 1411,
      "大▁": 1412,
      "ラ▁": 1413,
      "½▁": 1414,
      "出▁": 1415,
      "ơ▁": 1416,
      "δ▁": 1417,
      "ة▁": 1418,
      "汉▁": 1419,
      "์▁": 1420,
      "Ø▁": 1421,
      "г▁": 1422,
      "ჟ▁": 1423,
      "Ⴃ▁": 1424,
      "‑▁": 1425,
      "პ▁": 1426,
      "ų▁": 1427,
      "本▁": 1428,
      "ল▁": 1429,
      "傳▁": 1430,
      "ვ▁": 1431,
      "ܬ▁": 1432,
      "х▁": 1433,
      "侗▁": 1434,
      "〉▁": 1435,
      "Ω▁": 1436,
      "ὁ▁": 1437,
      "~▁": 1438,
      "ʕ▁": 1439,
      "⅓▁": 1440,
      "ł▁": 1441,
      "´▁": 1442,
      "×▁": 1443,
      "̃▁": 1444,
      "^▁": 1445,
      "膀▁": 1446,
      "ू▁": 1447,
      "﻿▁": 1448,
      "同▁": 1449,
      "充▁": 1450,
      "ღ▁": 1451,
      "芳▁": 1452,
      "雪▁": 1453,
      "ş▁": 1454,
      "₹▁": 1455,
      "þ▁": 1456,
      ",▁": 1457,
      "田▁": 1458,
      "≡▁": 1459,
      "精▁": 1460,
      "曦▁": 1461,
      "隊▁": 1462,
      "ჸ▁": 1463,
      "二▁": 1464,
      "ỗ▁": 1465,
      "に▁": 1466,
      "|▁": 1467,
      "ง▁": 1468,
      "̯▁": 1469,
      "瘡▁": 1470,
      "生▁": 1471,
      "ɡ▁": 1472,
      "რ▁": 1473,
      "プ▁": 1474,
      "ზ▁": 1475,
      "É▁": 1476,
      "ქ▁": 1477,
      "?▁": 1478,
      "厂▁": 1479,
      "ף▁": 1480,
      "'▁": 1481,
      "園▁": 1482,
      "ฐ▁": 1483,
      "山▁": 1484,
      "殿▁": 1485,
      "▁": 1486,
      "न▁": 1487,
      "懷▁": 1488,
      "μ▁": 1489,
      "≤▁": 1490,
      "​▁": 1491,
      "라▁": 1492,
      "～▁": 1493,
      "́▁": 1494,
      "安▁": 1495,
      "祠▁": 1496,
      "र▁": 1497,
      "ツ▁": 1498,
      "化▁": 1499,
      "대▁": 1500,
      "’▁": 1501,
      "豫▁": 1502,
      "ჳ▁": 1503,
      "ỏ▁": 1504,
      "ხ▁": 1505,
      "س▁": 1506,
      "⅔▁": 1507,
      "興▁": 1508,
      "و▁": 1509,
      "覺▁": 1510,
      "}▁": 1511,
      "ë▁": 1512,
      "`▁": 1513,
      "雲▁": 1514,
      "ל▁": 1515,
      "ჵ▁": 1516,
      "Φ▁": 1517,
      "ð▁": 1518,
      "გ▁": 1519,
      "ǎ▁": 1520,
      "フ▁": 1521,
      "„▁": 1522,
      "ჺ▁": 1523,
      "費▁": 1524,
      "₤▁": 1525,
      "′▁": 1526,
      "მ▁": 1527,
      "ว▁": 1528,
      "み▁": 1529,
      "鍵▁": 1530,
      "Ó▁": 1531,
      "寺▁": 1532,
      "ּ▁": 1533,
      "$▁": 1534,
      "物▁": 1535,
      "集▁": 1536,
      "ء▁": 1537,
      "ჴ▁": 1538,
      "ტ▁": 1539,
      "ỳ▁": 1540,
      "ि▁": 1541,
      "―▁": 1542,
      "遠▁": 1543,
      "選▁": 1544,
      "θ▁": 1545,
      "广▁": 1546,
      "ძ▁": 1547,
      "顯▁": 1548,
      "स▁": 1549,
      "ē▁": 1550,
      "th": 1551,
      "the▁": 1552,
      "in": 1553,
      "an": 1554,
      "ed▁": 1555,
      "er": 1556,
      "re": 1557,
      "ar": 1558,
      "ti": 1559,
      "on": 1560,
      "of▁": 1561,
      "and▁": 1562,
      "or": 1563,
      "en": 1564,
      "er▁": 1565,
      "on▁": 1566,
      "in▁": 1567,
      "ing▁": 1568,
      "ou": 1569,
      "it": 1570,
      "al": 1571,
      "to▁": 1572,
      "as▁": 1573,
      "st": 1574,
      "es▁": 1575,
      "at": 1576,
      "ro": 1577,
      "hi": 1578,
      "ac": 1579,
      "al▁": 1580,
      "he▁": 1581,
      "si": 1582,
      "at▁": 1583,
      "an▁": 1584,
      "el": 1585,
      "ri": 1586,
      "or▁": 1587,
      "st▁": 1588,
      "ur": 1589,
      "ec": 1590,
      "om": 1591,
      "am": 1592,
      "li": 1593,
      "was▁": 1594,
      "ly▁": 1595,
      "en▁": 1596,
      "di": 1597,
      "ea": 1598,
      "tion▁": 1599,
      "il": 1600,
      "The▁": 1601,
      "ol": 1602,
      "-@▁": 1603,
      "@-@▁": 1604,
      "is▁": 1605,
      "ic": 1606,
      "la": 1607,
      "ha": 1608,
      "de": 1609,
      "ra": 1610,
      "le▁": 1611,
      "un": 1612,
      "em": 1613,
      "that▁": 1614,
      "ow": 1615,
      "ith▁": 1616,
      "ve▁": 1617,
      "is": 1618,
      "es": 1619,
      "for▁": 1620,
      "be": 1621,
      "by▁": 1622,
      "ch▁": 1623,
      "with▁": 1624,
      "ir": 1625,
      "ent": 1626,
      "con": 1627,
      "ent▁": 1628,
      "ch": 1629,
      "su": 1630,
      "ag": 1631,
      "ere▁": 1632,
      "ev": 1633,
      "th▁": 1634,
      "ce▁": 1635,
      "as": 1636,
      "ers▁": 1637,
      "19": 1638,
      "lo": 1639,
      "ad": 1640,
      "po": 1641,
      "pro": 1642,
      "oun": 1643,
      "his▁": 1644,
      "the": 1645,
      "bu": 1646,
      "vi": 1647,
      "com": 1648,
      "et": 1649,
      "for": 1650,
      "wh": 1651,
      "rom▁": 1652,
      "gh": 1653,
      "sp": 1654,
      "us": 1655,
      "tion": 1656,
      "from▁": 1657,
      "ov": 1658,
      "op": 1659,
      "ted▁": 1660,
      "ab": 1661,
      "it▁": 1662,
      "ex": 1663,
      "ation▁": 1664,
      "ap": 1665,
      "20": 1666,
      "no": 1667,
      "ts▁": 1668,
      "whi": 1669,
      "sh": 1670,
      "ay▁": 1671,
      "were▁": 1672,
      "ter▁": 1673,
      "ds▁": 1674,
      "ul": 1675,
      "ear": 1676,
      "ther▁": 1677,
      "im": 1678,
      "oo": 1679,
      "se▁": 1680,
      "ter": 1681,
      "rec": 1682,
      "ate▁": 1683,
      "le": 1684,
      "ated▁": 1685,
      "sc": 1686,
      "ding▁": 1687,
      "ity▁": 1688,
      "ru": 1689,
      "lu": 1690,
      "qu": 1691,
      "de▁": 1692,
      "ded▁": 1693,
      "pre": 1694,
      "mo": 1695,
      "ame▁": 1696,
      "per": 1697,
      "du": 1698,
      "ing": 1699,
      "ma": 1700,
      "ir▁": 1701,
      "ep": 1702,
      "ff": 1703,
      "are▁": 1704,
      "ta": 1705,
      "tw": 1706,
      "ld▁": 1707,
      "had▁": 1708,
      "all▁": 1709,
      "which▁": 1710,
      "In▁": 1711,
      "one▁": 1712,
      "gu": 1713,
      "et▁": 1714,
      "oc": 1715,
      "pl": 1716,
      "be▁": 1717,
      "ong▁": 1718,
      "ran": 1719,
      "ally▁": 1720,
      "um": 1721,
      "tions▁": 1722,
      "out▁": 1723,
      "inc": 1724,
      "so▁": 1725,
      "ver": 1726,
      "fir": 1727,
      "gh▁": 1728,
      "ne": 1729,
      "ber▁": 1730,
      "par": 1731,
      "fi": 1732,
      "tim": 1733,
      "man": 1734,
      "its▁": 1735,
      "ar▁": 1736,
      "ge▁": 1737,
      "por": 1738,
      "ine▁": 1739,
      "ght▁": 1740,
      "St": 1741,
      "lea": 1742,
      "der": 1743,
      "ies▁": 1744,
      "est": 1745,
      "wor": 1746,
      "ary▁": 1747,
      "sion▁": 1748,
      "son▁": 1749,
      "ke▁": 1750,
      "att": 1751,
      "bo": 1752,
      "se": 1753,
      "but▁": 1754,
      "rou": 1755,
      "Ch": 1756,
      "tic": 1757,
      "200": 1758,
      "ser": 1759,
      "own▁": 1760,
      "tur": 1761,
      "their▁": 1762,
      "Th": 1763,
      "ca": 1764,
      "not▁": 1765,
      "est▁": 1766,
      "first▁": 1767,
      "og": 1768,
      "der▁": 1769,
      "pla": 1770,
      "pu": 1771,
      "fter▁": 1772,
      "sed▁": 1773,
      "ore▁": 1774,
      "her▁": 1775,
      "sa": 1776,
      "ould▁": 1777,
      "also▁": 1778,
      "ni": 1779,
      "led▁": 1780,
      "ali": 1781,
      "ard▁": 1782,
      "cont": 1783,
      "ound▁": 1784,
      "el▁": 1785,
      "00▁": 1786,
      "our": 1787,
      "have▁": 1788,
      "ack▁": 1789,
      "age▁": 1790,
      "ents▁": 1791,
      "fe": 1792,
      "has▁": 1793,
      "ome▁": 1794,
      "ks▁": 1795,
      "id": 1796,
      "stor": 1797,
      "ting▁": 1798,
      "ence▁": 1799,
      "been▁": 1800,
      "gi": 1801,
      "us▁": 1802,
      "two▁": 1803,
      "ment▁": 1804,
      "shi": 1805,
      ".@▁": 1806,
      "@.@▁": 1807,
      "duc": 1808,
      "to": 1809,
      "ess▁": 1810,
      "other▁": 1811,
      "land▁": 1812,
      "low": 1813,
      "bec": 1814,
      "ved▁": 1815,
      "this▁": 1816,
      "ater▁": 1817,
      "ous▁": 1818,
      "ear▁": 1819,
      "sh▁": 1820,
      "ig": 1821,
      "tr": 1822,
      "uring▁": 1823,
      "In": 1824,
      "ely▁": 1825,
      "who▁": 1826,
      "sec": 1827,
      "te▁": 1828,
      "they▁": 1829,
      "201": 1830,
      "mil": 1831,
      "over": 1832,
      "pres": 1833,
      "Al": 1834,
      "tive▁": 1835,
      "ons▁": 1836,
      "fin": 1837,
      "ite▁": 1838,
      "ric": 1839,
      "king▁": 1840,
      "pe": 1841,
      "ei": 1842,
      "comm": 1843,
      "He▁": 1844,
      "form": 1845,
      "ren": 1846,
      "18": 1847,
      "res▁": 1848,
      "co": 1849,
      "inclu": 1850,
      "our▁": 1851,
      "id▁": 1852,
      ",@▁": 1853,
      "@,@▁": 1854,
      "ell▁": 1855,
      "ned▁": 1856,
      "ant▁": 1857,
      "time▁": 1858,
      "rit": 1859,
      "ho": 1860,
      "after▁": 1861,
      "pa": 1862,
      "wi": 1863,
      "min": 1864,
      "ree▁": 1865,
      "tra": 1866,
      "str": 1867,
      "ss▁": 1868,
      "sig": 1869,
      "tional▁": 1870,
      "pri": 1871,
      "au": 1872,
      "me": 1873,
      "over▁": 1874,
      "ade▁": 1875,
      "It▁": 1876,
      "able▁": 1877,
      "mu": 1878,
      "Mar": 1879,
      "ember▁": 1880,
      "lan": 1881,
      "ci": 1882,
      "into▁": 1883,
      "ic▁": 1884,
      "een▁": 1885,
      "more▁": 1886,
      "spec": 1887,
      "ed": 1888,
      "ay": 1889,
      "ked▁": 1890,
      "tic▁": 1891,
      "ty▁": 1892,
      "thou": 1893,
      "ese▁": 1894,
      "ure▁": 1895,
      "cent": 1896,
      "na": 1897,
      "als▁": 1898,
      "Ro": 1899,
      "play": 1900,
      "ever▁": 1901,
      "re▁": 1902,
      "would▁": 1903,
      "up▁": 1904,
      "ace▁": 1905,
      "way▁": 1906,
      "used▁": 1907,
      "An": 1908,
      "ited▁": 1909,
      "use▁": 1910,
      "char": 1911,
      "man▁": 1912,
      "ten": 1913,
      "ings▁": 1914,
      "ey▁": 1915,
      "eral▁": 1916,
      "aga": 1917,
      "les▁": 1918,
      "inter": 1919,
      "ft▁": 1920,
      "ance▁": 1921,
      "lar": 1922,
      "mar": 1923,
      "tu": 1924,
      "most▁": 1925,
      "ach": 1926,
      "ins▁": 1927,
      "ates▁": 1928,
      "Au": 1929,
      "ern▁": 1930,
      "ined▁": 1931,
      "ces▁": 1932,
      "go": 1933,
      "do": 1934,
      "off": 1935,
      "ew": 1936,
      "pan": 1937,
      "sea": 1938,
      "fil": 1939,
      "ew▁": 1940,
      "mer": 1941,
      "stru": 1942,
      "dec": 1943,
      "bli": 1944,
      "ning▁": 1945,
      "only▁": 1946,
      "ties▁": 1947,
      "ess": 1948,
      "are": 1949,
      "av": 1950,
      "when▁": 1951,
      "mon": 1952,
      "ical▁": 1953,
      "gen": 1954,
      "pp": 1955,
      "during▁": 1956,
      "En": 1957,
      "she▁": 1958,
      "col": 1959,
      "ong": 1960,
      "ans▁": 1961,
      "ps▁": 1962,
      "cre": 1963,
      "than▁": 1964,
      "sti": 1965,
      "app": 1966,
      "ss": 1967,
      "loc": 1968,
      "sev": 1969,
      "kn": 1970,
      "ial▁": 1971,
      "Ar": 1972,
      "um▁": 1973,
      "ations▁": 1974,
      "pi": 1975,
      "sel": 1976,
      "ach▁": 1977,
      "Bri": 1978,
      "Jo": 1979,
      "him▁": 1980,
      "game▁": 1981,
      "about▁": 1982,
      "te": 1983,
      "199": 1984,
      "ond▁": 1985,
      "old▁": 1986,
      "ad▁": 1987,
      "ari": 1988,
      "cc": 1989,
      "ving▁": 1990,
      "while▁": 1991,
      "three▁": 1992,
      "end▁": 1993,
      "ears▁": 1994,
      "Com": 1995,
      "ship▁": 1996,
      "sy": 1997,
      "fu": 1998,
      "ass": 1999,
      "Un": 2000,
      "gra": 2001,
      "betw": 2002,
      "between▁": 2003,
      "tor": 2004,
      "recor": 2005,
      "fol": 2006,
      "hea": 2007,
      "of": 2008,
      "throu": 2009,
      "ber": 2010,
      "ble▁": 2011,
      "though▁": 2012,
      "num": 2013,
      "ang": 2014,
      "star": 2015,
      "ating▁": 2016,
      "ee": 2017,
      "struc": 2018,
      "fore▁": 2019,
      "gre": 2020,
      "scri": 2021,
      "ice▁": 2022,
      "coun": 2023,
      "ves▁": 2024,
      "ook▁": 2025,
      "Li": 2026,
      "later▁": 2027,
      "season▁": 2028,
      "ling▁": 2029,
      "writ": 2030,
      "nor": 2031,
      "beg": 2032,
      "cla": 2033,
      "ls▁": 2034,
      "outh▁": 2035,
      "made▁": 2036,
      "ph": 2037,
      "olog": 2038,
      "where▁": 2039,
      "emp": 2040,
      "row": 2041,
      "produc": 2042,
      "fa": 2043,
      "vel": 2044,
      "day▁": 2045,
      "new▁": 2046,
      "ury▁": 2047,
      "ten▁": 2048,
      "hel": 2049,
      "sub": 2050,
      "meric": 2051,
      "sur": 2052,
      "Americ": 2053,
      "ement▁": 2054,
      "relea": 2055,
      "cal": 2056,
      "ill▁": 2057,
      "eg": 2058,
      "red▁": 2059,
      "and": 2060,
      "Par": 2061,
      "tro": 2062,
      "bi": 2063,
      "ist": 2064,
      "ver▁": 2065,
      "000▁": 2066,
      "rac": 2067,
      "ames▁": 2068,
      "ry▁": 2069,
      "them▁": 2070,
      "Wh": 2071,
      "such▁": 2072,
      "ards▁": 2073,
      "publi": 2074,
      "ud": 2075,
      "year▁": 2076,
      "eb": 2077,
      "some▁": 2078,
      "cri": 2079,
      "ob": 2080,
      "with": 2081,
      "enti": 2082,
      "buil": 2083,
      "This▁": 2084,
      "sm": 2085,
      "am▁": 2086,
      "ssi": 2087,
      "can▁": 2088,
      "ann": 2089,
      "tri": 2090,
      "On▁": 2091,
      "fe▁": 2092,
      "ture▁": 2093,
      "albu": 2094,
      "song▁": 2095,
      "ood▁": 2096,
      "side▁": 2097,
      "before▁": 2098,
      "bas": 2099,
      "aw": 2100,
      "ect▁": 2101,
      "being▁": 2102,
      "lar▁": 2103,
      "ste": 2104,
      "Eng": 2105,
      "well▁": 2106,
      "mi": 2107,
      "years▁": 2108,
      "yp": 2109,
      "follow": 2110,
      "dre": 2111,
      "owever▁": 2112,
      "fic": 2113,
      "ton▁": 2114,
      "gr": 2115,
      "Nor": 2116,
      "ected▁": 2117,
      "early▁": 2118,
      "mov": 2119,
      "work▁": 2120,
      "many▁": 2121,
      "ying▁": 2122,
      "known▁": 2123,
      "ga": 2124,
      "od▁": 2125,
      "cap": 2126,
      "mat": 2127,
      "line▁": 2128,
      "bel": 2129,
      "low▁": 2130,
      "poin": 2131,
      "chi": 2132,
      "tly▁": 2133,
      "part▁": 2134,
      "series▁": 2135,
      "iso": 2136,
      "ms▁": 2137,
      "sic▁": 2138,
      "album▁": 2139,
      "then▁": 2140,
      "story▁": 2141,
      "ort▁": 2142,
      "ced▁": 2143,
      "through▁": 2144,
      "second▁": 2145,
      "des▁": 2146,
      "consi": 2147,
      "posi": 2148,
      "iz": 2149,
      "tran": 2150,
      "acc": 2151,
      "Con": 2152,
      "fac": 2153,
      "ters▁": 2154,
      "shed▁": 2155,
      "both▁": 2156,
      "Mo": 2157,
      "ince▁": 2158,
      "ia▁": 2159,
      "mp": 2160,
      "end": 2161,
      "Ju": 2162,
      "direc": 2163,
      "no▁": 2164,
      "inst▁": 2165,
      "ale▁": 2166,
      "including▁": 2167,
      "Car": 2168,
      "New▁": 2169,
      "fer": 2170,
      "lin": 2171,
      "film▁": 2172,
      "against▁": 2173,
      "number▁": 2174,
      "cu": 2175,
      "became▁": 2176,
      "episo": 2177,
      "ors▁": 2178,
      "port▁": 2179,
      "charac": 2180,
      "dic": 2181,
      "nam": 2182,
      "my▁": 2183,
      "tiv": 2184,
      "Joh": 2185,
      "eng": 2186,
      "ak": 2187,
      "reas": 2188,
      "198": 2189,
      "inv": 2190,
      "sup": 2191,
      "Bo": 2192,
      "descri": 2193,
      "10▁": 2194,
      "there▁": 2195,
      "ack": 2196,
      "cer": 2197,
      "peri": 2198,
      "tor▁": 2199,
      "orig": 2200,
      "sing": 2201,
      "United▁": 2202,
      "devel": 2203,
      "tho": 2204,
      "ily▁": 2205,
      "sch": 2206,
      "clu": 2207,
      "sul": 2208,
      "dy▁": 2209,
      "ered▁": 2210,
      "succ": 2211,
      "cha": 2212,
      "ised▁": 2213,
      "century▁": 2214,
      "emb": 2215,
      "Ma": 2216,
      "contin": 2217,
      "ish": 2218,
      "four▁": 2219,
      "inf": 2220,
      "lion▁": 2221,
      "ler▁": 2222,
      "bor": 2223,
      "sk": 2224,
      "rema": 2225,
      "tish▁": 2226,
      "ays▁": 2227,
      "ery▁": 2228,
      "il▁": 2229,
      "sts▁": 2230,
      "ish▁": 2231,
      "tle▁": 2232,
      "arri": 2233,
      "ster▁": 2234,
      "under▁": 2235,
      "Ri": 2236,
      "diff": 2237,
      "several▁": 2238,
      "sho": 2239,
      "After▁": 2240,
      "ets▁": 2241,
      "air": 2242,
      "tre": 2243,
      "0s▁": 2244,
      "began▁": 2245,
      "dep": 2246,
      "ause▁": 2247,
      "like▁": 2248,
      "ll▁": 2249,
      "194": 2250,
      "197": 2251,
      "eam▁": 2252,
      "196": 2253,
      "sing▁": 2254,
      "develop": 2255,
      "ns▁": 2256,
      "bed▁": 2257,
      "Di": 2258,
      "Wor": 2259,
      "oper": 2260,
      "win": 2261,
      "ron": 2262,
      "origin": 2263,
      "mis": 2264,
      "ey": 2265,
      "ses▁": 2266,
      "jo": 2267,
      "ory▁": 2268,
      "tain▁": 2269,
      "any▁": 2270,
      "do▁": 2271,
      "ore": 2272,
      "ant": 2273,
      "serv": 2274,
      "called▁": 2275,
      "episode▁": 2276,
      "continu": 2277,
      "found▁": 2278,
      "ne▁": 2279,
      "As▁": 2280,
      "ley▁": 2281,
      "uni": 2282,
      "une▁": 2283,
      "Col": 2284,
      "high": 2285,
      "til▁": 2286,
      "gg": 2287,
      "comp": 2288,
      "ople▁": 2289,
      "back▁": 2290,
      "recei": 2291,
      "city▁": 2292,
      "Na": 2293,
      "now▁": 2294,
      "self▁": 2295,
      "Su": 2296,
      "ath▁": 2297,
      "Ger": 2298,
      "ful▁": 2299,
      "gue▁": 2300,
      "ef": 2301,
      "ining▁": 2302,
      "could▁": 2303,
      "said▁": 2304,
      "sol": 2305,
      "feat": 2306,
      "overn": 2307,
      "ot": 2308,
      "don▁": 2309,
      "poli": 2310,
      "American▁": 2311,
      "set▁": 2312,
      "these▁": 2313,
      "tical▁": 2314,
      "may▁": 2315,
      "oci": 2316,
      "clo": 2317,
      "eld▁": 2318,
      "each▁": 2319,
      "ane▁": 2320,
      "bl": 2321,
      "sted▁": 2322,
      "dis": 2323,
      "desig": 2324,
      "British▁": 2325,
      "until▁": 2326,
      "ju": 2327,
      "tel": 2328,
      "off▁": 2329,
      "released▁": 2330,
      "sive▁": 2331,
      "fam": 2332,
      "Hi": 2333,
      "om▁": 2334,
      "urch▁": 2335,
      "did▁": 2336,
      "ou▁": 2337,
      "same▁": 2338,
      "20▁": 2339,
      "ept": 2340,
      "dist": 2341,
      "dra": 2342,
      "30▁": 2343,
      "dered▁": 2344,
      "ini": 2345,
      "bro": 2346,
      "appear": 2347,
      "ward▁": 2348,
      "thern▁": 2349,
      "retur": 2350,
      "vers": 2351,
      "They▁": 2352,
      "Oc": 2353,
      "area▁": 2354,
      "ner▁": 2355,
      "me▁": 2356,
      "bri": 2357,
      "del": 2358,
      "formed▁": 2359,
      "ut": 2360,
      "disc": 2361,
      "because▁": 2362,
      "down▁": 2363,
      "ection▁": 2364,
      "under": 2365,
      "pany▁": 2366,
      "II▁": 2367,
      "ill": 2368,
      "Pro": 2369,
      "million▁": 2370,
      "eal": 2371,
      "Chri": 2372,
      "try▁": 2373,
      "50▁": 2374,
      "Augu": 2375,
      "offic": 2376,
      "sta": 2377,
      "cur": 2378,
      "people▁": 2379,
      "lation▁": 2380,
      "Is": 2381,
      "John▁": 2382,
      "tics▁": 2383,
      "Gu": 2384,
      "Wil": 2385,
      "cam": 2386,
      "life▁": 2387,
      "along▁": 2388,
      "compl": 2389,
      "sions▁": 2390,
      "adv": 2391,
      "She▁": 2392,
      "ly": 2393,
      "team▁": 2394,
      "Sh": 2395,
      "dition▁": 2396,
      "view": 2397,
      "grou": 2398,
      "lish▁": 2399,
      "Austr": 2400,
      "around▁": 2401,
      "ower▁": 2402,
      "vision▁": 2403,
      "plac": 2404,
      "However▁": 2405,
      "met": 2406,
      "ird▁": 2407,
      "vo": 2408,
      "ented▁": 2409,
      "popu": 2410,
      "form▁": 2411,
      "Can": 2412,
      "At▁": 2413,
      "sid": 2414,
      "Po": 2415,
      "Sept": 2416,
      "May▁": 2417,
      "long▁": 2418,
      "September▁": 2419,
      "uro": 2420,
      "August▁": 2421,
      "ales▁": 2422,
      "following▁": 2423,
      "org": 2424,
      "hou": 2425,
      "contro": 2426,
      "Mon": 2427,
      "Australi": 2428,
      "requ": 2429,
      "World▁": 2430,
      "bre": 2431,
      "dam": 2432,
      "loo": 2433,
      "Jan": 2434,
      "five▁": 2435,
      "sou": 2436,
      "wee": 2437,
      "music▁": 2438,
      "spon": 2439,
      "resul": 2440,
      "ai": 2441,
      "km▁": 2442,
      "national▁": 2443,
      "large▁": 2444,
      "out": 2445,
      "complet": 2446,
      "lic": 2447,
      "def": 2448,
      "what▁": 2449,
      "15▁": 2450,
      "ast▁": 2451,
      "ful": 2452,
      "very▁": 2453,
      "ast": 2454,
      "ip": 2455,
      "12▁": 2456,
      "port": 2457,
      "ral▁": 2458,
      "ous": 2459,
      "state▁": 2460,
      "els▁": 2461,
      "ens▁": 2462,
      "maj": 2463,
      "stem▁": 2464,
      "June▁": 2465,
      "Fran": 2466,
      "ened▁": 2467,
      "sion": 2468,
      "reg": 2469,
      "ording▁": 2470,
      "ther": 2471,
      "inten": 2472,
      "amp": 2473,
      "eff": 2474,
      "play▁": 2475,
      "ball▁": 2476,
      "vari": 2477,
      "ately▁": 2478,
      "sis▁": 2479,
      "16": 2480,
      "195": 2481,
      "fied▁": 2482,
      "name▁": 2483,
      "ord": 2484,
      "arm": 2485,
      "ext▁": 2486,
      "ys▁": 2487,
      "art▁": 2488,
      "since▁": 2489,
      "up": 2490,
      "States▁": 2491,
      "species▁": 2492,
      "ements▁": 2493,
      "final▁": 2494,
      "cul": 2495,
      "ool▁": 2496,
      "received▁": 2497,
      "hal": 2498,
      "govern": 2499,
      "uc": 2500,
      "ole▁": 2501,
      "took▁": 2502,
      "ead▁": 2503,
      "appro": 2504,
      "partic": 2505,
      "17": 2506,
      "batt": 2507,
      "fun": 2508,
      "east▁": 2509,
      "ork▁": 2510,
      "Her": 2511,
      "War▁": 2512,
      "ven▁": 2513,
      "ise▁": 2514,
      "exp": 2515,
      "described▁": 2516,
      "men▁": 2517,
      "per▁": 2518,
      "son": 2519,
      "will▁": 2520,
      "even▁": 2521,
      "ology▁": 2522,
      "tober▁": 2523,
      "played▁": 2524,
      "October▁": 2525,
      "Lo": 2526,
      "ist▁": 2527,
      "ross▁": 2528,
      "moved▁": 2529,
      "high▁": 2530,
      "larg": 2531,
      "place▁": 2532,
      "Uni": 2533,
      "Euro": 2534,
      "Nov": 2535,
      "field▁": 2536,
      "som": 2537,
      "ina▁": 2538,
      "fri": 2539,
      "late▁": 2540,
      "pical▁": 2541,
      "deo▁": 2542,
      "less▁": 2543,
      "anc": 2544,
      "193": 2545,
      "ground▁": 2546,
      "South▁": 2547,
      "so": 2548,
      "provi": 2549,
      "ue▁": 2550,
      "car": 2551,
      "position▁": 2552,
      "lit": 2553,
      "increas": 2554,
      "rote▁": 2555,
      "sequ": 2556,
      "..": 2557,
      "ision▁": 2558,
      "wrote▁": 2559,
      "Pre": 2560,
      "her": 2561,
      "ported▁": 2562,
      "Per": 2563,
      "lev": 2564,
      "ently▁": 2565,
      "July▁": 2566,
      "Coun": 2567,
      "Dec": 2568,
      "cra": 2569,
      "arly▁": 2570,
      "named▁": 2571,
      "won▁": 2572,
      "construc": 2573,
      "times▁": 2574,
      "medi": 2575,
      "vic": 2576,
      "reli": 2577,
      "due▁": 2578,
      "bur": 2579,
      "gener": 2580,
      "ects▁": 2581,
      "ility▁": 2582,
      "uary▁": 2583,
      "kil": 2584,
      "ven": 2585,
      "rela": 2586,
      "ian▁": 2587,
      "During▁": 2588,
      "ages▁": 2589,
      "much▁": 2590,
      "sen": 2591,
      "udi": 2592,
      "25▁": 2593,
      "respon": 2594,
      "Apri": 2595,
      "single▁": 2596,
      "April▁": 2597,
      "cor": 2598,
      "stri": 2599,
      "ches▁": 2600,
      "North▁": 2601,
      "west▁": 2602,
      "inst": 2603,
      "...▁": 2604,
      "posed▁": 2605,
      "ships▁": 2606,
      "prot": 2607,
      "16▁": 2608,
      "18▁": 2609,
      "hum": 2610,
      "14▁": 2611,
      "typ": 2612,
      "omin": 2613,
      "oman▁": 2614,
      "ched▁": 2615,
      "another▁": 2616,
      "Ad": 2617,
      "Mc": 2618,
      "run": 2619,
      "included▁": 2620,
      "record▁": 2621,
      "kes▁": 2622,
      "ems▁": 2623,
      "January▁": 2624,
      "ual▁": 2625,
      "stud": 2626,
      "estab": 2627,
      "differ": 2628,
      "aged▁": 2629,
      "within▁": 2630,
      "England▁": 2631,
      "Gre": 2632,
      "York▁": 2633,
      "ath": 2634,
      "yl": 2635,
      "enn": 2636,
      "built▁": 2637,
      "based▁": 2638,
      "ged▁": 2639,
      "if▁": 2640,
      "beli": 2641,
      "ongs▁": 2642,
      "pr": 2643,
      "although▁": 2644,
      "left▁": 2645,
      "yed▁": 2646,
      "attemp": 2647,
      "family▁": 2648,
      "ats▁": 2649,
      "ines▁": 2650,
      "previ": 2651,
      "11▁": 2652,
      "site▁": 2653,
      "ech": 2654,
      "games▁": 2655,
      "ony▁": 2656,
      "sour": 2657,
      "light▁": 2658,
      "ored▁": 2659,
      "ken▁": 2660,
      "water▁": 2661,
      "eight▁": 2662,
      "ick▁": 2663,
      "Bar": 2664,
      "Vi": 2665,
      "ati": 2666,
      "main▁": 2667,
      "care": 2668,
      "ign▁": 2669,
      "March▁": 2670,
      "ments▁": 2671,
      "stan": 2672,
      "own": 2673,
      "November▁": 2674,
      "ended▁": 2675,
      "six▁": 2676,
      "Ge": 2677,
      "pe▁": 2678,
      "vil": 2679,
      "them": 2680,
      "adi": 2681,
      "all": 2682,
      "Re": 2683,
      "tal▁": 2684,
      "lim": 2685,
      "cl": 2686,
      "ths▁": 2687,
      "small▁": 2688,
      "ard": 2689,
      "home▁": 2690,
      "system▁": 2691,
      "book▁": 2692,
      "ze▁": 2693,
      "group▁": 2694,
      "organ": 2695,
      "north▁": 2696,
      "December▁": 2697,
      "hy": 2698,
      "third▁": 2699,
      "view▁": 2700,
      "using▁": 2701,
      "auth": 2702,
      "those▁": 2703,
      "show▁": 2704,
      "ram": 2705,
      "thing▁": 2706,
      "urric": 2707,
      "last▁": 2708,
      "ogra": 2709,
      "zed▁": 2710,
      "13▁": 2711,
      "dge▁": 2712,
      "leg": 2713,
      "storm▁": 2714,
      "just▁": 2715,
      "cou": 2716,
      "plan": 2717,
      "ached▁": 2718,
      "sum": 2719,
      "dom▁": 2720,
      "City▁": 2721,
      "Ho": 2722,
      "regi": 2723,
      "ject▁": 2724,
      "ker▁": 2725,
      "Indi": 2726,
      "ribu": 2727,
      "near▁": 2728,
      "ature▁": 2729,
      "ampi": 2730,
      "original▁": 2731,
      "government▁": 2732,
      "war▁": 2733,
      "world▁": 2734,
      "south▁": 2735,
      "ham▁": 2736,
      "character▁": 2737,
      "fur": 2738,
      "thers▁": 2739,
      "ously▁": 2740,
      "ell": 2741,
      "cep": 2742,
      "phi": 2743,
      "ital▁": 2744,
      "head▁": 2745,
      "ences▁": 2746,
      "His▁": 2747,
      "Mu": 2748,
      "tow": 2749,
      "itary▁": 2750,
      "best▁": 2751,
      "sure▁": 2752,
      "Ca": 2753,
      "For": 2754,
      "Fe": 2755,
      "fl": 2756,
      "When▁": 2757,
      "German▁": 2758,
      "versity▁": 2759,
      "ili": 2760,
      "ening▁": 2761,
      "At": 2762,
      "2009▁": 2763,
      "chan": 2764,
      "stitu": 2765,
      "17▁": 2766,
      "video▁": 2767,
      "trans": 2768,
      "Da": 2769,
      "2008▁": 2770,
      "arti": 2771,
      "2010▁": 2772,
      "ock▁": 2773,
      "cour": 2774,
      "ring▁": 2775,
      "some": 2776,
      "allow": 2777,
      "esp": 2778,
      "act▁": 2779,
      "National▁": 2780,
      "ety▁": 2781,
      "make▁": 2782,
      "ff▁": 2783,
      "issu": 2784,
      "forman": 2785,
      "int▁": 2786,
      "ality▁": 2787,
      "ired▁": 2788,
      "ism▁": 2789,
      "Le": 2790,
      "ether▁": 2791,
      "ound": 2792,
      "establi": 2793,
      "death▁": 2794,
      "pur": 2795,
      "There▁": 2796,
      "Man": 2797,
      "success": 2798,
      "Cor": 2799,
      "possi": 2800,
      "player▁": 2801,
      "US▁": 2802,
      "ough▁": 2803,
      "19▁": 2804,
      "wea": 2805,
      "still▁": 2806,
      "Gen": 2807,
      "cal▁": 2808,
      "read": 2809,
      "role▁": 2810,
      "divi": 2811,
      "iled▁": 2812,
      "track▁": 2813,
      "history▁": 2814,
      "served▁": 2815,
      "ind▁": 2816,
      "River▁": 2817,
      "major▁": 2818,
      "val": 2819,
      "version▁": 2820,
      "can": 2821,
      "top▁": 2822,
      "Lea": 2823,
      "nov": 2824,
      "often▁": 2825,
      "100▁": 2826,
      "Bra": 2827,
      "urricane▁": 2828,
      "ol▁": 2829,
      "simil": 2830,
      "oot": 2831,
      "rown▁": 2832,
      "town▁": 2833,
      "ld": 2834,
      "yle▁": 2835,
      "chang": 2836,
      "ra▁": 2837,
      "stre": 2838,
      "continued▁": 2839,
      "By▁": 2840,
      "tively▁": 2841,
      "company▁": 2842,
      "considered▁": 2843,
      "sugg": 2844,
      "12": 2845,
      "band▁": 2846,
      "cas": 2847,
      "next▁": 2848,
      "quar": 2849,
      "2007▁": 2850,
      "bir": 2851,
      "ef▁": 2852,
      "Fren": 2853,
      "vis": 2854,
      "ick": 2855,
      "recorded▁": 2856,
      "initi": 2857,
      "published▁": 2858,
      "Char": 2859,
      "One▁": 2860,
      "Rec": 2861,
      "em▁": 2862,
      "fel": 2863,
      "Inter": 2864,
      "career▁": 2865,
      "dro": 2866,
      "Batt": 2867,
      "again▁": 2868,
      "Acc": 2869,
      "mer▁": 2870,
      "performan": 2871,
      "came▁": 2872,
      "show": 2873,
      "pas": 2874,
      "set": 2875,
      "take▁": 2876,
      "period▁": 2877,
      "bs▁": 2878,
      "held▁": 2879,
      "ire▁": 2880,
      "sses▁": 2881,
      "bar": 2882,
      "English▁": 2883,
      "sw": 2884,
      "mor": 2885,
      "aff": 2886,
      "you▁": 2887,
      "ops▁": 2888,
      "ghts▁": 2889,
      "half▁": 2890,
      "ped▁": 2891,
      "songs▁": 2892,
      "signed▁": 2893,
      "without▁": 2894,
      "Qu": 2895,
      "let": 2896,
      "body▁": 2897,
      "public▁": 2898,
      "ges▁": 2899,
      "written▁": 2900,
      "den▁": 2901,
      "days▁": 2902,
      "ang▁": 2903,
      "repres": 2904,
      "French▁": 2905,
      "local▁": 2906,
      "rev": 2907,
      "eved▁": 2908,
      "refer": 2909,
      "Ser": 2910,
      "ult▁": 2911,
      "dri": 2912,
      "ures▁": 2913,
      "res": 2914,
      "ams▁": 2915,
      "ek▁": 2916,
      "disp": 2917,
      "Mic": 2918,
      "cy": 2919,
      "ested▁": 2920,
      "point▁": 2921,
      "acks▁": 2922,
      "former▁": 2923,
      "memb": 2924,
      "ston▁": 2925,
      "21▁": 2926,
      "east": 2927,
      "ana▁": 2928,
      "State▁": 2929,
      "dren▁": 2930,
      "ldren▁": 2931,
      "scen": 2932,
      "placed▁": 2933,
      "os▁": 2934,
      "support▁": 2935,
      "10": 2936,
      "ghout▁": 2937,
      "new": 2938,
      "wat": 2939,
      "ured▁": 2940,
      "2011▁": 2941,
      "cy▁": 2942,
      "sit": 2943,
      "que▁": 2944,
      "few▁": 2945,
      "release▁": 2946,
      "tropical▁": 2947,
      "ll": 2948,
      "dest": 2949,
      "ration▁": 2950,
      "Ber": 2951,
      "Chi": 2952,
      "Du": 2953,
      "ized▁": 2954,
      "club▁": 2955,
      "row▁": 2956,
      "import": 2957,
      "become▁": 2958,
      "ished▁": 2959,
      "Division▁": 2960,
      "Cre": 2961,
      "sha": 2962,
      "white▁": 2963,
      "2006▁": 2964,
      "fic▁": 2965,
      "Although▁": 2966,
      "hor": 2967,
      "action▁": 2968,
      "Ab": 2969,
      "den": 2970,
      "however▁": 2971,
      "Mis": 2972,
      "No▁": 2973,
      "further▁": 2974,
      "Bl": 2975,
      "power▁": 2976,
      "win▁": 2977,
      "studi": 2978,
      "estern▁": 2979,
      "road▁": 2980,
      "title▁": 2981,
      "right▁": 2982,
      "According▁": 2983,
      "Cha": 2984,
      "different▁": 2985,
      "Bu": 2986,
      "ative▁": 2987,
      "war": 2988,
      "ants▁": 2989,
      "Ni": 2990,
      "Fin": 2991,
      "ually▁": 2992,
      "yal▁": 2993,
      "cho": 2994,
      "run▁": 2995,
      "military▁": 2996,
      "claim": 2997,
      "23▁": 2998,
      "Af": 2999,
      "ours▁": 3000,
      "production▁": 3001,
      "fore": 3002,
      "lat": 3003,
      "proc": 3004,
      "signi": 3005,
      "League▁": 3006,
      "28▁": 3007,
      "Tw": 3008,
      "ich": 3009,
      "histor": 3010,
      "Whi": 3011,
      "get▁": 3012,
      "pit": 3013,
      "tru": 3014,
      "bert▁": 3015,
      "40▁": 3016,
      "ders▁": 3017,
      "ness▁": 3018,
      "cot": 3019,
      "Feb": 3020,
      "ur▁": 3021,
      "ruary▁": 3022,
      "February▁": 3023,
      "Co": 3024,
      "ford▁": 3025,
      "how▁": 3026,
      "24▁": 3027,
      "moder": 3028,
      "De": 3029,
      "bit": 3030,
      "Be": 3031,
      "For▁": 3032,
      "exten": 3033,
      "gave▁": 3034,
      "church▁": 3035,
      "epar": 3036,
      "produced▁": 3037,
      "ylan▁": 3038,
      "deci": 3039,
      "Dylan▁": 3040,
      "pra": 3041,
      "Tim": 3042,
      "order▁": 3043,
      "among▁": 3044,
      "fre": 3045,
      "Church▁": 3046,
      "ones▁": 3047,
      "tors▁": 3048,
      "ator▁": 3049,
      "evision▁": 3050,
      "overed▁": 3051,
      "ain▁": 3052,
      "equ": 3053,
      "ot▁": 3054,
      "2012▁": 3055,
      "Pri": 3056,
      "val▁": 3057,
      "defe": 3058,
      "children▁": 3059,
      "members▁": 3060,
      "we▁": 3061,
      "ney▁": 3062,
      "ests▁": 3063,
      "tory▁": 3064,
      "Mor": 3065,
      "da▁": 3066,
      "forces▁": 3067,
      "Sim": 3068,
      "him": 3069,
      "fire▁": 3070,
      "seen▁": 3071,
      "fron": 3072,
      "va▁": 3073,
      "atter": 3074,
      "ail": 3075,
      "face▁": 3076,
      "having▁": 3077,
      "22▁": 3078,
      "Jap": 3079,
      "tes▁": 3080,
      "Geor": 3081,
      "ide": 3082,
      "main": 3083,
      "fes": 3084,
      "similar▁": 3085,
      "Min": 3086,
      "include▁": 3087,
      "away▁": 3088,
      "ba": 3089,
      "my": 3090,
      "oung▁": 3091,
      "peti": 3092,
      "invol": 3093,
      "Ac": 3094,
      "common▁": 3095,
      "signific": 3096,
      "ars▁": 3097,
      "given▁": 3098,
      "influ": 3099,
      "sident▁": 3100,
      "26▁": 3101,
      "Mi": 3102,
      "ering▁": 3103,
      "alion▁": 3104,
      "house▁": 3105,
      "tal": 3106,
      "star▁": 3107,
      "lost▁": 3108,
      "making▁": 3109,
      "range▁": 3110,
      "Har": 3111,
      "Or": 3112,
      "Sch": 3113,
      "ine": 3114,
      "conta": 3115,
      "cel": 3116,
      "mul": 3117,
      "ways▁": 3118,
      "xim": 3119,
      "manag": 3120,
      "Ex": 3121,
      "short▁": 3122,
      "school▁": 3123,
      "rand▁": 3124,
      "sent▁": 3125,
      "stated▁": 3126,
      "gun": 3127,
      "ending▁": 3128,
      "coll": 3129,
      "wards▁": 3130,
      "ditional▁": 3131,
      "All▁": 3132,
      "co▁": 3133,
      "ends▁": 3134,
      "event": 3135,
      "2013▁": 3136,
      "developed▁": 3137,
      "ck▁": 3138,
      "reported▁": 3139,
      "tin▁": 3140,
      "onom": 3141,
      "craft▁": 3142,
      "ori": 3143,
      "ably▁": 3144,
      "control▁": 3145,
      "Sa": 3146,
      "agre": 3147,
      "13": 3148,
      "ban": 3149,
      "fem": 3150,
      "pass": 3151,
      "force▁": 3152,
      "cial▁": 3153,
      "Willi": 3154,
      "ental▁": 3155,
      "St▁": 3156,
      "go▁": 3157,
      "went▁": 3158,
      "comman": 3159,
      "lead▁": 3160,
      "ket▁": 3161,
      "General▁": 3162,
      "Sta": 3163,
      "total▁": 3164,
      "Cent": 3165,
      "oms▁": 3166,
      "While▁": 3167,
      "writing▁": 3168,
      "nec": 3169,
      "intro": 3170,
      "duced▁": 3171,
      "returned▁": 3172,
      "Lon": 3173,
      "University▁": 3174,
      "Si": 3175,
      "reland▁": 3176,
      "person": 3177,
      "lands▁": 3178,
      "Fi": 3179,
      "lay": 3180,
      "ush": 3181,
      "pul": 3182,
      "works▁": 3183,
      "father▁": 3184,
      "ampion": 3185,
      "established▁": 3186,
      "mas": 3187,
      "comb": 3188,
      "Som": 3189,
      "match▁": 3190,
      "These▁": 3191,
      "America▁": 3192,
      "announ": 3193,
      "op▁": 3194,
      "ech▁": 3195,
      "died▁": 3196,
      "concer": 3197,
      "attack▁": 3198,
      "Comm": 3199,
      "population▁": 3200,
      "eastern▁": 3201,
      "15": 3202,
      "Pal": 3203,
      "gade▁": 3204,
      "ological▁": 3205,
      "pea": 3206,
      "spo": 3207,
      "im▁": 3208,
      "reached▁": 3209,
      "ounded▁": 3210,
      "country▁": 3211,
      "construction▁": 3212,
      "har": 3213,
      "med▁": 3214,
      "earli": 3215,
      "Ireland▁": 3216,
      "ute▁": 3217,
      "review": 3218,
      "pped▁": 3219,
      "depend": 3220,
      "never▁": 3221,
      "noted▁": 3222,
      "Ass": 3223,
      "sting▁": 3224,
      "190": 3225,
      "cast▁": 3226,
      "building▁": 3227,
      "Wal": 3228,
      "ean▁": 3229,
      "ially▁": 3230,
      "men": 3231,
      "tem": 3232,
      "across▁": 3233,
      "lot▁": 3234,
      "located▁": 3235,
      "throughout▁": 3236,
      "result▁": 3237,
      "ak▁": 3238,
      "ority▁": 3239,
      "ash": 3240,
      "north": 3241,
      "change▁": 3242,
      "ensive▁": 3243,
      "commun": 3244,
      "seven▁": 3245,
      "stat": 3246,
      "board▁": 3247,
      "thought▁": 3248,
      "pol": 3249,
      "omen▁": 3250,
      "pression▁": 3251,
      "development▁": 3252,
      "felt▁": 3253,
      "London▁": 3254,
      "ural▁": 3255,
      "ada▁": 3256,
      "Feder": 3257,
      "himself▁": 3258,
      "ake▁": 3259,
      "rest▁": 3260,
      "destro": 3261,
      "27▁": 3262,
      "vy▁": 3263,
      "performed▁": 3264,
      "phy▁": 3265,
      "El": 3266,
      "ta▁": 3267,
      "suff": 3268,
      "Australia▁": 3269,
      "Afric": 3270,
      "ubli": 3271,
      "ref": 3272,
      "Pr": 3273,
      "elec": 3274,
      "ope▁": 3275,
      "stry▁": 3276,
      "ron▁": 3277,
      "eter▁": 3278,
      "miles▁": 3279,
      "full▁": 3280,
      "West▁": 3281,
      "29▁": 3282,
      "With▁": 3283,
      "important▁": 3284,
      "air▁": 3285,
      "cro": 3286,
      "mm▁": 3287,
      "anim": 3288,
      "itar▁": 3289,
      "week▁": 3290,
      "60▁": 3291,
      "style▁": 3292,
      "television▁": 3293,
      "So": 3294,
      "squ": 3295,
      "ingdom▁": 3296,
      "areas▁": 3297,
      "ular▁": 3298,
      "abo": 3299,
      "date▁": 3300,
      "appeared▁": 3301,
      "previous▁": 3302,
      "ootball▁": 3303,
      "Fl": 3304,
      "Scot": 3305,
      "King▁": 3306,
      "ific▁": 3307,
      "Me": 3308,
      "prob": 3309,
      "events▁": 3310,
      "marri": 3311,
      "mix": 3312,
      "Sec": 3313,
      "da": 3314,
      "desp": 3315,
      "thre": 3316,
      "started▁": 3317,
      "Se": 3318,
      "tech": 3319,
      "players▁": 3320,
      "James▁": 3321,
      "ogether▁": 3322,
      "Park▁": 3323,
      "Hor": 3324,
      "Sp": 3325,
      "doc": 3326,
      "hol": 3327,
      "tis": 3328,
      "feet▁": 3329,
      "Phi": 3330,
      "tation▁": 3331,
      "experi": 3332,
      "various▁": 3333,
      "spor": 3334,
      "gran": 3335,
      "sian▁": 3336,
      "come▁": 3337,
      "lear▁": 3338,
      "Moun": 3339,
      "Por": 3340,
      "TV▁": 3341,
      "use": 3342,
      "see▁": 3343,
      "night▁": 3344,
      "County▁": 3345,
      "performance▁": 3346,
      "Song▁": 3347,
      "caused▁": 3348,
      "too▁": 3349,
      "Davi": 3350,
      "sin": 3351,
      "tioned▁": 3352,
      "nia▁": 3353,
      "idd": 3354,
      "scrip": 3355,
      "rul": 3356,
      "Hou": 3357,
      "sons▁": 3358,
      "tial▁": 3359,
      "ament▁": 3360,
      "formation▁": 3361,
      "moun": 3362,
      "ularly▁": 3363,
      "earch▁": 3364,
      "nel▁": 3365,
      "four": 3366,
      "ics▁": 3367,
      "should▁": 3368,
      "tural▁": 3369,
      "wan": 3370,
      "created▁": 3371,
      "Sy": 3372,
      "han": 3373,
      "sical▁": 3374,
      "agaz": 3375,
      "political▁": 3376,
      "Sci": 3377,
      "Tur": 3378,
      "appoin": 3379,
      "2004▁": 3380,
      "religi": 3381,
      "villa": 3382,
      "live▁": 3383,
      "promo": 3384,
      "ounds▁": 3385,
      "2005▁": 3386,
      "Cam": 3387,
      "ution▁": 3388,
      "competi": 3389,
      "189": 3390,
      "level▁": 3391,
      "Sha": 3392,
      "usu": 3393,
      "sci": 3394,
      "taken▁": 3395,
      "saur": 3396,
      "characters▁": 3397,
      "cir": 3398,
      "ington▁": 3399,
      "The": 3400,
      "strong▁": 3401,
      "draw": 3402,
      "curren": 3403,
      "ample▁": 3404,
      "sett": 3405,
      "others▁": 3406,
      "ank": 3407,
      "ils▁": 3408,
      "fav": 3409,
      "tou": 3410,
      "estim": 3411,
      "uses▁": 3412,
      "tures▁": 3413,
      "good▁": 3414,
      "hind▁": 3415,
      "once▁": 3416,
      "ically▁": 3417,
      "radi": 3418,
      "born▁": 3419,
      "long": 3420,
      "era▁": 3421,
      "gun▁": 3422,
      "ock": 3423,
      "does▁": 3424,
      "modern▁": 3425,
      "Ham": 3426,
      "ie▁": 3427,
      "yard▁": 3428,
      "black▁": 3429,
      "BC▁": 3430,
      "Wi": 3431,
      "ever": 3432,
      "survi": 3433,
      "successful▁": 3434,
      "Rich": 3435,
      "nd▁": 3436,
      "ligh": 3437,
      "move▁": 3438,
      "Ang": 3439,
      "lines▁": 3440,
      "remained▁": 3441,
      "2nd▁": 3442,
      "occu": 3443,
      "becom": 3444,
      "dings▁": 3445,
      "dem": 3446,
      "compan": 3447,
      "scored▁": 3448,
      "great▁": 3449,
      "Christ": 3450,
      "completed▁": 3451,
      "Atlan": 3452,
      "Care": 3453,
      "Gal": 3454,
      "New": 3455,
      "nuc": 3456,
      "lies▁": 3457,
      "list▁": 3458,
      "Road▁": 3459,
      "critic": 3460,
      "diffic": 3461,
      "guns▁": 3462,
      "lik": 3463,
      "campa": 3464,
      "announced▁": 3465,
      "stars▁": 3466,
      "Australian▁": 3467,
      "ple▁": 3468,
      "pow": 3469,
      "tment▁": 3470,
      "Kingdom▁": 3471,
      "fle": 3472,
      "arded▁": 3473,
      "put▁": 3474,
      "vol": 3475,
      "aly": 3476,
      "acked▁": 3477,
      "sible▁": 3478,
      "mem": 3479,
      "Company▁": 3480,
      "eve▁": 3481,
      "hun": 3482,
      "ination▁": 3483,
      "stone▁": 3484,
      "added▁": 3485,
      "compar": 3486,
      "little▁": 3487,
      "instead▁": 3488,
      "az": 3489,
      "na▁": 3490,
      "enced▁": 3491,
      "itted▁": 3492,
      "ability▁": 3493,
      "rought▁": 3494,
      "region▁": 3495,
      "Sw": 3496,
      "dou": 3497,
      "arch": 3498,
      "present▁": 3499,
      "non▁": 3500,
      "voc": 3501,
      "wood▁": 3502,
      "ances▁": 3503,
      "read▁": 3504,
      "possible▁": 3505,
      "Im": 3506,
      "boo": 3507,
      "cop": 3508,
      "wide▁": 3509,
      "popular▁": 3510,
      "novel▁": 3511,
      "Am": 3512,
      "Bi": 3513,
      "Bro": 3514,
      "br": 3515,
      "sia▁": 3516,
      "least▁": 3517,
      "followed▁": 3518,
      "Cap": 3519,
      "cat": 3520,
      "hear": 3521,
      "ink▁": 3522,
      "paren": 3523,
      "wife▁": 3524,
      "Christi": 3525,
      "killed▁": 3526,
      "Cup▁": 3527,
      "together▁": 3528,
      "respec": 3529,
      "island▁": 3530,
      "aver": 3531,
      "ose▁": 3532,
      "addition▁": 3533,
      "months▁": 3534,
      "originally▁": 3535,
      "fully▁": 3536,
      "Hen": 3537,
      "To": 3538,
      "evid": 3539,
      "Army▁": 3540,
      "ists▁": 3541,
      "Music▁": 3542,
      "Cro": 3543,
      "stra": 3544,
      "associ": 3545,
      "human▁": 3546,
      "fall▁": 3547,
      "iting▁": 3548,
      "fif": 3549,
      "relation": 3550,
      "hurricane▁": 3551,
      "women▁": 3552,
      "fort▁": 3553,
      "mi▁": 3554,
      "opened▁": 3555,
      "recog": 3556,
      "Ed": 3557,
      "Val": 3558,
      "success▁": 3559,
      "carri": 3560,
      "critics▁": 3561,
      "southern▁": 3562,
      "Mil": 3563,
      "You▁": 3564,
      "hon": 3565,
      "dies▁": 3566,
      "ching▁": 3567,
      "termin": 3568,
      "2003▁": 3569,
      "lowing▁": 3570,
      "either▁": 3571,
      "return▁": 3572,
      "nal▁": 3573,
      "inning▁": 3574,
      "eventually▁": 3575,
      "ow▁": 3576,
      "features▁": 3577,
      "An▁": 3578,
      "Nav": 3579,
      "Ra": 3580,
      "To▁": 3581,
      "wal": 3582,
      "achi": 3583,
      "sist": 3584,
      "lic▁": 3585,
      "tained▁": 3586,
      "saw▁": 3587,
      "2015▁": 3588,
      "chae": 3589,
      "France▁": 3590,
      "David▁": 3591,
      "fo": 3592,
      "Fol": 3593,
      "On": 3594,
      "ve": 3595,
      "impro": 3596,
      "ampionship▁": 3597,
      "met▁": 3598,
      "nat": 3599,
      "ago▁": 3600,
      "every▁": 3601,
      "ports▁": 3602,
      "route▁": 3603,
      "Europe▁": 3604,
      "birds▁": 3605,
      "fourth▁": 3606,
      "tar": 3607,
      "indu": 3608,
      "ense▁": 3609,
      "lay▁": 3610,
      "forced▁": 3611,
      "gular▁": 3612,
      "contrac": 3613,
      "Europe": 3614,
      "Two▁": 3615,
      "lated▁": 3616,
      "young▁": 3617,
      "antry▁": 3618,
      "commer": 3619,
      "points▁": 3620,
      "sional▁": 3621,
      "decided▁": 3622,
      "bal": 3623,
      "pat": 3624,
      "minist": 3625,
      "class▁": 3626,
      "vir": 3627,
      "prote": 3628,
      "identi": 3629,
      "damage▁": 3630,
      "ols▁": 3631,
      "mother▁": 3632,
      "ota▁": 3633,
      "Ver": 3634,
      "ide▁": 3635,
      "playing▁": 3636,
      "Battalion▁": 3637,
      "agazine▁": 3638,
      "Ear": 3639,
      "sold▁": 3640,
      "separ": 3641,
      "forms▁": 3642,
      "pain": 3643,
      "bes▁": 3644,
      "ge": 3645,
      "nar": 3646,
      "tit": 3647,
      "behind▁": 3648,
      "leading▁": 3649,
      "finished▁": 3650,
      "heavy▁": 3651,
      "writer▁": 3652,
      "Grand▁": 3653,
      "indivi": 3654,
      "argu": 3655,
      "stand": 3656,
      "Stre": 3657,
      "structure▁": 3658,
      "believed▁": 3659,
      "Carey▁": 3660,
      "individu": 3661,
      "Jer": 3662,
      "Rep": 3663,
      "ming▁": 3664,
      "exic": 3665,
      "design▁": 3666,
      "eu": 3667,
      "mea": 3668,
      "front▁": 3669,
      "Gi": 3670,
      "occur": 3671,
      "aching▁": 3672,
      "ger▁": 3673,
      "vier▁": 3674,
      "mater": 3675,
      "appearance▁": 3676,
      "Love▁": 3677,
      "Shi": 3678,
      "bility▁": 3679,
      "gin": 3680,
      "stage▁": 3681,
      "emplo": 3682,
      "directed▁": 3683,
      "Mexic": 3684,
      "example▁": 3685,
      "eption▁": 3686,
      "langu": 3687,
      "piec": 3688,
      "close▁": 3689,
      "Rev": 3690,
      "ious▁": 3691,
      "kers▁": 3692,
      "almost▁": 3693,
      "goal▁": 3694,
      "31▁": 3695,
      "eel": 3696,
      "poem▁": 3697,
      "iment▁": 3698,
      "classi": 3699,
      "case▁": 3700,
      "Bal": 3701,
      "dy": 3702,
      "tice▁": 3703,
      "tured▁": 3704,
      "significant▁": 3705,
      "European▁": 3706,
      "Reg": 3707,
      "sem": 3708,
      "lied▁": 3709,
      "via▁": 3710,
      "shor": 3711,
      "188": 3712,
      "service▁": 3713,
      "generally▁": 3714,
      "Federer▁": 3715,
      "Mag": 3716,
      "cent▁": 3717,
      "elements▁": 3718,
      "ght": 3719,
      "Royal▁": 3720,
      "Robert▁": 3721,
      "going▁": 3722,
      "towards▁": 3723,
      "claimed▁": 3724,
      "open▁": 3725,
      "Fre": 3726,
      "brought▁": 3727,
      "yards▁": 3728,
      "ories▁": 3729,
      "ective▁": 3730,
      "laun": 3731,
      "Brigade▁": 3732,
      "weeks▁": 3733,
      "ready▁": 3734,
      "Oli": 3735,
      "Wales▁": 3736,
      "tan": 3737,
      "200▁": 3738,
      "William▁": 3739,
      "ida▁": 3740,
      "highway▁": 3741,
      "study▁": 3742,
      "Flor": 3743,
      "bers▁": 3744,
      "cru": 3745,
      "any": 3746,
      "lower▁": 3747,
      "audi": 3748,
      "featured▁": 3749,
      "1st▁": 3750,
      "Sar": 3751,
      "Some▁": 3752,
      "western▁": 3753,
      "vil▁": 3754,
      "cil▁": 3755,
      "aircraft▁": 3756,
      "Rom": 3757,
      "ai▁": 3758,
      "lear": 3759,
      "member▁": 3760,
      "pen": 3761,
      "tour▁": 3762,
      "project▁": 3763,
      "ators▁": 3764,
      "start▁": 3765,
      "upon▁": 3766,
      "hom": 3767,
      "ata▁": 3768,
      "room▁": 3769,
      "viol": 3770,
      "general▁": 3771,
      "deli": 3772,
      "Fil": 3773,
      "Ru": 3774,
      "Tri": 3775,
      "net": 3776,
      "conf": 3777,
      "pos": 3778,
      "scre": 3779,
      "Micha": 3780,
      "af": 3781,
      "parts▁": 3782,
      "ordan▁": 3783,
      "provided▁": 3784,
      "Other▁": 3785,
      "conclu": 3786,
      "Hol": 3787,
      "sen▁": 3788,
      "ark▁": 3789,
      "enth▁": 3790,
      "ha▁": 3791,
      "tom": 3792,
      "lue▁": 3793,
      "syn": 3794,
      "help▁": 3795,
      "Jordan▁": 3796,
      "Roman▁": 3797,
      "Tro": 3798,
      "race▁": 3799,
      "ws▁": 3800,
      "inj": 3801,
      "sea▁": 3802,
      "central▁": 3803,
      "ealth▁": 3804,
      "earlier▁": 3805,
      "conduc": 3806,
      "worked▁": 3807,
      "phy": 3808,
      "mission▁": 3809,
      "allowed▁": 3810,
      "mid▁": 3811,
      "nomin": 3812,
      "prac": 3813,
      "rather▁": 3814,
      "2014▁": 3815,
      "subsequ": 3816,
      "White▁": 3817,
      "south": 3818,
      "cept▁": 3819,
      "female▁": 3820,
      "saurus▁": 3821,
      "Atlantic▁": 3822,
      "Bus": 3823,
      "rd▁": 3824,
      "opening▁": 3825,
      "section▁": 3826,
      "campaign▁": 3827,
      "III▁": 3828,
      "foc": 3829,
      "ania▁": 3830,
      "sit▁": 3831,
      "working▁": 3832,
      "director▁": 3833,
      "operations▁": 3834,
      "largest▁": 3835,
      "victory▁": 3836,
      "International▁": 3837,
      "Following▁": 3838,
      "From▁": 3839,
      "insp": 3840,
      "ester▁": 3841,
      "particularly▁": 3842,
      "George▁": 3843,
      "wanted▁": 3844,
      "500▁": 3845,
      "East▁": 3846,
      "Fir": 3847,
      "Hel": 3848,
      "leng": 3849,
      "19th▁": 3850,
      "troops▁": 3851,
      "joined▁": 3852,
      "attempt▁": 3853,
      "cle▁": 3854,
      "fla": 3855,
      "river▁": 3856,
      "aper▁": 3857,
      "find▁": 3858,
      "Bur": 3859,
      "dru": 3860,
      "ket": 3861,
      "table▁": 3862,
      "indic": 3863,
      "rest": 3864,
      "ingly▁": 3865,
      "God▁": 3866,
      "Tra": 3867,
      "grow": 3868,
      "he": 3869,
      "ior▁": 3870,
      "lam": 3871,
      "rate▁": 3872,
      "stren": 3873,
      "Thom": 3874,
      "evidence▁": 3875,
      "wa": 3876,
      "185": 3877,
      "aul▁": 3878,
      "chart▁": 3879,
      "northern▁": 3880,
      "standing▁": 3881,
      "Florida▁": 3882,
      "Bel": 3883,
      "Eg": 3884,
      "Jew": 3885,
      "back": 3886,
      "gy▁": 3887,
      "ghter▁": 3888,
      "broad": 3889,
      "Brit": 3890,
      "bil": 3891,
      "sport▁": 3892,
      "saying▁": 3893,
      "designed▁": 3894,
      "outside▁": 3895,
      "ography▁": 3896,
      "mag": 3897,
      "tour": 3898,
      "accoun": 3899,
      "gram▁": 3900,
      "manager▁": 3901,
      "anese▁": 3902,
      "hours▁": 3903,
      "sex": 3904,
      "ym": 3905,
      "ano▁": 3906,
      "acy▁": 3907,
      "whom▁": 3908,
      "Street▁": 3909,
      "streng": 3910,
      "45▁": 3911,
      "70▁": 3912,
      "Hu": 3913,
      "ries▁": 3914,
      "event▁": 3915,
      "2001▁": 3916,
      "avail": 3917,
      "ociety▁": 3918,
      "Island▁": 3919,
      "souri▁": 3920,
      "Missouri▁": 3921,
      "iddle▁": 3922,
      "Hai": 3923,
      "Ne": 3924,
      "Tech▁": 3925,
      "love▁": 3926,
      "territ": 3927,
      "mach": 3928,
      "pressed▁": 3929,
      "drew▁": 3930,
      "Hero▁": 3931,
      "flo": 3932,
      "ke": 3933,
      "ession▁": 3934,
      "exist": 3935,
      "ama▁": 3936,
      "depic": 3937,
      "process▁": 3938,
      "Ara": 3939,
      "ind": 3940,
      "battle▁": 3941,
      "Rou": 3942,
      "fa▁": 3943,
      "vest": 3944,
      "ero": 3945,
      "amoun": 3946,
      "duction▁": 3947,
      "head": 3948,
      "great": 3949,
      "Air": 3950,
      "Bas": 3951,
      "Ke": 3952,
      "Tor": 3953,
      "gs▁": 3954,
      "ditions▁": 3955,
      "law▁": 3956,
      "super": 3957,
      "ocial▁": 3958,
      "soon▁": 3959,
      "praised▁": 3960,
      "80▁": 3961,
      "din": 3962,
      "prev": 3963,
      "remains▁": 3964,
      "Best▁": 3965,
      "round▁": 3966,
      "rish▁": 3967,
      "liament▁": 3968,
      "ung▁": 3969,
      "Old": 3970,
      "simp": 3971,
      "ecu": 3972,
      "imp": 3973,
      "tain": 3974,
      "word▁": 3975,
      "winds▁": 3976,
      "appointed▁": 3977,
      "Michael▁": 3978,
      "Vir": 3979,
      "nation▁": 3980,
      "resid": 3981,
      "profes": 3982,
      "taking▁": 3983,
      "month▁": 3984,
      "increased▁": 3985,
      "ublic▁": 3986,
      "House▁": 3987,
      "Paul▁": 3988,
      "Squ": 3989,
      "US": 3990,
      "ry": 3991,
      "league▁": 3992,
      "previously▁": 3993,
      "Black▁": 3994,
      "First▁": 3995,
      "Egyp": 3996,
      "Desp": 3997,
      "Mac": 3998,
      "od": 3999
    },
    "merges": [
      [
        "t",
        "h"
      ],
      [
        "th",
        "e▁"
      ],
      [
        "i",
        "n"
      ],
      [
        "a",
        "n"
      ],
      [
        "e",
        "d▁"
      ],
      [
        "e",
        "r"
      ],
      [
        "r",
        "e"
      ],
      [
        "a",
        "r"
      ],
      [
        "t",
        "i"
      ],
      [
        "o",
        "n"
      ],
      [
        "o",
        "f▁"
      ],
      [
        "an",
        "d▁"
      ],
      [
        "o",
        "r"
      ],
      [
        "e",
        "n"
      ],
      [
        "e",
        "r▁"
      ],
      [
        "o",
        "n▁"
      ],
      [
        "i",
        "n▁"
      ],
      [
        "in",
        "g▁"
      ],
      [
        "o",
        "u"
      ],
      [
        "i",
        "t"
      ],
      [
        "a",
        "l"
      ],
      [
        "t",
        "o▁"
      ],
      [
        "a",
        "s▁"
      ],
      [
        "s",
        "t"
      ],
      [
        "e",
        "s▁"
      ],
      [
        "a",
        "t"
      ],
      [
        "r",
        "o"
      ],
      [
        "h",
        "i"
      ],
      [
        "a",
        "c"
      ],
      [
        "a",
        "l▁"
      ],
      [
        "h",
        "e▁"
      ],
      [
        "s",
        "i"
      ],
      [
        "a",
        "t▁"
      ],
      [
        "a",
        "n▁"
      ],
      [
        "e",
        "l"
      ],
      [
        "r",
        "i"
      ],
      [
        "o",
        "r▁"
      ],
      [
        "s",
        "t▁"
      ],
      [
        "u",
        "r"
      ],
      [
        "e",
        "c"
      ],
      [
        "o",
        "m"
      ],
      [
        "a",
        "m"
      ],
      [
        "l",
        "i"
      ],
      [
        "w",
        "as▁"
      ],
      [
        "l",
        "y▁"
      ],
      [
        "e",
        "n▁"
      ],
      [
        "d",
        "i"
      ],
      [
        "e",
        "a"
      ],
      [
        "ti",
        "on▁"
      ],
      [
        "i",
        "l"
      ],
      [
        "T",
        "he▁"
      ],
      [
        "o",
        "l"
      ],
      [
        "-",
        "@▁"
      ],
      [
        "@",
        "-@▁"
      ],
      [
        "i",
        "s▁"
      ],
      [
        "i",
        "c"
      ],
      [
        "l",
        "a"
      ],
      [
        "h",
        "a"
      ],
      [
        "d",
        "e"
      ],
      [
        "r",
        "a"
      ],
      [
        "l",
        "e▁"
      ],
      [
        "u",
        "n"
      ],
      [
        "e",
        "m"
      ],
      [
        "th",
        "at▁"
      ],
      [
        "o",
        "w"
      ],
      [
        "it",
        "h▁"
      ],
      [
        "v",
        "e▁"
      ],
      [
        "i",
        "s"
      ],
      [
        "e",
        "s"
      ],
      [
        "f",
        "or▁"
      ],
      [
        "b",
        "e"
      ],
      [
        "b",
        "y▁"
      ],
      [
        "c",
        "h▁"
      ],
      [
        "w",
        "ith▁"
      ],
      [
        "i",
        "r"
      ],
      [
        "en",
        "t"
      ],
      [
        "c",
        "on"
      ],
      [
        "en",
        "t▁"
      ],
      [
        "c",
        "h"
      ],
      [
        "s",
        "u"
      ],
      [
        "a",
        "g"
      ],
      [
        "er",
        "e▁"
      ],
      [
        "e",
        "v"
      ],
      [
        "t",
        "h▁"
      ],
      [
        "c",
        "e▁"
      ],
      [
        "a",
        "s"
      ],
      [
        "er",
        "s▁"
      ],
      [
        "1",
        "9"
      ],
      [
        "l",
        "o"
      ],
      [
        "a",
        "d"
      ],
      [
        "p",
        "o"
      ],
      [
        "p",
        "ro"
      ],
      [
        "ou",
        "n"
      ],
      [
        "hi",
        "s▁"
      ],
      [
        "th",
        "e"
      ],
      [
        "b",
        "u"
      ],
      [
        "v",
        "i"
      ],
      [
        "c",
        "om"
      ],
      [
        "e",
        "t"
      ],
      [
        "f",
        "or"
      ],
      [
        "w",
        "h"
      ],
      [
        "ro",
        "m▁"
      ],
      [
        "g",
        "h"
      ],
      [
        "s",
        "p"
      ],
      [
        "u",
        "s"
      ],
      [
        "ti",
        "on"
      ],
      [
        "f",
        "rom▁"
      ],
      [
        "o",
        "v"
      ],
      [
        "o",
        "p"
      ],
      [
        "t",
        "ed▁"
      ],
      [
        "a",
        "b"
      ],
      [
        "i",
        "t▁"
      ],
      [
        "e",
        "x"
      ],
      [
        "a",
        "tion▁"
      ],
      [
        "a",
        "p"
      ],
      [
        "2",
        "0"
      ],
      [
        "n",
        "o"
      ],
      [
        "t",
        "s▁"
      ],
      [
        "w",
        "hi"
      ],
      [
        "s",
        "h"
      ],
      [
        "a",
        "y▁"
      ],
      [
        "w",
        "ere▁"
      ],
      [
        "t",
        "er▁"
      ],
      [
        "d",
        "s▁"
      ],
      [
        "u",
        "l"
      ],
      [
        "e",
        "ar"
      ],
      [
        "th",
        "er▁"
      ],
      [
        "i",
        "m"
      ],
      [
        "o",
        "o"
      ],
      [
        "s",
        "e▁"
      ],
      [
        "t",
        "er"
      ],
      [
        "re",
        "c"
      ],
      [
        "at",
        "e▁"
      ],
      [
        "l",
        "e"
      ],
      [
        "at",
        "ed▁"
      ],
      [
        "s",
        "c"
      ],
      [
        "d",
        "ing▁"
      ],
      [
        "it",
        "y▁"
      ],
      [
        "r",
        "u"
      ],
      [
        "l",
        "u"
      ],
      [
        "q",
        "u"
      ],
      [
        "d",
        "e▁"
      ],
      [
        "d",
        "ed▁"
      ],
      [
        "p",
        "re"
      ],
      [
        "m",
        "o"
      ],
      [
        "am",
        "e▁"
      ],
      [
        "p",
        "er"
      ],
      [
        "d",
        "u"
      ],
      [
        "in",
        "g"
      ],
      [
        "m",
        "a"
      ],
      [
        "i",
        "r▁"
      ],
      [
        "e",
        "p"
      ],
      [
        "f",
        "f"
      ],
      [
        "ar",
        "e▁"
      ],
      [
        "t",
        "a"
      ],
      [
        "t",
        "w"
      ],
      [
        "l",
        "d▁"
      ],
      [
        "ha",
        "d▁"
      ],
      [
        "al",
        "l▁"
      ],
      [
        "whi",
        "ch▁"
      ],
      [
        "I",
        "n▁"
      ],
      [
        "on",
        "e▁"
      ],
      [
        "g",
        "u"
      ],
      [
        "e",
        "t▁"
      ],
      [
        "o",
        "c"
      ],
      [
        "p",
        "l"
      ],
      [
        "b",
        "e▁"
      ],
      [
        "on",
        "g▁"
      ],
      [
        "r",
        "an"
      ],
      [
        "al",
        "ly▁"
      ],
      [
        "u",
        "m"
      ],
      [
        "tion",
        "s▁"
      ],
      [
        "ou",
        "t▁"
      ],
      [
        "in",
        "c"
      ],
      [
        "s",
        "o▁"
      ],
      [
        "v",
        "er"
      ],
      [
        "f",
        "ir"
      ],
      [
        "g",
        "h▁"
      ],
      [
        "n",
        "e"
      ],
      [
        "b",
        "er▁"
      ],
      [
        "p",
        "ar"
      ],
      [
        "f",
        "i"
      ],
      [
        "ti",
        "m"
      ],
      [
        "m",
        "an"
      ],
      [
        "it",
        "s▁"
      ],
      [
        "a",
        "r▁"
      ],
      [
        "g",
        "e▁"
      ],
      [
        "p",
        "or"
      ],
      [
        "in",
        "e▁"
      ],
      [
        "gh",
        "t▁"
      ],
      [
        "S",
        "t"
      ],
      [
        "l",
        "ea"
      ],
      [
        "d",
        "er"
      ],
      [
        "i",
        "es▁"
      ],
      [
        "e",
        "st"
      ],
      [
        "w",
        "or"
      ],
      [
        "ar",
        "y▁"
      ],
      [
        "si",
        "on▁"
      ],
      [
        "s",
        "on▁"
      ],
      [
        "k",
        "e▁"
      ],
      [
        "at",
        "t"
      ],
      [
        "b",
        "o"
      ],
      [
        "s",
        "e"
      ],
      [
        "bu",
        "t▁"
      ],
      [
        "r",
        "ou"
      ],
      [
        "C",
        "h"
      ],
      [
        "ti",
        "c"
      ],
      [
        "20",
        "0"
      ],
      [
        "s",
        "er"
      ],
      [
        "ow",
        "n▁"
      ],
      [
        "t",
        "ur"
      ],
      [
        "the",
        "ir▁"
      ],
      [
        "T",
        "h"
      ],
      [
        "c",
        "a"
      ],
      [
        "no",
        "t▁"
      ],
      [
        "e",
        "st▁"
      ],
      [
        "fir",
        "st▁"
      ],
      [
        "o",
        "g"
      ],
      [
        "d",
        "er▁"
      ],
      [
        "p",
        "la"
      ],
      [
        "p",
        "u"
      ],
      [
        "f",
        "ter▁"
      ],
      [
        "s",
        "ed▁"
      ],
      [
        "or",
        "e▁"
      ],
      [
        "h",
        "er▁"
      ],
      [
        "s",
        "a"
      ],
      [
        "ou",
        "ld▁"
      ],
      [
        "al",
        "so▁"
      ],
      [
        "n",
        "i"
      ],
      [
        "l",
        "ed▁"
      ],
      [
        "al",
        "i"
      ],
      [
        "ar",
        "d▁"
      ],
      [
        "con",
        "t"
      ],
      [
        "oun",
        "d▁"
      ],
      [
        "e",
        "l▁"
      ],
      [
        "0",
        "0▁"
      ],
      [
        "ou",
        "r"
      ],
      [
        "ha",
        "ve▁"
      ],
      [
        "ac",
        "k▁"
      ],
      [
        "ag",
        "e▁"
      ],
      [
        "ent",
        "s▁"
      ],
      [
        "f",
        "e"
      ],
      [
        "h",
        "as▁"
      ],
      [
        "om",
        "e▁"
      ],
      [
        "k",
        "s▁"
      ],
      [
        "i",
        "d"
      ],
      [
        "st",
        "or"
      ],
      [
        "t",
        "ing▁"
      ],
      [
        "en",
        "ce▁"
      ],
      [
        "be",
        "en▁"
      ],
      [
        "g",
        "i"
      ],
      [
        "u",
        "s▁"
      ],
      [
        "tw",
        "o▁"
      ],
      [
        "m",
        "ent▁"
      ],
      [
        "s",
        "hi"
      ],
      [
        ".",
        "@▁"
      ],
      [
        "@",
        ".@▁"
      ],
      [
        "du",
        "c"
      ],
      [
        "t",
        "o"
      ],
      [
        "es",
        "s▁"
      ],
      [
        "o",
        "ther▁"
      ],
      [
        "l",
        "and▁"
      ],
      [
        "l",
        "ow"
      ],
      [
        "b",
        "ec"
      ],
      [
        "v",
        "ed▁"
      ],
      [
        "th",
        "is▁"
      ],
      [
        "at",
        "er▁"
      ],
      [
        "ou",
        "s▁"
      ],
      [
        "ea",
        "r▁"
      ],
      [
        "s",
        "h▁"
      ],
      [
        "i",
        "g"
      ],
      [
        "t",
        "r"
      ],
      [
        "ur",
        "ing▁"
      ],
      [
        "I",
        "n"
      ],
      [
        "el",
        "y▁"
      ],
      [
        "wh",
        "o▁"
      ],
      [
        "s",
        "ec"
      ],
      [
        "t",
        "e▁"
      ],
      [
        "the",
        "y▁"
      ],
      [
        "20",
        "1"
      ],
      [
        "m",
        "il"
      ],
      [
        "ov",
        "er"
      ],
      [
        "pre",
        "s"
      ],
      [
        "A",
        "l"
      ],
      [
        "ti",
        "ve▁"
      ],
      [
        "on",
        "s▁"
      ],
      [
        "f",
        "in"
      ],
      [
        "it",
        "e▁"
      ],
      [
        "ri",
        "c"
      ],
      [
        "k",
        "ing▁"
      ],
      [
        "p",
        "e"
      ],
      [
        "e",
        "i"
      ],
      [
        "com",
        "m"
      ],
      [
        "H",
        "e▁"
      ],
      [
        "for",
        "m"
      ],
      [
        "re",
        "n"
      ],
      [
        "1",
        "8"
      ],
      [
        "re",
        "s▁"
      ],
      [
        "c",
        "o"
      ],
      [
        "inc",
        "lu"
      ],
      [
        "ou",
        "r▁"
      ],
      [
        "i",
        "d▁"
      ],
      [
        ",",
        "@▁"
      ],
      [
        "@",
        ",@▁"
      ],
      [
        "el",
        "l▁"
      ],
      [
        "n",
        "ed▁"
      ],
      [
        "an",
        "t▁"
      ],
      [
        "tim",
        "e▁"
      ],
      [
        "r",
        "it"
      ],
      [
        "h",
        "o"
      ],
      [
        "a",
        "fter▁"
      ],
      [
        "p",
        "a"
      ],
      [
        "w",
        "i"
      ],
      [
        "m",
        "in"
      ],
      [
        "re",
        "e▁"
      ],
      [
        "t",
        "ra"
      ],
      [
        "st",
        "r"
      ],
      [
        "s",
        "s▁"
      ],
      [
        "si",
        "g"
      ],
      [
        "tion",
        "al▁"
      ],
      [
        "p",
        "ri"
      ],
      [
        "a",
        "u"
      ],
      [
        "m",
        "e"
      ],
      [
        "ov",
        "er▁"
      ],
      [
        "ad",
        "e▁"
      ],
      [
        "I",
        "t▁"
      ],
      [
        "ab",
        "le▁"
      ],
      [
        "m",
        "u"
      ],
      [
        "M",
        "ar"
      ],
      [
        "em",
        "ber▁"
      ],
      [
        "l",
        "an"
      ],
      [
        "c",
        "i"
      ],
      [
        "in",
        "to▁"
      ],
      [
        "i",
        "c▁"
      ],
      [
        "e",
        "en▁"
      ],
      [
        "m",
        "ore▁"
      ],
      [
        "sp",
        "ec"
      ],
      [
        "e",
        "d"
      ],
      [
        "a",
        "y"
      ],
      [
        "k",
        "ed▁"
      ],
      [
        "ti",
        "c▁"
      ],
      [
        "t",
        "y▁"
      ],
      [
        "th",
        "ou"
      ],
      [
        "es",
        "e▁"
      ],
      [
        "ur",
        "e▁"
      ],
      [
        "c",
        "ent"
      ],
      [
        "n",
        "a"
      ],
      [
        "al",
        "s▁"
      ],
      [
        "R",
        "o"
      ],
      [
        "pla",
        "y"
      ],
      [
        "ev",
        "er▁"
      ],
      [
        "r",
        "e▁"
      ],
      [
        "w",
        "ould▁"
      ],
      [
        "u",
        "p▁"
      ],
      [
        "ac",
        "e▁"
      ],
      [
        "w",
        "ay▁"
      ],
      [
        "us",
        "ed▁"
      ],
      [
        "A",
        "n"
      ],
      [
        "it",
        "ed▁"
      ],
      [
        "us",
        "e▁"
      ],
      [
        "ch",
        "ar"
      ],
      [
        "m",
        "an▁"
      ],
      [
        "t",
        "en"
      ],
      [
        "ing",
        "s▁"
      ],
      [
        "e",
        "y▁"
      ],
      [
        "er",
        "al▁"
      ],
      [
        "ag",
        "a"
      ],
      [
        "l",
        "es▁"
      ],
      [
        "in",
        "ter"
      ],
      [
        "f",
        "t▁"
      ],
      [
        "an",
        "ce▁"
      ],
      [
        "l",
        "ar"
      ],
      [
        "m",
        "ar"
      ],
      [
        "t",
        "u"
      ],
      [
        "mo",
        "st▁"
      ],
      [
        "ac",
        "h"
      ],
      [
        "in",
        "s▁"
      ],
      [
        "at",
        "es▁"
      ],
      [
        "A",
        "u"
      ],
      [
        "er",
        "n▁"
      ],
      [
        "in",
        "ed▁"
      ],
      [
        "c",
        "es▁"
      ],
      [
        "g",
        "o"
      ],
      [
        "d",
        "o"
      ],
      [
        "o",
        "ff"
      ],
      [
        "e",
        "w"
      ],
      [
        "p",
        "an"
      ],
      [
        "s",
        "ea"
      ],
      [
        "f",
        "il"
      ],
      [
        "e",
        "w▁"
      ],
      [
        "m",
        "er"
      ],
      [
        "st",
        "ru"
      ],
      [
        "d",
        "ec"
      ],
      [
        "b",
        "li"
      ],
      [
        "n",
        "ing▁"
      ],
      [
        "on",
        "ly▁"
      ],
      [
        "ti",
        "es▁"
      ],
      [
        "es",
        "s"
      ],
      [
        "a",
        "re"
      ],
      [
        "a",
        "v"
      ],
      [
        "wh",
        "en▁"
      ],
      [
        "m",
        "on"
      ],
      [
        "ic",
        "al▁"
      ],
      [
        "g",
        "en"
      ],
      [
        "p",
        "p"
      ],
      [
        "d",
        "uring▁"
      ],
      [
        "E",
        "n"
      ],
      [
        "s",
        "he▁"
      ],
      [
        "c",
        "ol"
      ],
      [
        "on",
        "g"
      ],
      [
        "an",
        "s▁"
      ],
      [
        "p",
        "s▁"
      ],
      [
        "c",
        "re"
      ],
      [
        "th",
        "an▁"
      ],
      [
        "s",
        "ti"
      ],
      [
        "ap",
        "p"
      ],
      [
        "s",
        "s"
      ],
      [
        "lo",
        "c"
      ],
      [
        "s",
        "ev"
      ],
      [
        "k",
        "n"
      ],
      [
        "i",
        "al▁"
      ],
      [
        "A",
        "r"
      ],
      [
        "u",
        "m▁"
      ],
      [
        "a",
        "tions▁"
      ],
      [
        "p",
        "i"
      ],
      [
        "s",
        "el"
      ],
      [
        "ac",
        "h▁"
      ],
      [
        "B",
        "ri"
      ],
      [
        "J",
        "o"
      ],
      [
        "hi",
        "m▁"
      ],
      [
        "g",
        "ame▁"
      ],
      [
        "ab",
        "out▁"
      ],
      [
        "t",
        "e"
      ],
      [
        "19",
        "9"
      ],
      [
        "on",
        "d▁"
      ],
      [
        "ol",
        "d▁"
      ],
      [
        "a",
        "d▁"
      ],
      [
        "ar",
        "i"
      ],
      [
        "c",
        "c"
      ],
      [
        "v",
        "ing▁"
      ],
      [
        "whi",
        "le▁"
      ],
      [
        "th",
        "ree▁"
      ],
      [
        "en",
        "d▁"
      ],
      [
        "ear",
        "s▁"
      ],
      [
        "C",
        "om"
      ],
      [
        "shi",
        "p▁"
      ],
      [
        "s",
        "y"
      ],
      [
        "f",
        "u"
      ],
      [
        "as",
        "s"
      ],
      [
        "U",
        "n"
      ],
      [
        "g",
        "ra"
      ],
      [
        "be",
        "tw"
      ],
      [
        "betw",
        "een▁"
      ],
      [
        "t",
        "or"
      ],
      [
        "rec",
        "or"
      ],
      [
        "f",
        "ol"
      ],
      [
        "h",
        "ea"
      ],
      [
        "o",
        "f"
      ],
      [
        "th",
        "rou"
      ],
      [
        "b",
        "er"
      ],
      [
        "b",
        "le▁"
      ],
      [
        "thou",
        "gh▁"
      ],
      [
        "n",
        "um"
      ],
      [
        "an",
        "g"
      ],
      [
        "st",
        "ar"
      ],
      [
        "at",
        "ing▁"
      ],
      [
        "e",
        "e"
      ],
      [
        "stru",
        "c"
      ],
      [
        "for",
        "e▁"
      ],
      [
        "g",
        "re"
      ],
      [
        "sc",
        "ri"
      ],
      [
        "ic",
        "e▁"
      ],
      [
        "c",
        "oun"
      ],
      [
        "v",
        "es▁"
      ],
      [
        "oo",
        "k▁"
      ],
      [
        "L",
        "i"
      ],
      [
        "l",
        "ater▁"
      ],
      [
        "sea",
        "son▁"
      ],
      [
        "l",
        "ing▁"
      ],
      [
        "w",
        "rit"
      ],
      [
        "n",
        "or"
      ],
      [
        "be",
        "g"
      ],
      [
        "c",
        "la"
      ],
      [
        "l",
        "s▁"
      ],
      [
        "ou",
        "th▁"
      ],
      [
        "m",
        "ade▁"
      ],
      [
        "p",
        "h"
      ],
      [
        "ol",
        "og"
      ],
      [
        "wh",
        "ere▁"
      ],
      [
        "em",
        "p"
      ],
      [
        "ro",
        "w"
      ],
      [
        "pro",
        "duc"
      ],
      [
        "f",
        "a"
      ],
      [
        "v",
        "el"
      ],
      [
        "d",
        "ay▁"
      ],
      [
        "ne",
        "w▁"
      ],
      [
        "ur",
        "y▁"
      ],
      [
        "t",
        "en▁"
      ],
      [
        "h",
        "el"
      ],
      [
        "su",
        "b"
      ],
      [
        "mer",
        "ic"
      ],
      [
        "s",
        "ur"
      ],
      [
        "A",
        "meric"
      ],
      [
        "em",
        "ent▁"
      ],
      [
        "re",
        "lea"
      ],
      [
        "c",
        "al"
      ],
      [
        "il",
        "l▁"
      ],
      [
        "e",
        "g"
      ],
      [
        "r",
        "ed▁"
      ],
      [
        "an",
        "d"
      ],
      [
        "P",
        "ar"
      ],
      [
        "t",
        "ro"
      ],
      [
        "b",
        "i"
      ],
      [
        "i",
        "st"
      ],
      [
        "v",
        "er▁"
      ],
      [
        "0",
        "00▁"
      ],
      [
        "r",
        "ac"
      ],
      [
        "am",
        "es▁"
      ],
      [
        "r",
        "y▁"
      ],
      [
        "the",
        "m▁"
      ],
      [
        "W",
        "h"
      ],
      [
        "su",
        "ch▁"
      ],
      [
        "ar",
        "ds▁"
      ],
      [
        "pu",
        "bli"
      ],
      [
        "u",
        "d"
      ],
      [
        "y",
        "ear▁"
      ],
      [
        "e",
        "b"
      ],
      [
        "s",
        "ome▁"
      ],
      [
        "c",
        "ri"
      ],
      [
        "o",
        "b"
      ],
      [
        "wi",
        "th"
      ],
      [
        "en",
        "ti"
      ],
      [
        "bu",
        "il"
      ],
      [
        "T",
        "his▁"
      ],
      [
        "s",
        "m"
      ],
      [
        "a",
        "m▁"
      ],
      [
        "s",
        "si"
      ],
      [
        "c",
        "an▁"
      ],
      [
        "an",
        "n"
      ],
      [
        "t",
        "ri"
      ],
      [
        "O",
        "n▁"
      ],
      [
        "f",
        "e▁"
      ],
      [
        "tur",
        "e▁"
      ],
      [
        "al",
        "bu"
      ],
      [
        "s",
        "ong▁"
      ],
      [
        "oo",
        "d▁"
      ],
      [
        "si",
        "de▁"
      ],
      [
        "be",
        "fore▁"
      ],
      [
        "b",
        "as"
      ],
      [
        "a",
        "w"
      ],
      [
        "ec",
        "t▁"
      ],
      [
        "be",
        "ing▁"
      ],
      [
        "la",
        "r▁"
      ],
      [
        "st",
        "e"
      ],
      [
        "En",
        "g"
      ],
      [
        "w",
        "ell▁"
      ],
      [
        "m",
        "i"
      ],
      [
        "y",
        "ears▁"
      ],
      [
        "y",
        "p"
      ],
      [
        "fol",
        "low"
      ],
      [
        "d",
        "re"
      ],
      [
        "ow",
        "ever▁"
      ],
      [
        "f",
        "ic"
      ],
      [
        "t",
        "on▁"
      ],
      [
        "g",
        "r"
      ],
      [
        "N",
        "or"
      ],
      [
        "ec",
        "ted▁"
      ],
      [
        "ear",
        "ly▁"
      ],
      [
        "m",
        "ov"
      ],
      [
        "wor",
        "k▁"
      ],
      [
        "man",
        "y▁"
      ],
      [
        "y",
        "ing▁"
      ],
      [
        "kn",
        "own▁"
      ],
      [
        "g",
        "a"
      ],
      [
        "o",
        "d▁"
      ],
      [
        "c",
        "ap"
      ],
      [
        "m",
        "at"
      ],
      [
        "l",
        "ine▁"
      ],
      [
        "b",
        "el"
      ],
      [
        "lo",
        "w▁"
      ],
      [
        "po",
        "in"
      ],
      [
        "c",
        "hi"
      ],
      [
        "t",
        "ly▁"
      ],
      [
        "par",
        "t▁"
      ],
      [
        "ser",
        "ies▁"
      ],
      [
        "is",
        "o"
      ],
      [
        "m",
        "s▁"
      ],
      [
        "si",
        "c▁"
      ],
      [
        "albu",
        "m▁"
      ],
      [
        "th",
        "en▁"
      ],
      [
        "stor",
        "y▁"
      ],
      [
        "or",
        "t▁"
      ],
      [
        "c",
        "ed▁"
      ],
      [
        "throu",
        "gh▁"
      ],
      [
        "sec",
        "ond▁"
      ],
      [
        "d",
        "es▁"
      ],
      [
        "con",
        "si"
      ],
      [
        "po",
        "si"
      ],
      [
        "i",
        "z"
      ],
      [
        "t",
        "ran"
      ],
      [
        "ac",
        "c"
      ],
      [
        "C",
        "on"
      ],
      [
        "f",
        "ac"
      ],
      [
        "t",
        "ers▁"
      ],
      [
        "sh",
        "ed▁"
      ],
      [
        "bo",
        "th▁"
      ],
      [
        "M",
        "o"
      ],
      [
        "in",
        "ce▁"
      ],
      [
        "i",
        "a▁"
      ],
      [
        "m",
        "p"
      ],
      [
        "en",
        "d"
      ],
      [
        "J",
        "u"
      ],
      [
        "di",
        "rec"
      ],
      [
        "n",
        "o▁"
      ],
      [
        "in",
        "st▁"
      ],
      [
        "al",
        "e▁"
      ],
      [
        "inclu",
        "ding▁"
      ],
      [
        "C",
        "ar"
      ],
      [
        "N",
        "ew▁"
      ],
      [
        "f",
        "er"
      ],
      [
        "l",
        "in"
      ],
      [
        "fil",
        "m▁"
      ],
      [
        "aga",
        "inst▁"
      ],
      [
        "num",
        "ber▁"
      ],
      [
        "c",
        "u"
      ],
      [
        "bec",
        "ame▁"
      ],
      [
        "ep",
        "iso"
      ],
      [
        "or",
        "s▁"
      ],
      [
        "por",
        "t▁"
      ],
      [
        "char",
        "ac"
      ],
      [
        "di",
        "c"
      ],
      [
        "n",
        "am"
      ],
      [
        "m",
        "y▁"
      ],
      [
        "ti",
        "v"
      ],
      [
        "Jo",
        "h"
      ],
      [
        "en",
        "g"
      ],
      [
        "a",
        "k"
      ],
      [
        "re",
        "as"
      ],
      [
        "19",
        "8"
      ],
      [
        "in",
        "v"
      ],
      [
        "su",
        "p"
      ],
      [
        "B",
        "o"
      ],
      [
        "de",
        "scri"
      ],
      [
        "1",
        "0▁"
      ],
      [
        "th",
        "ere▁"
      ],
      [
        "ac",
        "k"
      ],
      [
        "c",
        "er"
      ],
      [
        "per",
        "i"
      ],
      [
        "t",
        "or▁"
      ],
      [
        "or",
        "ig"
      ],
      [
        "s",
        "ing"
      ],
      [
        "Un",
        "ited▁"
      ],
      [
        "de",
        "vel"
      ],
      [
        "th",
        "o"
      ],
      [
        "i",
        "ly▁"
      ],
      [
        "s",
        "ch"
      ],
      [
        "c",
        "lu"
      ],
      [
        "su",
        "l"
      ],
      [
        "d",
        "y▁"
      ],
      [
        "er",
        "ed▁"
      ],
      [
        "su",
        "cc"
      ],
      [
        "c",
        "ha"
      ],
      [
        "is",
        "ed▁"
      ],
      [
        "cent",
        "ury▁"
      ],
      [
        "em",
        "b"
      ],
      [
        "M",
        "a"
      ],
      [
        "cont",
        "in"
      ],
      [
        "is",
        "h"
      ],
      [
        "f",
        "our▁"
      ],
      [
        "in",
        "f"
      ],
      [
        "li",
        "on▁"
      ],
      [
        "l",
        "er▁"
      ],
      [
        "b",
        "or"
      ],
      [
        "s",
        "k"
      ],
      [
        "re",
        "ma"
      ],
      [
        "ti",
        "sh▁"
      ],
      [
        "ay",
        "s▁"
      ],
      [
        "er",
        "y▁"
      ],
      [
        "i",
        "l▁"
      ],
      [
        "st",
        "s▁"
      ],
      [
        "is",
        "h▁"
      ],
      [
        "t",
        "le▁"
      ],
      [
        "ar",
        "ri"
      ],
      [
        "st",
        "er▁"
      ],
      [
        "un",
        "der▁"
      ],
      [
        "R",
        "i"
      ],
      [
        "di",
        "ff"
      ],
      [
        "sev",
        "eral▁"
      ],
      [
        "sh",
        "o"
      ],
      [
        "A",
        "fter▁"
      ],
      [
        "et",
        "s▁"
      ],
      [
        "a",
        "ir"
      ],
      [
        "t",
        "re"
      ],
      [
        "0",
        "s▁"
      ],
      [
        "beg",
        "an▁"
      ],
      [
        "de",
        "p"
      ],
      [
        "a",
        "use▁"
      ],
      [
        "li",
        "ke▁"
      ],
      [
        "l",
        "l▁"
      ],
      [
        "19",
        "4"
      ],
      [
        "19",
        "7"
      ],
      [
        "ea",
        "m▁"
      ],
      [
        "19",
        "6"
      ],
      [
        "s",
        "ing▁"
      ],
      [
        "devel",
        "op"
      ],
      [
        "n",
        "s▁"
      ],
      [
        "b",
        "ed▁"
      ],
      [
        "D",
        "i"
      ],
      [
        "W",
        "or"
      ],
      [
        "op",
        "er"
      ],
      [
        "w",
        "in"
      ],
      [
        "r",
        "on"
      ],
      [
        "orig",
        "in"
      ],
      [
        "m",
        "is"
      ],
      [
        "e",
        "y"
      ],
      [
        "s",
        "es▁"
      ],
      [
        "j",
        "o"
      ],
      [
        "or",
        "y▁"
      ],
      [
        "ta",
        "in▁"
      ],
      [
        "an",
        "y▁"
      ],
      [
        "d",
        "o▁"
      ],
      [
        "o",
        "re"
      ],
      [
        "an",
        "t"
      ],
      [
        "ser",
        "v"
      ],
      [
        "cal",
        "led▁"
      ],
      [
        "episo",
        "de▁"
      ],
      [
        "contin",
        "u"
      ],
      [
        "f",
        "ound▁"
      ],
      [
        "n",
        "e▁"
      ],
      [
        "A",
        "s▁"
      ],
      [
        "le",
        "y▁"
      ],
      [
        "un",
        "i"
      ],
      [
        "un",
        "e▁"
      ],
      [
        "C",
        "ol"
      ],
      [
        "hi",
        "gh"
      ],
      [
        "ti",
        "l▁"
      ],
      [
        "g",
        "g"
      ],
      [
        "com",
        "p"
      ],
      [
        "op",
        "le▁"
      ],
      [
        "b",
        "ack▁"
      ],
      [
        "rec",
        "ei"
      ],
      [
        "c",
        "ity▁"
      ],
      [
        "N",
        "a"
      ],
      [
        "no",
        "w▁"
      ],
      [
        "sel",
        "f▁"
      ],
      [
        "S",
        "u"
      ],
      [
        "at",
        "h▁"
      ],
      [
        "G",
        "er"
      ],
      [
        "fu",
        "l▁"
      ],
      [
        "gu",
        "e▁"
      ],
      [
        "e",
        "f"
      ],
      [
        "in",
        "ing▁"
      ],
      [
        "c",
        "ould▁"
      ],
      [
        "sa",
        "id▁"
      ],
      [
        "s",
        "ol"
      ],
      [
        "fe",
        "at"
      ],
      [
        "over",
        "n"
      ],
      [
        "o",
        "t"
      ],
      [
        "d",
        "on▁"
      ],
      [
        "po",
        "li"
      ],
      [
        "Americ",
        "an▁"
      ],
      [
        "s",
        "et▁"
      ],
      [
        "th",
        "ese▁"
      ],
      [
        "tic",
        "al▁"
      ],
      [
        "m",
        "ay▁"
      ],
      [
        "oc",
        "i"
      ],
      [
        "c",
        "lo"
      ],
      [
        "el",
        "d▁"
      ],
      [
        "e",
        "ach▁"
      ],
      [
        "an",
        "e▁"
      ],
      [
        "b",
        "l"
      ],
      [
        "st",
        "ed▁"
      ],
      [
        "di",
        "s"
      ],
      [
        "de",
        "sig"
      ],
      [
        "Bri",
        "tish▁"
      ],
      [
        "un",
        "til▁"
      ],
      [
        "j",
        "u"
      ],
      [
        "t",
        "el"
      ],
      [
        "of",
        "f▁"
      ],
      [
        "relea",
        "sed▁"
      ],
      [
        "si",
        "ve▁"
      ],
      [
        "f",
        "am"
      ],
      [
        "H",
        "i"
      ],
      [
        "o",
        "m▁"
      ],
      [
        "ur",
        "ch▁"
      ],
      [
        "di",
        "d▁"
      ],
      [
        "o",
        "u▁"
      ],
      [
        "s",
        "ame▁"
      ],
      [
        "2",
        "0▁"
      ],
      [
        "ep",
        "t"
      ],
      [
        "di",
        "st"
      ],
      [
        "d",
        "ra"
      ],
      [
        "3",
        "0▁"
      ],
      [
        "der",
        "ed▁"
      ],
      [
        "in",
        "i"
      ],
      [
        "b",
        "ro"
      ],
      [
        "app",
        "ear"
      ],
      [
        "w",
        "ard▁"
      ],
      [
        "th",
        "ern▁"
      ],
      [
        "re",
        "tur"
      ],
      [
        "ver",
        "s"
      ],
      [
        "Th",
        "ey▁"
      ],
      [
        "O",
        "c"
      ],
      [
        "are",
        "a▁"
      ],
      [
        "n",
        "er▁"
      ],
      [
        "m",
        "e▁"
      ],
      [
        "b",
        "ri"
      ],
      [
        "d",
        "el"
      ],
      [
        "form",
        "ed▁"
      ],
      [
        "u",
        "t"
      ],
      [
        "di",
        "sc"
      ],
      [
        "bec",
        "ause▁"
      ],
      [
        "d",
        "own▁"
      ],
      [
        "ec",
        "tion▁"
      ],
      [
        "un",
        "der"
      ],
      [
        "pan",
        "y▁"
      ],
      [
        "I",
        "I▁"
      ],
      [
        "il",
        "l"
      ],
      [
        "P",
        "ro"
      ],
      [
        "mil",
        "lion▁"
      ],
      [
        "e",
        "al"
      ],
      [
        "Ch",
        "ri"
      ],
      [
        "tr",
        "y▁"
      ],
      [
        "5",
        "0▁"
      ],
      [
        "Au",
        "gu"
      ],
      [
        "off",
        "ic"
      ],
      [
        "st",
        "a"
      ],
      [
        "c",
        "ur"
      ],
      [
        "pe",
        "ople▁"
      ],
      [
        "la",
        "tion▁"
      ],
      [
        "I",
        "s"
      ],
      [
        "Joh",
        "n▁"
      ],
      [
        "tic",
        "s▁"
      ],
      [
        "G",
        "u"
      ],
      [
        "W",
        "il"
      ],
      [
        "c",
        "am"
      ],
      [
        "li",
        "fe▁"
      ],
      [
        "al",
        "ong▁"
      ],
      [
        "com",
        "pl"
      ],
      [
        "si",
        "ons▁"
      ],
      [
        "ad",
        "v"
      ],
      [
        "S",
        "he▁"
      ],
      [
        "l",
        "y"
      ],
      [
        "t",
        "eam▁"
      ],
      [
        "S",
        "h"
      ],
      [
        "di",
        "tion▁"
      ],
      [
        "vi",
        "ew"
      ],
      [
        "g",
        "rou"
      ],
      [
        "li",
        "sh▁"
      ],
      [
        "Au",
        "str"
      ],
      [
        "ar",
        "ound▁"
      ],
      [
        "ow",
        "er▁"
      ],
      [
        "vi",
        "sion▁"
      ],
      [
        "pl",
        "ac"
      ],
      [
        "H",
        "owever▁"
      ],
      [
        "m",
        "et"
      ],
      [
        "ir",
        "d▁"
      ],
      [
        "v",
        "o"
      ],
      [
        "ent",
        "ed▁"
      ],
      [
        "po",
        "pu"
      ],
      [
        "for",
        "m▁"
      ],
      [
        "C",
        "an"
      ],
      [
        "A",
        "t▁"
      ],
      [
        "si",
        "d"
      ],
      [
        "P",
        "o"
      ],
      [
        "S",
        "ept"
      ],
      [
        "M",
        "ay▁"
      ],
      [
        "l",
        "ong▁"
      ],
      [
        "Sept",
        "ember▁"
      ],
      [
        "u",
        "ro"
      ],
      [
        "Augu",
        "st▁"
      ],
      [
        "al",
        "es▁"
      ],
      [
        "follow",
        "ing▁"
      ],
      [
        "or",
        "g"
      ],
      [
        "h",
        "ou"
      ],
      [
        "cont",
        "ro"
      ],
      [
        "M",
        "on"
      ],
      [
        "Austr",
        "ali"
      ],
      [
        "re",
        "qu"
      ],
      [
        "Wor",
        "ld▁"
      ],
      [
        "b",
        "re"
      ],
      [
        "d",
        "am"
      ],
      [
        "lo",
        "o"
      ],
      [
        "J",
        "an"
      ],
      [
        "fi",
        "ve▁"
      ],
      [
        "s",
        "ou"
      ],
      [
        "w",
        "ee"
      ],
      [
        "mu",
        "sic▁"
      ],
      [
        "sp",
        "on"
      ],
      [
        "re",
        "sul"
      ],
      [
        "a",
        "i"
      ],
      [
        "k",
        "m▁"
      ],
      [
        "na",
        "tional▁"
      ],
      [
        "lar",
        "ge▁"
      ],
      [
        "ou",
        "t"
      ],
      [
        "compl",
        "et"
      ],
      [
        "li",
        "c"
      ],
      [
        "de",
        "f"
      ],
      [
        "wh",
        "at▁"
      ],
      [
        "1",
        "5▁"
      ],
      [
        "a",
        "st▁"
      ],
      [
        "f",
        "ul"
      ],
      [
        "ver",
        "y▁"
      ],
      [
        "a",
        "st"
      ],
      [
        "i",
        "p"
      ],
      [
        "1",
        "2▁"
      ],
      [
        "por",
        "t"
      ],
      [
        "r",
        "al▁"
      ],
      [
        "ou",
        "s"
      ],
      [
        "st",
        "ate▁"
      ],
      [
        "el",
        "s▁"
      ],
      [
        "en",
        "s▁"
      ],
      [
        "ma",
        "j"
      ],
      [
        "ste",
        "m▁"
      ],
      [
        "J",
        "une▁"
      ],
      [
        "F",
        "ran"
      ],
      [
        "en",
        "ed▁"
      ],
      [
        "si",
        "on"
      ],
      [
        "re",
        "g"
      ],
      [
        "or",
        "ding▁"
      ],
      [
        "th",
        "er"
      ],
      [
        "in",
        "ten"
      ],
      [
        "am",
        "p"
      ],
      [
        "e",
        "ff"
      ],
      [
        "pla",
        "y▁"
      ],
      [
        "b",
        "all▁"
      ],
      [
        "v",
        "ari"
      ],
      [
        "at",
        "ely▁"
      ],
      [
        "si",
        "s▁"
      ],
      [
        "1",
        "6"
      ],
      [
        "19",
        "5"
      ],
      [
        "fi",
        "ed▁"
      ],
      [
        "n",
        "ame▁"
      ],
      [
        "or",
        "d"
      ],
      [
        "ar",
        "m"
      ],
      [
        "ex",
        "t▁"
      ],
      [
        "y",
        "s▁"
      ],
      [
        "ar",
        "t▁"
      ],
      [
        "s",
        "ince▁"
      ],
      [
        "u",
        "p"
      ],
      [
        "St",
        "ates▁"
      ],
      [
        "spec",
        "ies▁"
      ],
      [
        "em",
        "ents▁"
      ],
      [
        "fin",
        "al▁"
      ],
      [
        "c",
        "ul"
      ],
      [
        "oo",
        "l▁"
      ],
      [
        "recei",
        "ved▁"
      ],
      [
        "h",
        "al"
      ],
      [
        "g",
        "overn"
      ],
      [
        "u",
        "c"
      ],
      [
        "ol",
        "e▁"
      ],
      [
        "t",
        "ook▁"
      ],
      [
        "ea",
        "d▁"
      ],
      [
        "ap",
        "pro"
      ],
      [
        "par",
        "tic"
      ],
      [
        "1",
        "7"
      ],
      [
        "b",
        "att"
      ],
      [
        "f",
        "un"
      ],
      [
        "ea",
        "st▁"
      ],
      [
        "or",
        "k▁"
      ],
      [
        "H",
        "er"
      ],
      [
        "W",
        "ar▁"
      ],
      [
        "v",
        "en▁"
      ],
      [
        "is",
        "e▁"
      ],
      [
        "ex",
        "p"
      ],
      [
        "descri",
        "bed▁"
      ],
      [
        "m",
        "en▁"
      ],
      [
        "p",
        "er▁"
      ],
      [
        "s",
        "on"
      ],
      [
        "w",
        "ill▁"
      ],
      [
        "ev",
        "en▁"
      ],
      [
        "olog",
        "y▁"
      ],
      [
        "to",
        "ber▁"
      ],
      [
        "play",
        "ed▁"
      ],
      [
        "Oc",
        "tober▁"
      ],
      [
        "L",
        "o"
      ],
      [
        "i",
        "st▁"
      ],
      [
        "ro",
        "ss▁"
      ],
      [
        "mov",
        "ed▁"
      ],
      [
        "hi",
        "gh▁"
      ],
      [
        "lar",
        "g"
      ],
      [
        "pl",
        "ace▁"
      ],
      [
        "U",
        "ni"
      ],
      [
        "E",
        "uro"
      ],
      [
        "N",
        "ov"
      ],
      [
        "fi",
        "eld▁"
      ],
      [
        "s",
        "om"
      ],
      [
        "in",
        "a▁"
      ],
      [
        "f",
        "ri"
      ],
      [
        "l",
        "ate▁"
      ],
      [
        "p",
        "ical▁"
      ],
      [
        "de",
        "o▁"
      ],
      [
        "l",
        "ess▁"
      ],
      [
        "an",
        "c"
      ],
      [
        "19",
        "3"
      ],
      [
        "gr",
        "ound▁"
      ],
      [
        "S",
        "outh▁"
      ],
      [
        "s",
        "o"
      ],
      [
        "pro",
        "vi"
      ],
      [
        "u",
        "e▁"
      ],
      [
        "c",
        "ar"
      ],
      [
        "posi",
        "tion▁"
      ],
      [
        "l",
        "it"
      ],
      [
        "inc",
        "reas"
      ],
      [
        "ro",
        "te▁"
      ],
      [
        "se",
        "qu"
      ],
      [
        ".",
        "."
      ],
      [
        "i",
        "sion▁"
      ],
      [
        "w",
        "rote▁"
      ],
      [
        "P",
        "re"
      ],
      [
        "h",
        "er"
      ],
      [
        "por",
        "ted▁"
      ],
      [
        "P",
        "er"
      ],
      [
        "l",
        "ev"
      ],
      [
        "ent",
        "ly▁"
      ],
      [
        "Ju",
        "ly▁"
      ],
      [
        "C",
        "oun"
      ],
      [
        "D",
        "ec"
      ],
      [
        "c",
        "ra"
      ],
      [
        "ar",
        "ly▁"
      ],
      [
        "nam",
        "ed▁"
      ],
      [
        "w",
        "on▁"
      ],
      [
        "con",
        "struc"
      ],
      [
        "tim",
        "es▁"
      ],
      [
        "me",
        "di"
      ],
      [
        "v",
        "ic"
      ],
      [
        "re",
        "li"
      ],
      [
        "du",
        "e▁"
      ],
      [
        "b",
        "ur"
      ],
      [
        "gen",
        "er"
      ],
      [
        "ec",
        "ts▁"
      ],
      [
        "il",
        "ity▁"
      ],
      [
        "u",
        "ary▁"
      ],
      [
        "k",
        "il"
      ],
      [
        "v",
        "en"
      ],
      [
        "re",
        "la"
      ],
      [
        "i",
        "an▁"
      ],
      [
        "D",
        "uring▁"
      ],
      [
        "ag",
        "es▁"
      ],
      [
        "mu",
        "ch▁"
      ],
      [
        "s",
        "en"
      ],
      [
        "u",
        "di"
      ],
      [
        "2",
        "5▁"
      ],
      [
        "re",
        "spon"
      ],
      [
        "A",
        "pri"
      ],
      [
        "sing",
        "le▁"
      ],
      [
        "Apri",
        "l▁"
      ],
      [
        "c",
        "or"
      ],
      [
        "st",
        "ri"
      ],
      [
        "ch",
        "es▁"
      ],
      [
        "Nor",
        "th▁"
      ],
      [
        "w",
        "est▁"
      ],
      [
        "in",
        "st"
      ],
      [
        "..",
        ".▁"
      ],
      [
        "po",
        "sed▁"
      ],
      [
        "shi",
        "ps▁"
      ],
      [
        "pro",
        "t"
      ],
      [
        "1",
        "6▁"
      ],
      [
        "1",
        "8▁"
      ],
      [
        "h",
        "um"
      ],
      [
        "1",
        "4▁"
      ],
      [
        "t",
        "yp"
      ],
      [
        "om",
        "in"
      ],
      [
        "om",
        "an▁"
      ],
      [
        "ch",
        "ed▁"
      ],
      [
        "an",
        "other▁"
      ],
      [
        "A",
        "d"
      ],
      [
        "M",
        "c"
      ],
      [
        "r",
        "un"
      ],
      [
        "inclu",
        "ded▁"
      ],
      [
        "recor",
        "d▁"
      ],
      [
        "k",
        "es▁"
      ],
      [
        "em",
        "s▁"
      ],
      [
        "Jan",
        "uary▁"
      ],
      [
        "u",
        "al▁"
      ],
      [
        "st",
        "ud"
      ],
      [
        "est",
        "ab"
      ],
      [
        "diff",
        "er"
      ],
      [
        "ag",
        "ed▁"
      ],
      [
        "with",
        "in▁"
      ],
      [
        "Eng",
        "land▁"
      ],
      [
        "G",
        "re"
      ],
      [
        "Y",
        "ork▁"
      ],
      [
        "a",
        "th"
      ],
      [
        "y",
        "l"
      ],
      [
        "en",
        "n"
      ],
      [
        "buil",
        "t▁"
      ],
      [
        "bas",
        "ed▁"
      ],
      [
        "g",
        "ed▁"
      ],
      [
        "i",
        "f▁"
      ],
      [
        "bel",
        "i"
      ],
      [
        "ong",
        "s▁"
      ],
      [
        "p",
        "r"
      ],
      [
        "al",
        "though▁"
      ],
      [
        "le",
        "ft▁"
      ],
      [
        "y",
        "ed▁"
      ],
      [
        "att",
        "emp"
      ],
      [
        "fam",
        "ily▁"
      ],
      [
        "at",
        "s▁"
      ],
      [
        "in",
        "es▁"
      ],
      [
        "pre",
        "vi"
      ],
      [
        "1",
        "1▁"
      ],
      [
        "s",
        "ite▁"
      ],
      [
        "ec",
        "h"
      ],
      [
        "g",
        "ames▁"
      ],
      [
        "on",
        "y▁"
      ],
      [
        "s",
        "our"
      ],
      [
        "li",
        "ght▁"
      ],
      [
        "or",
        "ed▁"
      ],
      [
        "k",
        "en▁"
      ],
      [
        "w",
        "ater▁"
      ],
      [
        "ei",
        "ght▁"
      ],
      [
        "ic",
        "k▁"
      ],
      [
        "B",
        "ar"
      ],
      [
        "V",
        "i"
      ],
      [
        "a",
        "ti"
      ],
      [
        "ma",
        "in▁"
      ],
      [
        "ca",
        "re"
      ],
      [
        "ig",
        "n▁"
      ],
      [
        "Mar",
        "ch▁"
      ],
      [
        "m",
        "ents▁"
      ],
      [
        "st",
        "an"
      ],
      [
        "ow",
        "n"
      ],
      [
        "Nov",
        "ember▁"
      ],
      [
        "en",
        "ded▁"
      ],
      [
        "si",
        "x▁"
      ],
      [
        "G",
        "e"
      ],
      [
        "p",
        "e▁"
      ],
      [
        "v",
        "il"
      ],
      [
        "th",
        "em"
      ],
      [
        "a",
        "di"
      ],
      [
        "al",
        "l"
      ],
      [
        "R",
        "e"
      ],
      [
        "t",
        "al▁"
      ],
      [
        "li",
        "m"
      ],
      [
        "c",
        "l"
      ],
      [
        "th",
        "s▁"
      ],
      [
        "sm",
        "all▁"
      ],
      [
        "ar",
        "d"
      ],
      [
        "h",
        "ome▁"
      ],
      [
        "sy",
        "stem▁"
      ],
      [
        "b",
        "ook▁"
      ],
      [
        "z",
        "e▁"
      ],
      [
        "grou",
        "p▁"
      ],
      [
        "org",
        "an"
      ],
      [
        "nor",
        "th▁"
      ],
      [
        "Dec",
        "ember▁"
      ],
      [
        "h",
        "y"
      ],
      [
        "th",
        "ird▁"
      ],
      [
        "vi",
        "ew▁"
      ],
      [
        "us",
        "ing▁"
      ],
      [
        "au",
        "th"
      ],
      [
        "tho",
        "se▁"
      ],
      [
        "sho",
        "w▁"
      ],
      [
        "r",
        "am"
      ],
      [
        "th",
        "ing▁"
      ],
      [
        "ur",
        "ric"
      ],
      [
        "la",
        "st▁"
      ],
      [
        "og",
        "ra"
      ],
      [
        "z",
        "ed▁"
      ],
      [
        "1",
        "3▁"
      ],
      [
        "d",
        "ge▁"
      ],
      [
        "le",
        "g"
      ],
      [
        "stor",
        "m▁"
      ],
      [
        "ju",
        "st▁"
      ],
      [
        "c",
        "ou"
      ],
      [
        "pl",
        "an"
      ],
      [
        "ach",
        "ed▁"
      ],
      [
        "su",
        "m"
      ],
      [
        "do",
        "m▁"
      ],
      [
        "C",
        "ity▁"
      ],
      [
        "H",
        "o"
      ],
      [
        "re",
        "gi"
      ],
      [
        "j",
        "ect▁"
      ],
      [
        "k",
        "er▁"
      ],
      [
        "In",
        "di"
      ],
      [
        "ri",
        "bu"
      ],
      [
        "n",
        "ear▁"
      ],
      [
        "at",
        "ure▁"
      ],
      [
        "am",
        "pi"
      ],
      [
        "origin",
        "al▁"
      ],
      [
        "govern",
        "ment▁"
      ],
      [
        "w",
        "ar▁"
      ],
      [
        "wor",
        "ld▁"
      ],
      [
        "s",
        "outh▁"
      ],
      [
        "ha",
        "m▁"
      ],
      [
        "charac",
        "ter▁"
      ],
      [
        "f",
        "ur"
      ],
      [
        "th",
        "ers▁"
      ],
      [
        "ous",
        "ly▁"
      ],
      [
        "el",
        "l"
      ],
      [
        "c",
        "ep"
      ],
      [
        "p",
        "hi"
      ],
      [
        "it",
        "al▁"
      ],
      [
        "hea",
        "d▁"
      ],
      [
        "en",
        "ces▁"
      ],
      [
        "H",
        "is▁"
      ],
      [
        "M",
        "u"
      ],
      [
        "t",
        "ow"
      ],
      [
        "it",
        "ary▁"
      ],
      [
        "be",
        "st▁"
      ],
      [
        "s",
        "ure▁"
      ],
      [
        "C",
        "a"
      ],
      [
        "F",
        "or"
      ],
      [
        "F",
        "e"
      ],
      [
        "f",
        "l"
      ],
      [
        "Wh",
        "en▁"
      ],
      [
        "Ger",
        "man▁"
      ],
      [
        "vers",
        "ity▁"
      ],
      [
        "i",
        "li"
      ],
      [
        "en",
        "ing▁"
      ],
      [
        "A",
        "t"
      ],
      [
        "200",
        "9▁"
      ],
      [
        "ch",
        "an"
      ],
      [
        "sti",
        "tu"
      ],
      [
        "1",
        "7▁"
      ],
      [
        "vi",
        "deo▁"
      ],
      [
        "tran",
        "s"
      ],
      [
        "D",
        "a"
      ],
      [
        "200",
        "8▁"
      ],
      [
        "ar",
        "ti"
      ],
      [
        "201",
        "0▁"
      ],
      [
        "oc",
        "k▁"
      ],
      [
        "c",
        "our"
      ],
      [
        "r",
        "ing▁"
      ],
      [
        "som",
        "e"
      ],
      [
        "al",
        "low"
      ],
      [
        "es",
        "p"
      ],
      [
        "ac",
        "t▁"
      ],
      [
        "Na",
        "tional▁"
      ],
      [
        "et",
        "y▁"
      ],
      [
        "ma",
        "ke▁"
      ],
      [
        "f",
        "f▁"
      ],
      [
        "is",
        "su"
      ],
      [
        "for",
        "man"
      ],
      [
        "in",
        "t▁"
      ],
      [
        "al",
        "ity▁"
      ],
      [
        "ir",
        "ed▁"
      ],
      [
        "is",
        "m▁"
      ],
      [
        "L",
        "e"
      ],
      [
        "e",
        "ther▁"
      ],
      [
        "oun",
        "d"
      ],
      [
        "estab",
        "li"
      ],
      [
        "de",
        "ath▁"
      ],
      [
        "p",
        "ur"
      ],
      [
        "Th",
        "ere▁"
      ],
      [
        "M",
        "an"
      ],
      [
        "succ",
        "ess"
      ],
      [
        "C",
        "or"
      ],
      [
        "po",
        "ssi"
      ],
      [
        "play",
        "er▁"
      ],
      [
        "U",
        "S▁"
      ],
      [
        "ou",
        "gh▁"
      ],
      [
        "1",
        "9▁"
      ],
      [
        "w",
        "ea"
      ],
      [
        "sti",
        "ll▁"
      ],
      [
        "G",
        "en"
      ],
      [
        "c",
        "al▁"
      ],
      [
        "re",
        "ad"
      ],
      [
        "ro",
        "le▁"
      ],
      [
        "di",
        "vi"
      ],
      [
        "il",
        "ed▁"
      ],
      [
        "tr",
        "ack▁"
      ],
      [
        "hi",
        "story▁"
      ],
      [
        "ser",
        "ved▁"
      ],
      [
        "in",
        "d▁"
      ],
      [
        "Ri",
        "ver▁"
      ],
      [
        "maj",
        "or▁"
      ],
      [
        "v",
        "al"
      ],
      [
        "ver",
        "sion▁"
      ],
      [
        "c",
        "an"
      ],
      [
        "to",
        "p▁"
      ],
      [
        "L",
        "ea"
      ],
      [
        "n",
        "ov"
      ],
      [
        "of",
        "ten▁"
      ],
      [
        "1",
        "00▁"
      ],
      [
        "B",
        "ra"
      ],
      [
        "urric",
        "ane▁"
      ],
      [
        "o",
        "l▁"
      ],
      [
        "si",
        "mil"
      ],
      [
        "oo",
        "t"
      ],
      [
        "row",
        "n▁"
      ],
      [
        "t",
        "own▁"
      ],
      [
        "l",
        "d"
      ],
      [
        "y",
        "le▁"
      ],
      [
        "ch",
        "ang"
      ],
      [
        "r",
        "a▁"
      ],
      [
        "st",
        "re"
      ],
      [
        "continu",
        "ed▁"
      ],
      [
        "B",
        "y▁"
      ],
      [
        "tiv",
        "ely▁"
      ],
      [
        "com",
        "pany▁"
      ],
      [
        "consi",
        "dered▁"
      ],
      [
        "su",
        "gg"
      ],
      [
        "1",
        "2"
      ],
      [
        "b",
        "and▁"
      ],
      [
        "c",
        "as"
      ],
      [
        "n",
        "ext▁"
      ],
      [
        "qu",
        "ar"
      ],
      [
        "200",
        "7▁"
      ],
      [
        "b",
        "ir"
      ],
      [
        "e",
        "f▁"
      ],
      [
        "F",
        "ren"
      ],
      [
        "v",
        "is"
      ],
      [
        "ic",
        "k"
      ],
      [
        "recor",
        "ded▁"
      ],
      [
        "ini",
        "ti"
      ],
      [
        "publi",
        "shed▁"
      ],
      [
        "Ch",
        "ar"
      ],
      [
        "O",
        "ne▁"
      ],
      [
        "R",
        "ec"
      ],
      [
        "e",
        "m▁"
      ],
      [
        "f",
        "el"
      ],
      [
        "In",
        "ter"
      ],
      [
        "care",
        "er▁"
      ],
      [
        "d",
        "ro"
      ],
      [
        "B",
        "att"
      ],
      [
        "aga",
        "in▁"
      ],
      [
        "A",
        "cc"
      ],
      [
        "m",
        "er▁"
      ],
      [
        "per",
        "forman"
      ],
      [
        "c",
        "ame▁"
      ],
      [
        "sh",
        "ow"
      ],
      [
        "p",
        "as"
      ],
      [
        "s",
        "et"
      ],
      [
        "ta",
        "ke▁"
      ],
      [
        "peri",
        "od▁"
      ],
      [
        "b",
        "s▁"
      ],
      [
        "hel",
        "d▁"
      ],
      [
        "ir",
        "e▁"
      ],
      [
        "ss",
        "es▁"
      ],
      [
        "b",
        "ar"
      ],
      [
        "Eng",
        "lish▁"
      ],
      [
        "s",
        "w"
      ],
      [
        "m",
        "or"
      ],
      [
        "a",
        "ff"
      ],
      [
        "y",
        "ou▁"
      ],
      [
        "op",
        "s▁"
      ],
      [
        "gh",
        "ts▁"
      ],
      [
        "hal",
        "f▁"
      ],
      [
        "p",
        "ed▁"
      ],
      [
        "s",
        "ongs▁"
      ],
      [
        "sig",
        "ned▁"
      ],
      [
        "with",
        "out▁"
      ],
      [
        "Q",
        "u"
      ],
      [
        "l",
        "et"
      ],
      [
        "bo",
        "dy▁"
      ],
      [
        "publi",
        "c▁"
      ],
      [
        "g",
        "es▁"
      ],
      [
        "writ",
        "ten▁"
      ],
      [
        "d",
        "en▁"
      ],
      [
        "d",
        "ays▁"
      ],
      [
        "an",
        "g▁"
      ],
      [
        "re",
        "pres"
      ],
      [
        "Fren",
        "ch▁"
      ],
      [
        "loc",
        "al▁"
      ],
      [
        "re",
        "v"
      ],
      [
        "ev",
        "ed▁"
      ],
      [
        "re",
        "fer"
      ],
      [
        "S",
        "er"
      ],
      [
        "ul",
        "t▁"
      ],
      [
        "d",
        "ri"
      ],
      [
        "u",
        "res▁"
      ],
      [
        "re",
        "s"
      ],
      [
        "am",
        "s▁"
      ],
      [
        "e",
        "k▁"
      ],
      [
        "di",
        "sp"
      ],
      [
        "M",
        "ic"
      ],
      [
        "c",
        "y"
      ],
      [
        "est",
        "ed▁"
      ],
      [
        "poin",
        "t▁"
      ],
      [
        "ac",
        "ks▁"
      ],
      [
        "form",
        "er▁"
      ],
      [
        "m",
        "emb"
      ],
      [
        "st",
        "on▁"
      ],
      [
        "2",
        "1▁"
      ],
      [
        "ea",
        "st"
      ],
      [
        "an",
        "a▁"
      ],
      [
        "St",
        "ate▁"
      ],
      [
        "dre",
        "n▁"
      ],
      [
        "l",
        "dren▁"
      ],
      [
        "sc",
        "en"
      ],
      [
        "plac",
        "ed▁"
      ],
      [
        "o",
        "s▁"
      ],
      [
        "sup",
        "port▁"
      ],
      [
        "1",
        "0"
      ],
      [
        "gh",
        "out▁"
      ],
      [
        "ne",
        "w"
      ],
      [
        "w",
        "at"
      ],
      [
        "ur",
        "ed▁"
      ],
      [
        "201",
        "1▁"
      ],
      [
        "c",
        "y▁"
      ],
      [
        "s",
        "it"
      ],
      [
        "qu",
        "e▁"
      ],
      [
        "fe",
        "w▁"
      ],
      [
        "relea",
        "se▁"
      ],
      [
        "tro",
        "pical▁"
      ],
      [
        "l",
        "l"
      ],
      [
        "de",
        "st"
      ],
      [
        "ra",
        "tion▁"
      ],
      [
        "B",
        "er"
      ],
      [
        "C",
        "hi"
      ],
      [
        "D",
        "u"
      ],
      [
        "iz",
        "ed▁"
      ],
      [
        "clu",
        "b▁"
      ],
      [
        "ro",
        "w▁"
      ],
      [
        "im",
        "port"
      ],
      [
        "bec",
        "ome▁"
      ],
      [
        "ish",
        "ed▁"
      ],
      [
        "Di",
        "vision▁"
      ],
      [
        "C",
        "re"
      ],
      [
        "s",
        "ha"
      ],
      [
        "wh",
        "ite▁"
      ],
      [
        "200",
        "6▁"
      ],
      [
        "fi",
        "c▁"
      ],
      [
        "Al",
        "though▁"
      ],
      [
        "h",
        "or"
      ],
      [
        "ac",
        "tion▁"
      ],
      [
        "A",
        "b"
      ],
      [
        "d",
        "en"
      ],
      [
        "h",
        "owever▁"
      ],
      [
        "M",
        "is"
      ],
      [
        "N",
        "o▁"
      ],
      [
        "fur",
        "ther▁"
      ],
      [
        "B",
        "l"
      ],
      [
        "p",
        "ower▁"
      ],
      [
        "w",
        "in▁"
      ],
      [
        "st",
        "udi"
      ],
      [
        "est",
        "ern▁"
      ],
      [
        "ro",
        "ad▁"
      ],
      [
        "ti",
        "tle▁"
      ],
      [
        "ri",
        "ght▁"
      ],
      [
        "Acc",
        "ording▁"
      ],
      [
        "C",
        "ha"
      ],
      [
        "differ",
        "ent▁"
      ],
      [
        "B",
        "u"
      ],
      [
        "a",
        "tive▁"
      ],
      [
        "w",
        "ar"
      ],
      [
        "an",
        "ts▁"
      ],
      [
        "N",
        "i"
      ],
      [
        "F",
        "in"
      ],
      [
        "u",
        "ally▁"
      ],
      [
        "y",
        "al▁"
      ],
      [
        "ch",
        "o"
      ],
      [
        "ru",
        "n▁"
      ],
      [
        "mil",
        "itary▁"
      ],
      [
        "cla",
        "im"
      ],
      [
        "2",
        "3▁"
      ],
      [
        "A",
        "f"
      ],
      [
        "our",
        "s▁"
      ],
      [
        "produc",
        "tion▁"
      ],
      [
        "f",
        "ore"
      ],
      [
        "l",
        "at"
      ],
      [
        "pro",
        "c"
      ],
      [
        "sig",
        "ni"
      ],
      [
        "Lea",
        "gue▁"
      ],
      [
        "2",
        "8▁"
      ],
      [
        "T",
        "w"
      ],
      [
        "ic",
        "h"
      ],
      [
        "hi",
        "stor"
      ],
      [
        "W",
        "hi"
      ],
      [
        "g",
        "et▁"
      ],
      [
        "p",
        "it"
      ],
      [
        "t",
        "ru"
      ],
      [
        "ber",
        "t▁"
      ],
      [
        "4",
        "0▁"
      ],
      [
        "d",
        "ers▁"
      ],
      [
        "n",
        "ess▁"
      ],
      [
        "co",
        "t"
      ],
      [
        "F",
        "eb"
      ],
      [
        "u",
        "r▁"
      ],
      [
        "ru",
        "ary▁"
      ],
      [
        "Feb",
        "ruary▁"
      ],
      [
        "C",
        "o"
      ],
      [
        "for",
        "d▁"
      ],
      [
        "ho",
        "w▁"
      ],
      [
        "2",
        "4▁"
      ],
      [
        "mo",
        "der"
      ],
      [
        "D",
        "e"
      ],
      [
        "b",
        "it"
      ],
      [
        "B",
        "e"
      ],
      [
        "F",
        "or▁"
      ],
      [
        "ex",
        "ten"
      ],
      [
        "ga",
        "ve▁"
      ],
      [
        "ch",
        "urch▁"
      ],
      [
        "ep",
        "ar"
      ],
      [
        "produc",
        "ed▁"
      ],
      [
        "yl",
        "an▁"
      ],
      [
        "dec",
        "i"
      ],
      [
        "D",
        "ylan▁"
      ],
      [
        "p",
        "ra"
      ],
      [
        "T",
        "im"
      ],
      [
        "or",
        "der▁"
      ],
      [
        "am",
        "ong▁"
      ],
      [
        "f",
        "re"
      ],
      [
        "Ch",
        "urch▁"
      ],
      [
        "on",
        "es▁"
      ],
      [
        "tor",
        "s▁"
      ],
      [
        "at",
        "or▁"
      ],
      [
        "ev",
        "ision▁"
      ],
      [
        "over",
        "ed▁"
      ],
      [
        "a",
        "in▁"
      ],
      [
        "e",
        "qu"
      ],
      [
        "o",
        "t▁"
      ],
      [
        "201",
        "2▁"
      ],
      [
        "P",
        "ri"
      ],
      [
        "v",
        "al▁"
      ],
      [
        "de",
        "fe"
      ],
      [
        "chi",
        "ldren▁"
      ],
      [
        "memb",
        "ers▁"
      ],
      [
        "w",
        "e▁"
      ],
      [
        "ne",
        "y▁"
      ],
      [
        "est",
        "s▁"
      ],
      [
        "tor",
        "y▁"
      ],
      [
        "M",
        "or"
      ],
      [
        "d",
        "a▁"
      ],
      [
        "for",
        "ces▁"
      ],
      [
        "S",
        "im"
      ],
      [
        "hi",
        "m"
      ],
      [
        "fir",
        "e▁"
      ],
      [
        "se",
        "en▁"
      ],
      [
        "f",
        "ron"
      ],
      [
        "v",
        "a▁"
      ],
      [
        "at",
        "ter"
      ],
      [
        "a",
        "il"
      ],
      [
        "f",
        "ace▁"
      ],
      [
        "ha",
        "ving▁"
      ],
      [
        "2",
        "2▁"
      ],
      [
        "J",
        "ap"
      ],
      [
        "t",
        "es▁"
      ],
      [
        "Ge",
        "or"
      ],
      [
        "i",
        "de"
      ],
      [
        "ma",
        "in"
      ],
      [
        "f",
        "es"
      ],
      [
        "simil",
        "ar▁"
      ],
      [
        "M",
        "in"
      ],
      [
        "inclu",
        "de▁"
      ],
      [
        "a",
        "way▁"
      ],
      [
        "b",
        "a"
      ],
      [
        "m",
        "y"
      ],
      [
        "oun",
        "g▁"
      ],
      [
        "pe",
        "ti"
      ],
      [
        "inv",
        "ol"
      ],
      [
        "A",
        "c"
      ],
      [
        "comm",
        "on▁"
      ],
      [
        "signi",
        "fic"
      ],
      [
        "ar",
        "s▁"
      ],
      [
        "gi",
        "ven▁"
      ],
      [
        "inf",
        "lu"
      ],
      [
        "sid",
        "ent▁"
      ],
      [
        "2",
        "6▁"
      ],
      [
        "M",
        "i"
      ],
      [
        "er",
        "ing▁"
      ],
      [
        "ali",
        "on▁"
      ],
      [
        "hou",
        "se▁"
      ],
      [
        "t",
        "al"
      ],
      [
        "st",
        "ar▁"
      ],
      [
        "lo",
        "st▁"
      ],
      [
        "ma",
        "king▁"
      ],
      [
        "ran",
        "ge▁"
      ],
      [
        "H",
        "ar"
      ],
      [
        "O",
        "r"
      ],
      [
        "S",
        "ch"
      ],
      [
        "in",
        "e"
      ],
      [
        "con",
        "ta"
      ],
      [
        "c",
        "el"
      ],
      [
        "m",
        "ul"
      ],
      [
        "w",
        "ays▁"
      ],
      [
        "x",
        "im"
      ],
      [
        "man",
        "ag"
      ],
      [
        "E",
        "x"
      ],
      [
        "sh",
        "ort▁"
      ],
      [
        "sch",
        "ool▁"
      ],
      [
        "r",
        "and▁"
      ],
      [
        "s",
        "ent▁"
      ],
      [
        "st",
        "ated▁"
      ],
      [
        "g",
        "un"
      ],
      [
        "en",
        "ding▁"
      ],
      [
        "col",
        "l"
      ],
      [
        "w",
        "ards▁"
      ],
      [
        "di",
        "tional▁"
      ],
      [
        "Al",
        "l▁"
      ],
      [
        "c",
        "o▁"
      ],
      [
        "en",
        "ds▁"
      ],
      [
        "ev",
        "ent"
      ],
      [
        "201",
        "3▁"
      ],
      [
        "develop",
        "ed▁"
      ],
      [
        "c",
        "k▁"
      ],
      [
        "re",
        "ported▁"
      ],
      [
        "ti",
        "n▁"
      ],
      [
        "on",
        "om"
      ],
      [
        "cra",
        "ft▁"
      ],
      [
        "or",
        "i"
      ],
      [
        "ab",
        "ly▁"
      ],
      [
        "contro",
        "l▁"
      ],
      [
        "S",
        "a"
      ],
      [
        "ag",
        "re"
      ],
      [
        "1",
        "3"
      ],
      [
        "b",
        "an"
      ],
      [
        "f",
        "em"
      ],
      [
        "p",
        "ass"
      ],
      [
        "for",
        "ce▁"
      ],
      [
        "ci",
        "al▁"
      ],
      [
        "Wil",
        "li"
      ],
      [
        "ent",
        "al▁"
      ],
      [
        "S",
        "t▁"
      ],
      [
        "g",
        "o▁"
      ],
      [
        "w",
        "ent▁"
      ],
      [
        "com",
        "man"
      ],
      [
        "lea",
        "d▁"
      ],
      [
        "k",
        "et▁"
      ],
      [
        "Gen",
        "eral▁"
      ],
      [
        "S",
        "ta"
      ],
      [
        "to",
        "tal▁"
      ],
      [
        "C",
        "ent"
      ],
      [
        "om",
        "s▁"
      ],
      [
        "Whi",
        "le▁"
      ],
      [
        "writ",
        "ing▁"
      ],
      [
        "n",
        "ec"
      ],
      [
        "in",
        "tro"
      ],
      [
        "duc",
        "ed▁"
      ],
      [
        "retur",
        "ned▁"
      ],
      [
        "L",
        "on"
      ],
      [
        "Uni",
        "versity▁"
      ],
      [
        "S",
        "i"
      ],
      [
        "re",
        "land▁"
      ],
      [
        "per",
        "son"
      ],
      [
        "lan",
        "ds▁"
      ],
      [
        "F",
        "i"
      ],
      [
        "la",
        "y"
      ],
      [
        "us",
        "h"
      ],
      [
        "p",
        "ul"
      ],
      [
        "wor",
        "ks▁"
      ],
      [
        "fa",
        "ther▁"
      ],
      [
        "ampi",
        "on"
      ],
      [
        "establi",
        "shed▁"
      ],
      [
        "m",
        "as"
      ],
      [
        "com",
        "b"
      ],
      [
        "S",
        "om"
      ],
      [
        "mat",
        "ch▁"
      ],
      [
        "Th",
        "ese▁"
      ],
      [
        "Americ",
        "a▁"
      ],
      [
        "ann",
        "oun"
      ],
      [
        "o",
        "p▁"
      ],
      [
        "ec",
        "h▁"
      ],
      [
        "di",
        "ed▁"
      ],
      [
        "con",
        "cer"
      ],
      [
        "att",
        "ack▁"
      ],
      [
        "Com",
        "m"
      ],
      [
        "popu",
        "lation▁"
      ],
      [
        "east",
        "ern▁"
      ],
      [
        "1",
        "5"
      ],
      [
        "P",
        "al"
      ],
      [
        "g",
        "ade▁"
      ],
      [
        "olog",
        "ical▁"
      ],
      [
        "p",
        "ea"
      ],
      [
        "s",
        "po"
      ],
      [
        "i",
        "m▁"
      ],
      [
        "re",
        "ached▁"
      ],
      [
        "oun",
        "ded▁"
      ],
      [
        "coun",
        "try▁"
      ],
      [
        "construc",
        "tion▁"
      ],
      [
        "h",
        "ar"
      ],
      [
        "m",
        "ed▁"
      ],
      [
        "ear",
        "li"
      ],
      [
        "I",
        "reland▁"
      ],
      [
        "u",
        "te▁"
      ],
      [
        "re",
        "view"
      ],
      [
        "pp",
        "ed▁"
      ],
      [
        "dep",
        "end"
      ],
      [
        "n",
        "ever▁"
      ],
      [
        "no",
        "ted▁"
      ],
      [
        "A",
        "ss"
      ],
      [
        "st",
        "ing▁"
      ],
      [
        "19",
        "0"
      ],
      [
        "ca",
        "st▁"
      ],
      [
        "buil",
        "ding▁"
      ],
      [
        "W",
        "al"
      ],
      [
        "e",
        "an▁"
      ],
      [
        "i",
        "ally▁"
      ],
      [
        "m",
        "en"
      ],
      [
        "t",
        "em"
      ],
      [
        "ac",
        "ross▁"
      ],
      [
        "lo",
        "t▁"
      ],
      [
        "loc",
        "ated▁"
      ],
      [
        "throu",
        "ghout▁"
      ],
      [
        "resul",
        "t▁"
      ],
      [
        "a",
        "k▁"
      ],
      [
        "or",
        "ity▁"
      ],
      [
        "as",
        "h"
      ],
      [
        "nor",
        "th"
      ],
      [
        "chan",
        "ge▁"
      ],
      [
        "en",
        "sive▁"
      ],
      [
        "comm",
        "un"
      ],
      [
        "sev",
        "en▁"
      ],
      [
        "st",
        "at"
      ],
      [
        "bo",
        "ard▁"
      ],
      [
        "thou",
        "ght▁"
      ],
      [
        "p",
        "ol"
      ],
      [
        "om",
        "en▁"
      ],
      [
        "pres",
        "sion▁"
      ],
      [
        "develop",
        "ment▁"
      ],
      [
        "fel",
        "t▁"
      ],
      [
        "Lon",
        "don▁"
      ],
      [
        "ur",
        "al▁"
      ],
      [
        "ad",
        "a▁"
      ],
      [
        "Fe",
        "der"
      ],
      [
        "him",
        "self▁"
      ],
      [
        "a",
        "ke▁"
      ],
      [
        "re",
        "st▁"
      ],
      [
        "dest",
        "ro"
      ],
      [
        "2",
        "7▁"
      ],
      [
        "v",
        "y▁"
      ],
      [
        "per",
        "formed▁"
      ],
      [
        "ph",
        "y▁"
      ],
      [
        "E",
        "l"
      ],
      [
        "t",
        "a▁"
      ],
      [
        "su",
        "ff"
      ],
      [
        "Australi",
        "a▁"
      ],
      [
        "Af",
        "ric"
      ],
      [
        "u",
        "bli"
      ],
      [
        "re",
        "f"
      ],
      [
        "P",
        "r"
      ],
      [
        "el",
        "ec"
      ],
      [
        "op",
        "e▁"
      ],
      [
        "str",
        "y▁"
      ],
      [
        "r",
        "on▁"
      ],
      [
        "et",
        "er▁"
      ],
      [
        "mil",
        "es▁"
      ],
      [
        "ful",
        "l▁"
      ],
      [
        "W",
        "est▁"
      ],
      [
        "2",
        "9▁"
      ],
      [
        "W",
        "ith▁"
      ],
      [
        "import",
        "ant▁"
      ],
      [
        "a",
        "ir▁"
      ],
      [
        "c",
        "ro"
      ],
      [
        "m",
        "m▁"
      ],
      [
        "an",
        "im"
      ],
      [
        "it",
        "ar▁"
      ],
      [
        "wee",
        "k▁"
      ],
      [
        "6",
        "0▁"
      ],
      [
        "st",
        "yle▁"
      ],
      [
        "tel",
        "evision▁"
      ],
      [
        "S",
        "o"
      ],
      [
        "s",
        "qu"
      ],
      [
        "ing",
        "dom▁"
      ],
      [
        "are",
        "as▁"
      ],
      [
        "u",
        "lar▁"
      ],
      [
        "ab",
        "o"
      ],
      [
        "d",
        "ate▁"
      ],
      [
        "appear",
        "ed▁"
      ],
      [
        "previ",
        "ous▁"
      ],
      [
        "oot",
        "ball▁"
      ],
      [
        "F",
        "l"
      ],
      [
        "S",
        "cot"
      ],
      [
        "K",
        "ing▁"
      ],
      [
        "i",
        "fic▁"
      ],
      [
        "M",
        "e"
      ],
      [
        "pro",
        "b"
      ],
      [
        "ev",
        "ents▁"
      ],
      [
        "mar",
        "ri"
      ],
      [
        "mi",
        "x"
      ],
      [
        "S",
        "ec"
      ],
      [
        "d",
        "a"
      ],
      [
        "de",
        "sp"
      ],
      [
        "th",
        "re"
      ],
      [
        "star",
        "ted▁"
      ],
      [
        "S",
        "e"
      ],
      [
        "t",
        "ech"
      ],
      [
        "play",
        "ers▁"
      ],
      [
        "J",
        "ames▁"
      ],
      [
        "og",
        "ether▁"
      ],
      [
        "Par",
        "k▁"
      ],
      [
        "H",
        "or"
      ],
      [
        "S",
        "p"
      ],
      [
        "d",
        "oc"
      ],
      [
        "h",
        "ol"
      ],
      [
        "ti",
        "s"
      ],
      [
        "fe",
        "et▁"
      ],
      [
        "P",
        "hi"
      ],
      [
        "t",
        "ation▁"
      ],
      [
        "ex",
        "peri"
      ],
      [
        "vari",
        "ous▁"
      ],
      [
        "sp",
        "or"
      ],
      [
        "g",
        "ran"
      ],
      [
        "si",
        "an▁"
      ],
      [
        "com",
        "e▁"
      ],
      [
        "lea",
        "r▁"
      ],
      [
        "M",
        "oun"
      ],
      [
        "P",
        "or"
      ],
      [
        "T",
        "V▁"
      ],
      [
        "us",
        "e"
      ],
      [
        "se",
        "e▁"
      ],
      [
        "ni",
        "ght▁"
      ],
      [
        "Coun",
        "ty▁"
      ],
      [
        "performan",
        "ce▁"
      ],
      [
        "S",
        "ong▁"
      ],
      [
        "ca",
        "used▁"
      ],
      [
        "to",
        "o▁"
      ],
      [
        "Da",
        "vi"
      ],
      [
        "s",
        "in"
      ],
      [
        "tion",
        "ed▁"
      ],
      [
        "ni",
        "a▁"
      ],
      [
        "id",
        "d"
      ],
      [
        "scri",
        "p"
      ],
      [
        "r",
        "ul"
      ],
      [
        "H",
        "ou"
      ],
      [
        "s",
        "ons▁"
      ],
      [
        "ti",
        "al▁"
      ],
      [
        "am",
        "ent▁"
      ],
      [
        "form",
        "ation▁"
      ],
      [
        "m",
        "oun"
      ],
      [
        "ul",
        "arly▁"
      ],
      [
        "ear",
        "ch▁"
      ],
      [
        "ne",
        "l▁"
      ],
      [
        "f",
        "our"
      ],
      [
        "ic",
        "s▁"
      ],
      [
        "sh",
        "ould▁"
      ],
      [
        "tur",
        "al▁"
      ],
      [
        "w",
        "an"
      ],
      [
        "cre",
        "ated▁"
      ],
      [
        "S",
        "y"
      ],
      [
        "h",
        "an"
      ],
      [
        "si",
        "cal▁"
      ],
      [
        "aga",
        "z"
      ],
      [
        "poli",
        "tical▁"
      ],
      [
        "S",
        "ci"
      ],
      [
        "T",
        "ur"
      ],
      [
        "ap",
        "poin"
      ],
      [
        "200",
        "4▁"
      ],
      [
        "reli",
        "gi"
      ],
      [
        "vil",
        "la"
      ],
      [
        "li",
        "ve▁"
      ],
      [
        "pro",
        "mo"
      ],
      [
        "oun",
        "ds▁"
      ],
      [
        "200",
        "5▁"
      ],
      [
        "C",
        "am"
      ],
      [
        "u",
        "tion▁"
      ],
      [
        "com",
        "peti"
      ],
      [
        "18",
        "9"
      ],
      [
        "lev",
        "el▁"
      ],
      [
        "S",
        "ha"
      ],
      [
        "u",
        "su"
      ],
      [
        "sc",
        "i"
      ],
      [
        "ta",
        "ken▁"
      ],
      [
        "sa",
        "ur"
      ],
      [
        "charac",
        "ters▁"
      ],
      [
        "c",
        "ir"
      ],
      [
        "ing",
        "ton▁"
      ],
      [
        "Th",
        "e"
      ],
      [
        "str",
        "ong▁"
      ],
      [
        "dra",
        "w"
      ],
      [
        "cur",
        "ren"
      ],
      [
        "amp",
        "le▁"
      ],
      [
        "set",
        "t"
      ],
      [
        "o",
        "thers▁"
      ],
      [
        "an",
        "k"
      ],
      [
        "il",
        "s▁"
      ],
      [
        "f",
        "av"
      ],
      [
        "t",
        "ou"
      ],
      [
        "es",
        "tim"
      ],
      [
        "us",
        "es▁"
      ],
      [
        "tu",
        "res▁"
      ],
      [
        "g",
        "ood▁"
      ],
      [
        "h",
        "ind▁"
      ],
      [
        "on",
        "ce▁"
      ],
      [
        "ic",
        "ally▁"
      ],
      [
        "ra",
        "di"
      ],
      [
        "bor",
        "n▁"
      ],
      [
        "l",
        "ong"
      ],
      [
        "er",
        "a▁"
      ],
      [
        "gu",
        "n▁"
      ],
      [
        "oc",
        "k"
      ],
      [
        "do",
        "es▁"
      ],
      [
        "moder",
        "n▁"
      ],
      [
        "H",
        "am"
      ],
      [
        "i",
        "e▁"
      ],
      [
        "y",
        "ard▁"
      ],
      [
        "bl",
        "ack▁"
      ],
      [
        "B",
        "C▁"
      ],
      [
        "W",
        "i"
      ],
      [
        "ev",
        "er"
      ],
      [
        "sur",
        "vi"
      ],
      [
        "success",
        "ful▁"
      ],
      [
        "R",
        "ich"
      ],
      [
        "n",
        "d▁"
      ],
      [
        "li",
        "gh"
      ],
      [
        "mo",
        "ve▁"
      ],
      [
        "An",
        "g"
      ],
      [
        "lin",
        "es▁"
      ],
      [
        "rema",
        "ined▁"
      ],
      [
        "2",
        "nd▁"
      ],
      [
        "oc",
        "cu"
      ],
      [
        "bec",
        "om"
      ],
      [
        "d",
        "ings▁"
      ],
      [
        "de",
        "m"
      ],
      [
        "com",
        "pan"
      ],
      [
        "sc",
        "ored▁"
      ],
      [
        "gre",
        "at▁"
      ],
      [
        "Chri",
        "st"
      ],
      [
        "complet",
        "ed▁"
      ],
      [
        "At",
        "lan"
      ],
      [
        "C",
        "are"
      ],
      [
        "G",
        "al"
      ],
      [
        "N",
        "ew"
      ],
      [
        "n",
        "uc"
      ],
      [
        "li",
        "es▁"
      ],
      [
        "li",
        "st▁"
      ],
      [
        "Ro",
        "ad▁"
      ],
      [
        "cri",
        "tic"
      ],
      [
        "diff",
        "ic"
      ],
      [
        "gun",
        "s▁"
      ],
      [
        "li",
        "k"
      ],
      [
        "cam",
        "pa"
      ],
      [
        "announ",
        "ced▁"
      ],
      [
        "star",
        "s▁"
      ],
      [
        "Australi",
        "an▁"
      ],
      [
        "p",
        "le▁"
      ],
      [
        "p",
        "ow"
      ],
      [
        "t",
        "ment▁"
      ],
      [
        "K",
        "ingdom▁"
      ],
      [
        "f",
        "le"
      ],
      [
        "ar",
        "ded▁"
      ],
      [
        "pu",
        "t▁"
      ],
      [
        "v",
        "ol"
      ],
      [
        "al",
        "y"
      ],
      [
        "ac",
        "ked▁"
      ],
      [
        "si",
        "ble▁"
      ],
      [
        "m",
        "em"
      ],
      [
        "Com",
        "pany▁"
      ],
      [
        "e",
        "ve▁"
      ],
      [
        "h",
        "un"
      ],
      [
        "in",
        "ation▁"
      ],
      [
        "st",
        "one▁"
      ],
      [
        "ad",
        "ded▁"
      ],
      [
        "com",
        "par"
      ],
      [
        "lit",
        "tle▁"
      ],
      [
        "inst",
        "ead▁"
      ],
      [
        "a",
        "z"
      ],
      [
        "n",
        "a▁"
      ],
      [
        "en",
        "ced▁"
      ],
      [
        "it",
        "ted▁"
      ],
      [
        "ab",
        "ility▁"
      ],
      [
        "rou",
        "ght▁"
      ],
      [
        "regi",
        "on▁"
      ],
      [
        "S",
        "w"
      ],
      [
        "d",
        "ou"
      ],
      [
        "ar",
        "ch"
      ],
      [
        "pres",
        "ent▁"
      ],
      [
        "n",
        "on▁"
      ],
      [
        "v",
        "oc"
      ],
      [
        "w",
        "ood▁"
      ],
      [
        "an",
        "ces▁"
      ],
      [
        "re",
        "ad▁"
      ],
      [
        "possi",
        "ble▁"
      ],
      [
        "I",
        "m"
      ],
      [
        "b",
        "oo"
      ],
      [
        "c",
        "op"
      ],
      [
        "wi",
        "de▁"
      ],
      [
        "popu",
        "lar▁"
      ],
      [
        "nov",
        "el▁"
      ],
      [
        "A",
        "m"
      ],
      [
        "B",
        "i"
      ],
      [
        "B",
        "ro"
      ],
      [
        "b",
        "r"
      ],
      [
        "si",
        "a▁"
      ],
      [
        "lea",
        "st▁"
      ],
      [
        "follow",
        "ed▁"
      ],
      [
        "C",
        "ap"
      ],
      [
        "c",
        "at"
      ],
      [
        "h",
        "ear"
      ],
      [
        "in",
        "k▁"
      ],
      [
        "pa",
        "ren"
      ],
      [
        "wi",
        "fe▁"
      ],
      [
        "Chri",
        "sti"
      ],
      [
        "kil",
        "led▁"
      ],
      [
        "C",
        "up▁"
      ],
      [
        "t",
        "ogether▁"
      ],
      [
        "re",
        "spec"
      ],
      [
        "is",
        "land▁"
      ],
      [
        "a",
        "ver"
      ],
      [
        "o",
        "se▁"
      ],
      [
        "ad",
        "dition▁"
      ],
      [
        "mon",
        "ths▁"
      ],
      [
        "origin",
        "ally▁"
      ],
      [
        "ful",
        "ly▁"
      ],
      [
        "H",
        "en"
      ],
      [
        "T",
        "o"
      ],
      [
        "ev",
        "id"
      ],
      [
        "Ar",
        "my▁"
      ],
      [
        "ist",
        "s▁"
      ],
      [
        "Mu",
        "sic▁"
      ],
      [
        "C",
        "ro"
      ],
      [
        "st",
        "ra"
      ],
      [
        "ass",
        "oci"
      ],
      [
        "hum",
        "an▁"
      ],
      [
        "f",
        "all▁"
      ],
      [
        "it",
        "ing▁"
      ],
      [
        "fi",
        "f"
      ],
      [
        "rela",
        "tion"
      ],
      [
        "h",
        "urricane▁"
      ],
      [
        "w",
        "omen▁"
      ],
      [
        "for",
        "t▁"
      ],
      [
        "m",
        "i▁"
      ],
      [
        "op",
        "ened▁"
      ],
      [
        "rec",
        "og"
      ],
      [
        "E",
        "d"
      ],
      [
        "V",
        "al"
      ],
      [
        "succ",
        "ess▁"
      ],
      [
        "c",
        "arri"
      ],
      [
        "cri",
        "tics▁"
      ],
      [
        "sou",
        "thern▁"
      ],
      [
        "M",
        "il"
      ],
      [
        "Y",
        "ou▁"
      ],
      [
        "h",
        "on"
      ],
      [
        "di",
        "es▁"
      ],
      [
        "ch",
        "ing▁"
      ],
      [
        "ter",
        "min"
      ],
      [
        "200",
        "3▁"
      ],
      [
        "low",
        "ing▁"
      ],
      [
        "ei",
        "ther▁"
      ],
      [
        "retur",
        "n▁"
      ],
      [
        "n",
        "al▁"
      ],
      [
        "in",
        "ning▁"
      ],
      [
        "event",
        "ually▁"
      ],
      [
        "o",
        "w▁"
      ],
      [
        "feat",
        "ures▁"
      ],
      [
        "A",
        "n▁"
      ],
      [
        "N",
        "av"
      ],
      [
        "R",
        "a"
      ],
      [
        "T",
        "o▁"
      ],
      [
        "w",
        "al"
      ],
      [
        "ac",
        "hi"
      ],
      [
        "si",
        "st"
      ],
      [
        "li",
        "c▁"
      ],
      [
        "ta",
        "ined▁"
      ],
      [
        "sa",
        "w▁"
      ],
      [
        "201",
        "5▁"
      ],
      [
        "cha",
        "e"
      ],
      [
        "Fran",
        "ce▁"
      ],
      [
        "Davi",
        "d▁"
      ],
      [
        "f",
        "o"
      ],
      [
        "F",
        "ol"
      ],
      [
        "O",
        "n"
      ],
      [
        "v",
        "e"
      ],
      [
        "im",
        "pro"
      ],
      [
        "ampion",
        "ship▁"
      ],
      [
        "m",
        "et▁"
      ],
      [
        "n",
        "at"
      ],
      [
        "ag",
        "o▁"
      ],
      [
        "ev",
        "ery▁"
      ],
      [
        "por",
        "ts▁"
      ],
      [
        "rou",
        "te▁"
      ],
      [
        "Euro",
        "pe▁"
      ],
      [
        "bir",
        "ds▁"
      ],
      [
        "four",
        "th▁"
      ],
      [
        "t",
        "ar"
      ],
      [
        "in",
        "du"
      ],
      [
        "en",
        "se▁"
      ],
      [
        "la",
        "y▁"
      ],
      [
        "for",
        "ced▁"
      ],
      [
        "gu",
        "lar▁"
      ],
      [
        "cont",
        "rac"
      ],
      [
        "Euro",
        "pe"
      ],
      [
        "Tw",
        "o▁"
      ],
      [
        "l",
        "ated▁"
      ],
      [
        "y",
        "oung▁"
      ],
      [
        "an",
        "try▁"
      ],
      [
        "comm",
        "er"
      ],
      [
        "poin",
        "ts▁"
      ],
      [
        "sion",
        "al▁"
      ],
      [
        "deci",
        "ded▁"
      ],
      [
        "b",
        "al"
      ],
      [
        "p",
        "at"
      ],
      [
        "min",
        "ist"
      ],
      [
        "cla",
        "ss▁"
      ],
      [
        "v",
        "ir"
      ],
      [
        "pro",
        "te"
      ],
      [
        "id",
        "enti"
      ],
      [
        "dam",
        "age▁"
      ],
      [
        "ol",
        "s▁"
      ],
      [
        "mo",
        "ther▁"
      ],
      [
        "ot",
        "a▁"
      ],
      [
        "V",
        "er"
      ],
      [
        "i",
        "de▁"
      ],
      [
        "play",
        "ing▁"
      ],
      [
        "Batt",
        "alion▁"
      ],
      [
        "agaz",
        "ine▁"
      ],
      [
        "E",
        "ar"
      ],
      [
        "s",
        "old▁"
      ],
      [
        "s",
        "epar"
      ],
      [
        "form",
        "s▁"
      ],
      [
        "pa",
        "in"
      ],
      [
        "b",
        "es▁"
      ],
      [
        "g",
        "e"
      ],
      [
        "n",
        "ar"
      ],
      [
        "ti",
        "t"
      ],
      [
        "be",
        "hind▁"
      ],
      [
        "lea",
        "ding▁"
      ],
      [
        "fin",
        "ished▁"
      ],
      [
        "hea",
        "vy▁"
      ],
      [
        "writ",
        "er▁"
      ],
      [
        "G",
        "rand▁"
      ],
      [
        "in",
        "divi"
      ],
      [
        "ar",
        "gu"
      ],
      [
        "st",
        "and"
      ],
      [
        "St",
        "re"
      ],
      [
        "struc",
        "ture▁"
      ],
      [
        "beli",
        "eved▁"
      ],
      [
        "Care",
        "y▁"
      ],
      [
        "indivi",
        "du"
      ],
      [
        "J",
        "er"
      ],
      [
        "R",
        "ep"
      ],
      [
        "m",
        "ing▁"
      ],
      [
        "ex",
        "ic"
      ],
      [
        "desig",
        "n▁"
      ],
      [
        "e",
        "u"
      ],
      [
        "m",
        "ea"
      ],
      [
        "fron",
        "t▁"
      ],
      [
        "G",
        "i"
      ],
      [
        "oc",
        "cur"
      ],
      [
        "ach",
        "ing▁"
      ],
      [
        "g",
        "er▁"
      ],
      [
        "vi",
        "er▁"
      ],
      [
        "mat",
        "er"
      ],
      [
        "appear",
        "ance▁"
      ],
      [
        "Lo",
        "ve▁"
      ],
      [
        "S",
        "hi"
      ],
      [
        "b",
        "ility▁"
      ],
      [
        "g",
        "in"
      ],
      [
        "st",
        "age▁"
      ],
      [
        "emp",
        "lo"
      ],
      [
        "direc",
        "ted▁"
      ],
      [
        "M",
        "exic"
      ],
      [
        "ex",
        "ample▁"
      ],
      [
        "ep",
        "tion▁"
      ],
      [
        "lan",
        "gu"
      ],
      [
        "pi",
        "ec"
      ],
      [
        "clo",
        "se▁"
      ],
      [
        "R",
        "ev"
      ],
      [
        "i",
        "ous▁"
      ],
      [
        "k",
        "ers▁"
      ],
      [
        "al",
        "most▁"
      ],
      [
        "go",
        "al▁"
      ],
      [
        "3",
        "1▁"
      ],
      [
        "e",
        "el"
      ],
      [
        "po",
        "em▁"
      ],
      [
        "im",
        "ent▁"
      ],
      [
        "cla",
        "ssi"
      ],
      [
        "cas",
        "e▁"
      ],
      [
        "B",
        "al"
      ],
      [
        "d",
        "y"
      ],
      [
        "ti",
        "ce▁"
      ],
      [
        "tur",
        "ed▁"
      ],
      [
        "signific",
        "ant▁"
      ],
      [
        "Europe",
        "an▁"
      ],
      [
        "R",
        "eg"
      ],
      [
        "s",
        "em"
      ],
      [
        "li",
        "ed▁"
      ],
      [
        "vi",
        "a▁"
      ],
      [
        "sh",
        "or"
      ],
      [
        "18",
        "8"
      ],
      [
        "serv",
        "ice▁"
      ],
      [
        "gener",
        "ally▁"
      ],
      [
        "Feder",
        "er▁"
      ],
      [
        "M",
        "ag"
      ],
      [
        "c",
        "ent▁"
      ],
      [
        "el",
        "ements▁"
      ],
      [
        "gh",
        "t"
      ],
      [
        "Ro",
        "yal▁"
      ],
      [
        "Ro",
        "bert▁"
      ],
      [
        "go",
        "ing▁"
      ],
      [
        "tow",
        "ards▁"
      ],
      [
        "claim",
        "ed▁"
      ],
      [
        "op",
        "en▁"
      ],
      [
        "F",
        "re"
      ],
      [
        "b",
        "rought▁"
      ],
      [
        "y",
        "ards▁"
      ],
      [
        "or",
        "ies▁"
      ],
      [
        "ec",
        "tive▁"
      ],
      [
        "la",
        "un"
      ],
      [
        "Bri",
        "gade▁"
      ],
      [
        "wee",
        "ks▁"
      ],
      [
        "read",
        "y▁"
      ],
      [
        "O",
        "li"
      ],
      [
        "W",
        "ales▁"
      ],
      [
        "t",
        "an"
      ],
      [
        "20",
        "0▁"
      ],
      [
        "Willi",
        "am▁"
      ],
      [
        "id",
        "a▁"
      ],
      [
        "high",
        "way▁"
      ],
      [
        "stud",
        "y▁"
      ],
      [
        "Fl",
        "or"
      ],
      [
        "b",
        "ers▁"
      ],
      [
        "c",
        "ru"
      ],
      [
        "an",
        "y"
      ],
      [
        "low",
        "er▁"
      ],
      [
        "au",
        "di"
      ],
      [
        "feat",
        "ured▁"
      ],
      [
        "1",
        "st▁"
      ],
      [
        "S",
        "ar"
      ],
      [
        "S",
        "ome▁"
      ],
      [
        "w",
        "estern▁"
      ],
      [
        "vi",
        "l▁"
      ],
      [
        "ci",
        "l▁"
      ],
      [
        "air",
        "craft▁"
      ],
      [
        "R",
        "om"
      ],
      [
        "a",
        "i▁"
      ],
      [
        "l",
        "ear"
      ],
      [
        "m",
        "ember▁"
      ],
      [
        "p",
        "en"
      ],
      [
        "t",
        "our▁"
      ],
      [
        "pro",
        "ject▁"
      ],
      [
        "at",
        "ors▁"
      ],
      [
        "star",
        "t▁"
      ],
      [
        "up",
        "on▁"
      ],
      [
        "h",
        "om"
      ],
      [
        "at",
        "a▁"
      ],
      [
        "ro",
        "om▁"
      ],
      [
        "vi",
        "ol"
      ],
      [
        "gen",
        "eral▁"
      ],
      [
        "del",
        "i"
      ],
      [
        "F",
        "il"
      ],
      [
        "R",
        "u"
      ],
      [
        "T",
        "ri"
      ],
      [
        "n",
        "et"
      ],
      [
        "con",
        "f"
      ],
      [
        "po",
        "s"
      ],
      [
        "sc",
        "re"
      ],
      [
        "Mic",
        "ha"
      ],
      [
        "a",
        "f"
      ],
      [
        "par",
        "ts▁"
      ],
      [
        "ord",
        "an▁"
      ],
      [
        "provi",
        "ded▁"
      ],
      [
        "O",
        "ther▁"
      ],
      [
        "con",
        "clu"
      ],
      [
        "H",
        "ol"
      ],
      [
        "s",
        "en▁"
      ],
      [
        "ar",
        "k▁"
      ],
      [
        "ent",
        "h▁"
      ],
      [
        "h",
        "a▁"
      ],
      [
        "t",
        "om"
      ],
      [
        "lu",
        "e▁"
      ],
      [
        "sy",
        "n"
      ],
      [
        "hel",
        "p▁"
      ],
      [
        "J",
        "ordan▁"
      ],
      [
        "R",
        "oman▁"
      ],
      [
        "T",
        "ro"
      ],
      [
        "r",
        "ace▁"
      ],
      [
        "w",
        "s▁"
      ],
      [
        "in",
        "j"
      ],
      [
        "se",
        "a▁"
      ],
      [
        "cent",
        "ral▁"
      ],
      [
        "eal",
        "th▁"
      ],
      [
        "earli",
        "er▁"
      ],
      [
        "con",
        "duc"
      ],
      [
        "wor",
        "ked▁"
      ],
      [
        "ph",
        "y"
      ],
      [
        "mis",
        "sion▁"
      ],
      [
        "allow",
        "ed▁"
      ],
      [
        "m",
        "id▁"
      ],
      [
        "n",
        "omin"
      ],
      [
        "p",
        "rac"
      ],
      [
        "ra",
        "ther▁"
      ],
      [
        "201",
        "4▁"
      ],
      [
        "sub",
        "sequ"
      ],
      [
        "Wh",
        "ite▁"
      ],
      [
        "sou",
        "th"
      ],
      [
        "cep",
        "t▁"
      ],
      [
        "fem",
        "ale▁"
      ],
      [
        "saur",
        "us▁"
      ],
      [
        "Atlan",
        "tic▁"
      ],
      [
        "B",
        "us"
      ],
      [
        "r",
        "d▁"
      ],
      [
        "op",
        "ening▁"
      ],
      [
        "sec",
        "tion▁"
      ],
      [
        "campa",
        "ign▁"
      ],
      [
        "I",
        "II▁"
      ],
      [
        "f",
        "oc"
      ],
      [
        "an",
        "ia▁"
      ],
      [
        "si",
        "t▁"
      ],
      [
        "wor",
        "king▁"
      ],
      [
        "direc",
        "tor▁"
      ],
      [
        "oper",
        "ations▁"
      ],
      [
        "larg",
        "est▁"
      ],
      [
        "vic",
        "tory▁"
      ],
      [
        "Inter",
        "national▁"
      ],
      [
        "Fol",
        "lowing▁"
      ],
      [
        "F",
        "rom▁"
      ],
      [
        "in",
        "sp"
      ],
      [
        "est",
        "er▁"
      ],
      [
        "partic",
        "ularly▁"
      ],
      [
        "Geor",
        "ge▁"
      ],
      [
        "wan",
        "ted▁"
      ],
      [
        "5",
        "00▁"
      ],
      [
        "E",
        "ast▁"
      ],
      [
        "F",
        "ir"
      ],
      [
        "H",
        "el"
      ],
      [
        "l",
        "eng"
      ],
      [
        "19",
        "th▁"
      ],
      [
        "tro",
        "ops▁"
      ],
      [
        "jo",
        "ined▁"
      ],
      [
        "attemp",
        "t▁"
      ],
      [
        "c",
        "le▁"
      ],
      [
        "f",
        "la"
      ],
      [
        "ri",
        "ver▁"
      ],
      [
        "ap",
        "er▁"
      ],
      [
        "fin",
        "d▁"
      ],
      [
        "B",
        "ur"
      ],
      [
        "d",
        "ru"
      ],
      [
        "k",
        "et"
      ],
      [
        "t",
        "able▁"
      ],
      [
        "in",
        "dic"
      ],
      [
        "re",
        "st"
      ],
      [
        "ing",
        "ly▁"
      ],
      [
        "G",
        "od▁"
      ],
      [
        "T",
        "ra"
      ],
      [
        "g",
        "row"
      ],
      [
        "h",
        "e"
      ],
      [
        "i",
        "or▁"
      ],
      [
        "l",
        "am"
      ],
      [
        "r",
        "ate▁"
      ],
      [
        "st",
        "ren"
      ],
      [
        "Th",
        "om"
      ],
      [
        "evid",
        "ence▁"
      ],
      [
        "w",
        "a"
      ],
      [
        "18",
        "5"
      ],
      [
        "au",
        "l▁"
      ],
      [
        "char",
        "t▁"
      ],
      [
        "nor",
        "thern▁"
      ],
      [
        "stan",
        "ding▁"
      ],
      [
        "Flor",
        "ida▁"
      ],
      [
        "B",
        "el"
      ],
      [
        "E",
        "g"
      ],
      [
        "J",
        "ew"
      ],
      [
        "b",
        "ack"
      ],
      [
        "g",
        "y▁"
      ],
      [
        "gh",
        "ter▁"
      ],
      [
        "bro",
        "ad"
      ],
      [
        "B",
        "rit"
      ],
      [
        "b",
        "il"
      ],
      [
        "sp",
        "ort▁"
      ],
      [
        "sa",
        "ying▁"
      ],
      [
        "desig",
        "ned▁"
      ],
      [
        "out",
        "side▁"
      ],
      [
        "ogra",
        "phy▁"
      ],
      [
        "m",
        "ag"
      ],
      [
        "t",
        "our"
      ],
      [
        "ac",
        "coun"
      ],
      [
        "gra",
        "m▁"
      ],
      [
        "manag",
        "er▁"
      ],
      [
        "an",
        "ese▁"
      ],
      [
        "h",
        "ours▁"
      ],
      [
        "s",
        "ex"
      ],
      [
        "y",
        "m"
      ],
      [
        "an",
        "o▁"
      ],
      [
        "ac",
        "y▁"
      ],
      [
        "wh",
        "om▁"
      ],
      [
        "Stre",
        "et▁"
      ],
      [
        "stren",
        "g"
      ],
      [
        "4",
        "5▁"
      ],
      [
        "7",
        "0▁"
      ],
      [
        "H",
        "u"
      ],
      [
        "ri",
        "es▁"
      ],
      [
        "ev",
        "ent▁"
      ],
      [
        "200",
        "1▁"
      ],
      [
        "av",
        "ail"
      ],
      [
        "oci",
        "ety▁"
      ],
      [
        "Is",
        "land▁"
      ],
      [
        "sour",
        "i▁"
      ],
      [
        "Mis",
        "souri▁"
      ],
      [
        "idd",
        "le▁"
      ],
      [
        "H",
        "ai"
      ],
      [
        "N",
        "e"
      ],
      [
        "T",
        "ech▁"
      ],
      [
        "lo",
        "ve▁"
      ],
      [
        "ter",
        "rit"
      ],
      [
        "m",
        "ach"
      ],
      [
        "pres",
        "sed▁"
      ],
      [
        "dre",
        "w▁"
      ],
      [
        "Her",
        "o▁"
      ],
      [
        "f",
        "lo"
      ],
      [
        "k",
        "e"
      ],
      [
        "es",
        "sion▁"
      ],
      [
        "ex",
        "ist"
      ],
      [
        "am",
        "a▁"
      ],
      [
        "dep",
        "ic"
      ],
      [
        "proc",
        "ess▁"
      ],
      [
        "A",
        "ra"
      ],
      [
        "in",
        "d"
      ],
      [
        "batt",
        "le▁"
      ],
      [
        "R",
        "ou"
      ],
      [
        "f",
        "a▁"
      ],
      [
        "v",
        "est"
      ],
      [
        "er",
        "o"
      ],
      [
        "am",
        "oun"
      ],
      [
        "duc",
        "tion▁"
      ],
      [
        "hea",
        "d"
      ],
      [
        "gre",
        "at"
      ],
      [
        "A",
        "ir"
      ],
      [
        "B",
        "as"
      ],
      [
        "K",
        "e"
      ],
      [
        "T",
        "or"
      ],
      [
        "g",
        "s▁"
      ],
      [
        "di",
        "tions▁"
      ],
      [
        "la",
        "w▁"
      ],
      [
        "su",
        "per"
      ],
      [
        "oc",
        "ial▁"
      ],
      [
        "so",
        "on▁"
      ],
      [
        "pra",
        "ised▁"
      ],
      [
        "8",
        "0▁"
      ],
      [
        "d",
        "in"
      ],
      [
        "pre",
        "v"
      ],
      [
        "rema",
        "ins▁"
      ],
      [
        "B",
        "est▁"
      ],
      [
        "r",
        "ound▁"
      ],
      [
        "ri",
        "sh▁"
      ],
      [
        "li",
        "ament▁"
      ],
      [
        "un",
        "g▁"
      ],
      [
        "O",
        "ld"
      ],
      [
        "si",
        "mp"
      ],
      [
        "ec",
        "u"
      ],
      [
        "im",
        "p"
      ],
      [
        "ta",
        "in"
      ],
      [
        "wor",
        "d▁"
      ],
      [
        "win",
        "ds▁"
      ],
      [
        "appoin",
        "ted▁"
      ],
      [
        "Micha",
        "el▁"
      ],
      [
        "V",
        "ir"
      ],
      [
        "n",
        "ation▁"
      ],
      [
        "re",
        "sid"
      ],
      [
        "pro",
        "fes"
      ],
      [
        "ta",
        "king▁"
      ],
      [
        "mon",
        "th▁"
      ],
      [
        "increas",
        "ed▁"
      ],
      [
        "ubli",
        "c▁"
      ],
      [
        "Hou",
        "se▁"
      ],
      [
        "P",
        "aul▁"
      ],
      [
        "S",
        "qu"
      ],
      [
        "U",
        "S"
      ],
      [
        "r",
        "y"
      ],
      [
        "lea",
        "gue▁"
      ],
      [
        "previ",
        "ously▁"
      ],
      [
        "Bl",
        "ack▁"
      ],
      [
        "Fir",
        "st▁"
      ],
      [
        "Eg",
        "yp"
      ],
      [
        "D",
        "esp"
      ],
      [
        "M",
        "ac"
      ],
      [
        "o",
        "d"
      ]
    ]
  }
}