{
  "version": "1.0",
  "truncation": null,
  "padding": null,
  "added_tokens": [],
  "normalizer": null,
  "pre_tokenizer": {
    "type": "Whitespace"
  },
  "post_processor": null,
  "decoder": null,
  "model": {
    "type": "BPE",
    "dropout": null,
    "unk_token": null,
    "continuing_subword_prefix": null,
    "end_of_word_suffix": "▁",
    "fuse_unk": false,
    "byte_fallback": false,
    "ignore_merges": false,
    "vocab": {
      "!": 0,
      "\"": 1,
      "#": 2,
      "$": 3,
      "%": 4,
      "&": 5,
      "'": 6,
      "(": 7,
      ")": 8,
      "*": 9,
      "+": 10,
      ",": 11,
      "-": 12,
      ".": 13,
      "/": 14,
      "0": 15,
      "1": 16,
      "2": 17,
      "3": 18,
      "4": 19,
      "5": 20,
      "6": 21,
      "7": 22,
      "8": 23,
      "9": 24,
      ":": 25,
      ";": 26,
      "<": 27,
      "=": 28,
      ">": 29,
      "?": 30,
      "@": 31,
      "A": 32,
      "B": 33,
      "C": 34,
      "D": 35,
      "E": 36,
      "F": 37,
      "G": 38,
      "H": 39,
      "I": 40,
      "J": 41,
      "K": 42,
      "L": 43,
      "M": 44,
      "N": 45,
      "O": 46,
      "P": 47,
      "Q": 48,
      "R": 49,
      "S": 50,
      "T": 51,
      "U": 52,
      "V": 53,
      "W": 54,
      "X": 55,
      "Y": 56,
      "Z": 57,
      "[": 58,
      "\\": 59,
      "]": 60,
      "^": 61,
      "_": 62,
      "`": 63,
      "a": 64,
      "b": 65,
      "c": 66,
      "d": 67,
      "e": 68,
      "f": 69,
      "g": 70,
      "h": 71,
      "i": 72,
      "j": 73,
      "k": 74,
      "l": 75,
      "m": 76,
      "n": 77,
      "o": 78,
      "p": 79,
      "q": 80,
      "r": 81,
      "s": 82,
      "t": 83,
      "u": 84,
      "v": 85,
      "w": 86,
      "x": 87,
      "y": 88,
      "z": 89,
      "|": 90,
      "}": 91,
      "~": 92,
      "": 93,
      "": 94,
      "¡": 95,
      "¢": 96,
      "£": 97,
      "¥": 98,
      "§": 99,
      "°": 100,
      "±": 101,
      "²": 102,
      "³": 103,
      "´": 104,
      "µ": 105,
      "·": 106,
      "º": 107,
      "½": 108,
      "¿": 109,
      "Á": 110,
      "Ä": 111,
      "Å": 112,
      "Æ": 113,
      "Ç": 114,
      "É": 115,
      "Í": 116,
      "Î": 117,
      "Ñ": 118,
      "Ó": 119,
      "Ö": 120,
      "×": 121,
      "Ø": 122,
      "Ú": 123,
      "Ü": 124,
      "Þ": 125,
      "ß": 126,
      "à": 127,
      "á": 128,
      "â": 129,
      "ã": 130,
      "ä": 131,
      "å": 132,
      "æ": 133,
      "ç": 134,
      "è": 135,
      "é": 136,
      "ê": 137,
      "ë": 138,
      "ì": 139,
      "í": 140,
      "î": 141,
      "ï": 142,
      "ð": 143,
      "ñ": 144,
      "ò": 145,
      "ó": 146,
      "ô": 147,
      "ö": 148,
      "ø": 149,
      "ù": 150,
      "ú": 151,
      "û": 152,
      "ü": 153,
      "ý": 154,
      "þ": 155,
      "Ā": 156,
      "ā": 157,
      "ă": 158,
      "ą": 159,
      "ć": 160,
      "Č": 161,
      "č": 162,
      "Đ": 163,
      "đ": 164,
      "Ē": 165,
      "ē": 166,
      "Ĕ": 167,
      "ĕ": 168,
      "ė": 169,
      "ę": 170,
      "ğ": 171,
      "ħ": 172,
      "ī": 173,
      "İ": 174,
      "ı": 175,
      "Ľ": 176,
      "Ł": 177,
      "ł": 178,
      "ń": 179,
      "Ō": 180,
      "ō": 181,
      "œ": 182,
      "ř": 183,
      "Ś": 184,
      "ś": 185,
      "Ş": 186,
      "ş": 187,
      "Š": 188,
      "š": 189,
      "ţ": 190,
      "ũ": 191,
      "ū": 192,
      "ů": 193,
      "ų": 194,
      "ź": 195,
      "Ż": 196,
      "ż": 197,
      "Ž": 198,
      "ž": 199,
      "ơ": 200,
      "ư": 201,
      "ǎ": 202,
      "ǔ": 203,
      "Ș": 204,
      "ș": 205,
      "ț": 206,
      "ȯ": 207,
      "ɐ": 208,
      "ɑ": 209,
      "ɒ": 210,
      "ɔ": 211,
      "ə": 212,
      "ɛ": 213,
      "ɜ": 214,
      "ɡ": 215,
      "ɢ": 216,
      "ɪ": 217,
      "ɫ": 218,
      "ɳ": 219,
      "ɽ": 220,
      "ɾ": 221,
      "ʁ": 222,
      "ʃ": 223,
      "ʊ": 224,
      "ʋ": 225,
      "ʒ": 226,
      "ʔ": 227,
      "ʕ": 228,
      "ʲ": 229,
      "ʻ": 230,
      "ʼ": 231,
      "ʾ": 232,
      "ʿ": 233,
      "ˈ": 234,
      "ˌ": 235,
      "ː": 236,
      "́": 237,
      "̃": 238,
      "̍": 239,
      "̥": 240,
      "̯": 241,
      "͍": 242,
      "Α": 243,
      "Δ": 244,
      "Κ": 245,
      "Ν": 246,
      "Π": 247,
      "Τ": 248,
      "Φ": 249,
      "Χ": 250,
      "Ω": 251,
      "ά": 252,
      "έ": 253,
      "ή": 254,
      "ί": 255,
      "α": 256,
      "β": 257,
      "γ": 258,
      "δ": 259,
      "ε": 260,
      "η": 261,
      "θ": 262,
      "ι": 263,
      "κ": 264,
      "λ": 265,
      "μ": 266,
      "ν": 267,
      "ξ": 268,
      "ο": 269,
      "π": 270,
      "ρ": 271,
      "ς": 272,
      "σ": 273,
      "τ": 274,
      "υ": 275,
      "χ": 276,
      "ψ": 277,
      "ω": 278,
      "ό": 279,
      "ύ": 280,
      "ώ": 281,
      "А": 282,
      "Б": 283,
      "В": 284,
      "Г": 285,
      "К": 286,
      "П": 287,
      "Р": 288,
      "С": 289,
      "У": 290,
      "Х": 291,
      "Я": 292,
      "а": 293,
      "в": 294,
      "г": 295,
      "д": 296,
      "е": 297,
      "ж": 298,
      "з": 299,
      "и": 300,
      "й": 301,
      "к": 302,
      "л": 303,
      "м": 304,
      "н": 305,
      "о": 306,
      "п": 307,
      "р": 308,
      "с": 309,
      "т": 310,
      "у": 311,
      "х": 312,
      "ц": 313,
      "ш": 314,
      "ъ": 315,
      "ы": 316,
      "ь": 317,
      "ю": 318,
      "я": 319,
      "є": 320,
      "ֵ": 321,
      "ֶ": 322,
      "ָ": 323,
      "ֹ": 324,
      "ּ": 325,
      "א": 326,
      "ב": 327,
      "ג": 328,
      "ה": 329,
      "ו": 330,
      "ז": 331,
      "ח": 332,
      "י": 333,
      "ל": 334,
      "ם": 335,
      "מ": 336,
      "ן": 337,
      "נ": 338,
      "ס": 339,
      "ף": 340,
      "פ": 341,
      "צ": 342,
      "ר": 343,
      "ש": 344,
      "ת": 345,
      "ء": 346,
      "أ": 347,
      "إ": 348,
      "ا": 349,
      "ب": 350,
      "ة": 351,
      "ت": 352,
      "ث": 353,
      "ج": 354,
      "ح": 355,
      "خ": 356,
      "د": 357,
      "ذ": 358,
      "ر": 359,
      "س": 360,
      "ش": 361,
      "ص": 362,
      "ع": 363,
      "ف": 364,
      "ق": 365,
      "ك": 366,
      "ل": 367,
      "م": 368,
      "ن": 369,
      "ه": 370,
      "و": 371,
      "ي": 372,
      "ܐ": 373,
      "ܕ": 374,
      "ܗ": 375,
      "ܝ": 376,
      "ܠ": 377,
      "ܢ": 378,
      "ܬ": 379,
      "ܲ": 380,
      "ܵ": 381,
      "ं": 382,
      "अ": 383,
      "ई": 384,
      "क": 385,
      "ग": 386,
      "ण": 387,
      "त": 388,
      "द": 389,
      "न": 390,
      "प": 391,
      "ब": 392,
      "म": 393,
      "य": 394,
      "र": 395,
      "ल": 396,
      "व": 397,
      "स": 398,
      "ह": 399,
      "ा": 400,
      "ि": 401,
      "ु": 402,
      "ू": 403,
      "े": 404,
      "ै": 405,
      "्": 406,
      "আ": 407,
      "ল": 408,
      "হ": 409,
      "া": 410,
      "্": 411,
      "ਅ": 412,
      "ਲ": 413,
      "ਹ": 414,
      "ਾ": 415,
      "ੁ": 416,
      "ੱ": 417,
      "അ": 418,
      "ള": 419,
      "ഹ": 420,
      "ാ": 421,
      "്": 422,
      "ก": 423,
      "ค": 424,
      "ง": 425,
      "ช": 426,
      "ซ": 427,
      "ญ": 428,
      "ฐ": 429,
      "ณ": 430,
      "ด": 431,
      "ต": 432,
      "น": 433,
      "บ": 434,
      "ป": 435,
      "พ": 436,
      "ภ": 437,
      "ม": 438,
      "ย": 439,
      "ร": 440,
      "ล": 441,
      "ว": 442,
      "ศ": 443,
      "ษ": 444,
      "ส": 445,
      "ห": 446,
      "อ": 447,
      "ฮ": 448,
      "ะ": 449,
      "ั": 450,
      "า": 451,
      "ิ": 452,
      "ี": 453,
      "ึ": 454,
      "เ": 455,
      "แ": 456,
      "ไ": 457,
      "็": 458,
      "่": 459,
      "้": 460,
      "๊": 461,
      "์": 462,
      "Ⴀ": 463,
      "Ⴂ": 464,
      "Ⴃ": 465,
      "Ⴈ": 466,
      "Ⴌ": 467,
      "Ⴕ": 468,
      "Ⴟ": 469,
      "ა": 470,
      "ბ": 471,
      "გ": 472,
      "დ": 473,
      "ე": 474,
      "ვ": 475,
      "ზ": 476,
      "თ": 477,
      "ი": 478,
      "კ": 479,
      "ლ": 480,
      "მ": 481,
      "ნ": 482,
      "ო": 483,
      "პ": 484,
      "ჟ": 485,
      "რ": 486,
      "ს": 487,
      "ტ": 488,
      "უ": 489,
      "ფ": 490,
      "ქ": 491,
      "ღ": 492,
      "ყ": 493,
      "შ": 494,
      "ჩ": 495,
      "ც": 496,
      "ძ": 497,
      "წ": 498,
      "ჭ": 499,
      "ხ": 500,
      "ჯ": 501,
      "ჰ": 502,
      "ჱ": 503,
      "ჲ": 504,
      "ჳ": 505,
      "ჴ": 506,
      "ჵ": 507,
      "ჶ": 508,
      "ჷ": 509,
      "ჸ": 510,
      "ჹ": 511,
      "ჺ": 512,
      "჻": 513,
      "ᵻ": 514,
      "ḍ": 515,
      "ḏ": 516,
      "Ḥ": 517,
      "ḥ": 518,
      "ḷ": 519,
      "ṃ": 520,
      "ṅ": 521,
      "ṇ": 522,
      "ṛ": 523,
      "ṣ": 524,
      "ṭ": 525,
      "ṯ": 526,
      "ạ": 527,
      "ả": 528,
      "ấ": 529,
      "ầ": 530,
      "ậ": 531,
      "ắ": 532,
      "ễ": 533,
      "ệ": 534,
      "ị": 535,
      "ọ": 536,
      "ỏ": 537,
      "ỗ": 538,
      "ộ": 539,
      "ớ": 540,
      "ứ": 541,
      "ử": 542,
      "ữ": 543,
      "ỳ": 544,
      "ỹ": 545,
      "ἀ": 546,
      "ἰ": 547,
      "ὀ": 548,
      "ὁ": 549,
      "ὑ": 550,
      "​": 551,
      "‐": 552,
      "‑": 553,
      "–": 554,
      "—": 555,
      "―": 556,
      "‘": 557,
      "’": 558,
      "“": 559,
      "”": 560,
      "„": 561,
      "†": 562,
      "‡": 563,
      "•": 564,
      "…": 565,
      "′": 566,
      "″": 567,
      "⁄": 568,
      "₣": 569,
      "₤": 570,
      "€": 571,
      "₹": 572,
      "⅓": 573,
      "⅔": 574,
      "→": 575,
      "−": 576,
      "≡": 577,
      "≤": 578,
      "①": 579,
      "☉": 580,
      "☫": 581,
      "♀": 582,
      "♭": 583,
      "♯": 584,
      "⚳": 585,
      "〈": 586,
      "〉": 587,
      "〜": 588,
      "あ": 589,
      "い": 590,
      "う": 591,
      "お": 592,
      "か": 593,
      "が": 594,
      "き": 595,
      "ぎ": 596,
      "く": 597,
      "ぐ": 598,
      "け": 599,
      "こ": 600,
      "ご": 601,
      "さ": 602,
      "し": 603,
      "す": 604,
      "ず": 605,
      "ぜ": 606,
      "た": 607,
      "だ": 608,
      "ち": 609,
      "っ": 610,
      "つ": 611,
      "と": 612,
      "な": 613,
      "に": 614,
      "の": 615,
      "は": 616,
      "ば": 617,
      "ひ": 618,
      "ふ": 619,
      "ほ": 620,
      "ま": 621,
      "み": 622,
      "め": 623,
      "も": 624,
      "ゃ": 625,
      "ゆ": 626,
      "ょ": 627,
      "ら": 628,
      "り": 629,
      "る": 630,
      "れ": 631,
      "わ": 632,
      "を": 633,
      "ん": 634,
      "ァ": 635,
      "ア": 636,
      "ィ": 637,
      "イ": 638,
      "ゥ": 639,
      "ェ": 640,
      "エ": 641,
      "ォ": 642,
      "オ": 643,
      "カ": 644,
      "ガ": 645,
      "キ": 646,
      "ク": 647,
      "グ": 648,
      "ゲ": 649,
      "コ": 650,
      "サ": 651,
      "シ": 652,
      "ジ": 653,
      "ス": 654,
      "ズ": 655,
      "セ": 656,
      "タ": 657,
      "ダ": 658,
      "チ": 659,
      "ッ": 660,
      "ツ": 661,
      "テ": 662,
      "デ": 663,
      "ト": 664,
      "ド": 665,
      "ナ": 666,
      "ニ": 667,
      "ネ": 668,
      "ノ": 669,
      "ハ": 670,
      "バ": 671,
      "パ": 672,
      "フ": 673,
      "ブ": 674,
      "プ": 675,
      "ヘ": 676,
      "ベ": 677,
      "マ": 678,
      "ミ": 679,
      "ム": 680,
      "モ": 681,
      "ャ": 682,
      "ュ": 683,
      "ョ": 684,
      "ラ": 685,
      "リ": 686,
      "ル": 687,
      "レ": 688,
      "ロ": 689,
      "ン": 690,
      "ヴ": 691,
      "・": 692,
      "ー": 693,
      "一": 694,
      "七": 695,
      "下": 696,
      "世": 697,
      "丙": 698,
      "中": 699,
      "主": 700,
      "乃": 701,
      "之": 702,
      "乙": 703,
      "九": 704,
      "二": 705,
      "云": 706,
      "人": 707,
      "今": 708,
      "付": 709,
      "作": 710,
      "侗": 711,
      "依": 712,
      "信": 713,
      "傳": 714,
      "儚": 715,
      "充": 716,
      "光": 717,
      "全": 718,
      "兵": 719,
      "其": 720,
      "具": 721,
      "円": 722,
      "再": 723,
      "出": 724,
      "判": 725,
      "前": 726,
      "剛": 727,
      "劇": 728,
      "劉": 729,
      "動": 730,
      "化": 731,
      "北": 732,
      "华": 733,
      "厂": 734,
      "去": 735,
      "古": 736,
      "可": 737,
      "台": 738,
      "史": 739,
      "同": 740,
      "名": 741,
      "君": 742,
      "吳": 743,
      "周": 744,
      "命": 745,
      "和": 746,
      "咲": 747,
      "善": 748,
      "四": 749,
      "國": 750,
      "園": 751,
      "圣": 752,
      "在": 753,
      "坂": 754,
      "堤": 755,
      "場": 756,
      "塘": 757,
      "夕": 758,
      "大": 759,
      "天": 760,
      "夫": 761,
      "女": 762,
      "妙": 763,
      "姚": 764,
      "子": 765,
      "孟": 766,
      "守": 767,
      "安": 768,
      "宋": 769,
      "完": 770,
      "宗": 771,
      "宝": 772,
      "宫": 773,
      "寝": 774,
      "寺": 775,
      "小": 776,
      "少": 777,
      "尾": 778,
      "山": 779,
      "岳": 780,
      "川": 781,
      "州": 782,
      "巳": 783,
      "市": 784,
      "師": 785,
      "平": 786,
      "广": 787,
      "庆": 788,
      "府": 789,
      "座": 790,
      "廬": 791,
      "建": 792,
      "式": 793,
      "張": 794,
      "彌": 795,
      "彩": 796,
      "彼": 797,
      "後": 798,
      "御": 799,
      "德": 800,
      "思": 801,
      "愛": 802,
      "憑": 803,
      "憶": 804,
      "應": 805,
      "懷": 806,
      "战": 807,
      "戦": 808,
      "扈": 809,
      "技": 810,
      "拉": 811,
      "拳": 812,
      "挑": 813,
      "揺": 814,
      "攻": 815,
      "放": 816,
      "政": 817,
      "散": 818,
      "斯": 819,
      "方": 820,
      "日": 821,
      "旦": 822,
      "旭": 823,
      "昌": 824,
      "明": 825,
      "星": 826,
      "春": 827,
      "晋": 828,
      "景": 829,
      "曦": 830,
      "月": 831,
      "望": 832,
      "未": 833,
      "本": 834,
      "李": 835,
      "村": 836,
      "杜": 837,
      "束": 838,
      "来": 839,
      "林": 840,
      "桜": 841,
      "梶": 842,
      "棘": 843,
      "椎": 844,
      "楊": 845,
      "楚": 846,
      "榮": 847,
      "橘": 848,
      "機": 849,
      "正": 850,
      "殻": 851,
      "殿": 852,
      "母": 853,
      "水": 854,
      "汉": 855,
      "沂": 856,
      "沙": 857,
      "河": 858,
      "泗": 859,
      "波": 860,
      "泣": 861,
      "洪": 862,
      "淹": 863,
      "清": 864,
      "湯": 865,
      "漢": 866,
      "澄": 867,
      "澤": 868,
      "火": 869,
      "灯": 870,
      "灵": 871,
      "灼": 872,
      "焼": 873,
      "熱": 874,
      "物": 875,
      "狐": 876,
      "狸": 877,
      "玄": 878,
      "王": 879,
      "玩": 880,
      "珂": 881,
      "珙": 882,
      "球": 883,
      "理": 884,
      "琦": 885,
      "琪": 886,
      "瓊": 887,
      "生": 888,
      "田": 889,
      "畢": 890,
      "番": 891,
      "瘡": 892,
      "白": 893,
      "皮": 894,
      "真": 895,
      "砲": 896,
      "礮": 897,
      "祈": 898,
      "神": 899,
      "祠": 900,
      "秋": 901,
      "空": 902,
      "立": 903,
      "精": 904,
      "約": 905,
      "絵": 906,
      "織": 907,
      "義": 908,
      "翠": 909,
      "者": 910,
      "耕": 911,
      "肖": 912,
      "胡": 913,
      "膀": 914,
      "臂": 915,
      "興": 916,
      "良": 917,
      "花": 918,
      "芳": 919,
      "芽": 920,
      "若": 921,
      "英": 922,
      "藕": 923,
      "藥": 924,
      "蘄": 925,
      "蘇": 926,
      "行": 927,
      "裁": 928,
      "規": 929,
      "覺": 930,
      "观": 931,
      "解": 932,
      "記": 933,
      "誓": 934,
      "誡": 935,
      "誰": 936,
      "謎": 937,
      "许": 938,
      "谭": 939,
      "豪": 940,
      "豫": 941,
      "費": 942,
      "贵": 943,
      "赤": 944,
      "趙": 945,
      "足": 946,
      "跡": 947,
      "転": 948,
      "辛": 949,
      "逆": 950,
      "遇": 951,
      "運": 952,
      "過": 953,
      "遠": 954,
      "選": 955,
      "邦": 956,
      "邱": 957,
      "部": 958,
      "郭": 959,
      "都": 960,
      "酈": 961,
      "里": 962,
      "野": 963,
      "金": 964,
      "銃": 965,
      "鋼": 966,
      "錄": 967,
      "錡": 968,
      "鍵": 969,
      "鐵": 970,
      "钱": 971,
      "铁": 972,
      "關": 973,
      "防": 974,
      "阿": 975,
      "陈": 976,
      "陳": 977,
      "陽": 978,
      "隊": 979,
      "階": 980,
      "集": 981,
      "雪": 982,
      "雲": 983,
      "霖": 984,
      "霹": 985,
      "靂": 986,
      "韓": 987,
      "願": 988,
      "顯": 989,
      "颜": 990,
      "马": 991,
      "高": 992,
      "龍": 993,
      "대": 994,
      "독": 995,
      "라": 996,
      "립": 997,
      "병": 998,
      "보": 999,
      "부": 1000,
      "알": 1001,
      "연": 1002,
      "제": 1003,
      "ﷲ": 1004,
      "ﻋ": 1005,
      "﻿": 1006,
      "／": 1007,
      "３": 1008,
      "～": 1009,
      "�": 1010,
      "l▁": 1011,
      "h▁": 1012,
      "d▁": 1013,
      "r▁": 1014,
      "p▁": 1015,
      "g▁": 1016,
      "y▁": 1017,
      "k▁": 1018,
      "s▁": 1019,
      "a▁": 1020,
      "6▁": 1021,
      "n▁": 1022,
      "A▁": 1023,
      "c▁": 1024,
      "i▁": 1025,
      "e▁": 1026,
      "5▁": 1027,
      "t▁": 1028,
      "ე▁": 1029,
      "9▁": 1030,
      "m▁": 1031,
      "o▁": 1032,
      "T▁": 1033,
      "S▁": 1034,
      "é▁": 1035,
      "w▁": 1036,
      "1▁": 1037,
      "f▁": 1038,
      "K▁": 1039,
      "8▁": 1040,
      "u▁": 1041,
      "た▁": 1042,
      "C▁": 1043,
      "0▁": 1044,
      "b▁": 1045,
      "O▁": 1046,
      "š▁": 1047,
      "z▁": 1048,
      "B▁": 1049,
      "x▁": 1050,
      "2▁": 1051,
      "4▁": 1052,
      "V▁": 1053,
      "I▁": 1054,
      "方▁": 1055,
      "棘▁": 1056,
      "ć▁": 1057,
      "v▁": 1058,
      "ყ▁": 1059,
      "L▁": 1060,
      "M▁": 1061,
      "E▁": 1062,
      "U▁": 1063,
      "F▁": 1064,
      "3▁": 1065,
      "集▁": 1066,
      "þ▁": 1067,
      "♀▁": 1068,
      "X▁": 1069,
      "ჸ▁": 1070,
      "7▁": 1071,
      "ه▁": 1072,
      "遇▁": 1073,
      "沙▁": 1074,
      "W▁": 1075,
      "宫▁": 1076,
      "ტ▁": 1077,
      "P▁": 1078,
      "ṯ▁": 1079,
      "J▁": 1080,
      "è▁": 1081,
      "ů▁": 1082,
      "者▁": 1083,
      "R▁": 1084,
      "̯▁": 1085,
      "N▁": 1086,
      "ø▁": 1087,
      "ة▁": 1088,
      "ι▁": 1089,
      "チ▁": 1090,
      "ה▁": 1091,
      "ი▁": 1092,
      "G▁": 1093,
      "漢▁": 1094,
      "H▁": 1095,
      "ย▁": 1096,
      ".▁": 1097,
      "ς▁": 1098,
      "Y▁": 1099,
      "θ▁": 1100,
      "მ▁": 1101,
      "q▁": 1102,
      "ฮ▁": 1103,
      "Z▁": 1104,
      "ੁ▁": 1105,
      "j▁": 1106,
      "í▁": 1107,
      "イ▁": 1108,
      "ー▁": 1109,
      "ā▁": 1110,
      "ə▁": 1111,
      "ł▁": 1112,
      "ള▁": 1113,
      "à▁": 1114,
      "ö▁": 1115,
      "D▁": 1116,
      "ʿ▁": 1117,
      "侗▁": 1118,
      "я▁": 1119,
      "ს▁": 1120,
      "ვ▁": 1121,
      "膀▁": 1122,
      "う▁": 1123,
      "厂▁": 1124,
      "鍵▁": 1125,
      "ძ▁": 1126,
      "ル▁": 1127,
      "ē▁": 1128,
      "ộ▁": 1129,
      "ú▁": 1130,
      "ี▁": 1131,
      "政▁": 1132,
      "充▁": 1133,
      "ि▁": 1134,
      "ō▁": 1135,
      "り▁": 1136,
      "ı▁": 1137,
      "女▁": 1138,
      "ê▁": 1139,
      "Ⴂ▁": 1140,
      "ɑ▁": 1141,
      "化▁": 1142,
      "村▁": 1143,
      "州▁": 1144,
      "澤▁": 1145,
      "同▁": 1146,
      "と▁": 1147,
      "子▁": 1148,
      "プ▁": 1149,
      "殿▁": 1150,
      "á▁": 1151,
      "ū▁": 1152,
      "”▁": 1153,
      "っ▁": 1154,
      "球▁": 1155,
      "͍▁": 1156,
      "Q▁": 1157,
      "战▁": 1158,
      "а▁": 1159,
      "ν▁": 1160,
      "≡▁": 1161,
      "Ⴟ▁": 1162,
      "珙▁": 1163,
      "შ▁": 1164,
      "$▁": 1165,
      "祠▁": 1166,
      "_▁": 1167,
      "明▁": 1168,
      "ن▁": 1169,
      "ま▁": 1170,
      "ư▁": 1171,
      "琪▁": 1172,
      "ɐ▁": 1173,
      "δ▁": 1174,
      "ﻋ▁": 1175,
      "ई▁": 1176,
      "ﷲ▁": 1177,
      "～▁": 1178,
      "ხ▁": 1179,
      "砲▁": 1180,
      "ô▁": 1181,
      "ạ▁": 1182,
      "د▁": 1183,
      "ჲ▁": 1184,
      "花▁": 1185,
      "出▁": 1186,
      "ɢ▁": 1187,
      "▁": 1188,
      "�▁": 1189,
      "ş▁": 1190,
      "„▁": 1191,
      "ń▁": 1192,
      "र▁": 1193,
      "و▁": 1194,
      "}▁": 1195,
      "?▁": 1196,
      "γ▁": 1197,
      "´▁": 1198,
      "ნ▁": 1199,
      "ó▁": 1200,
      "́▁": 1201,
      "س▁": 1202,
      "灯▁": 1203,
      "き▁": 1204,
      "์▁": 1205,
      "с▁": 1206,
      "名▁": 1207,
      "ह▁": 1208,
      "／▁": 1209,
      "珂▁": 1210,
      "ë▁": 1211,
      "♭▁": 1212,
      "ּ▁": 1213,
      "昌▁": 1214,
      "€▁": 1215,
      "ว▁": 1216,
      "(▁": 1217,
      "狐▁": 1218,
      "კ▁": 1219,
      "ン▁": 1220,
      "х▁": 1221,
      "ス▁": 1222,
      "ჰ▁": 1223,
      ";▁": 1224,
      "า▁": 1225,
      "覺▁": 1226,
      "ल▁": 1227,
      "英▁": 1228,
      "ア▁": 1229,
      "خ▁": 1230,
      "け▁": 1231,
      "'▁": 1232,
      "พ▁": 1233,
      "ร▁": 1234,
      "テ▁": 1235,
      "ニ▁": 1236,
      "ɪ▁": 1237,
      "贵▁": 1238,
      "א▁": 1239,
      "ף▁": 1240,
      "ر▁": 1241,
      "芳▁": 1242,
      "‡▁": 1243,
      "ฐ▁": 1244,
      "็▁": 1245,
      "ɫ▁": 1246,
      "라▁": 1247,
      "广▁": 1248,
      "ם▁": 1249,
      "ჭ▁": 1250,
      "ჴ▁": 1251,
      "ਹ▁": 1252,
      "न▁": 1253,
      "ð▁": 1254,
      "・▁": 1255,
      "ܐ▁": 1256,
      "й▁": 1257,
      "ネ▁": 1258,
      "め▁": 1259,
      "е▁": 1260,
      "Φ▁": 1261,
      "č▁": 1262,
      "%▁": 1263,
      "з▁": 1264,
      "ǎ▁": 1265,
      "師▁": 1266,
      "い▁": 1267,
      "瓊▁": 1268,
      "を▁": 1269,
      "ჩ▁": 1270,
      "銃▁": 1271,
      "ت▁": 1272,
      "ფ▁": 1273,
      "ึ▁": 1274,
      "技▁": 1275,
      "χ▁": 1276,
      "י▁": 1277,
      "്▁": 1278,
      "₹▁": 1279,
      "大▁": 1280,
      "°▁": 1281,
      "ã▁": 1282,
      "ิ▁": 1283,
      "û▁": 1284,
      "ュ▁": 1285,
      "Ø▁": 1286,
      "<▁": 1287,
      "ラ▁": 1288,
      "ː▁": 1289,
      ">▁": 1290,
      "望▁": 1291,
      "ỳ▁": 1292,
      "₣▁": 1293,
      "⅔▁": 1294,
      "作▁": 1295,
      "ś▁": 1296,
      "@▁": 1297,
      "ブ▁": 1298,
      "¡▁": 1299,
      "`▁": 1300,
      "規▁": 1301,
      "ǔ▁": 1302,
      "鋼▁": 1303,
      "→▁": 1304,
      "]▁": 1305,
      "ต▁": 1306,
      "ჱ▁": 1307,
      "本▁": 1308,
      "〈▁": 1309,
      "〜▁": 1310,
      "榮▁": 1311,
      "ξ▁": 1312,
      "Ⴈ▁": 1313,
      "ლ▁": 1314,
      "ī▁": 1315,
      "[▁": 1316,
      "†▁": 1317,
      "ო▁": 1318,
      "³▁": 1319,
      "º▁": 1320,
      "礮▁": 1321,
      "全▁": 1322,
      "л▁": 1323,
      "傳▁": 1324,
      "山▁": 1325,
      "‘▁": 1326,
      "霖▁": 1327,
      "ʔ▁": 1328,
      "ჺ▁": 1329,
      "ഹ▁": 1330,
      "拉▁": 1331,
      "ب▁": 1332,
      "α▁": 1333,
      "ჷ▁": 1334,
      "/▁": 1335,
      "ɡ▁": 1336,
      "ơ▁": 1337,
      "ჟ▁": 1338,
      "錄▁": 1339,
      "-▁": 1340,
      "ჳ▁": 1341,
      "３▁": 1342,
      "興▁": 1343,
      "ܬ▁": 1344,
      "ל▁": 1345,
      "ò▁": 1346,
      "ą▁": 1347,
      "彩▁": 1348,
      "旭▁": 1349,
      "ჵ▁": 1350,
      "ă▁": 1351,
      "園▁": 1352,
      "Ⴃ▁": 1353,
      "≤▁": 1354,
      "ん▁": 1355,
      "&▁": 1356,
      "ა▁": 1357,
      "台▁": 1358,
      "჻▁": 1359,
      "豪▁": 1360,
      "=▁": 1361,
      "ʕ▁": 1362,
      "堤▁": 1363,
      "হ▁": 1364,
      "關▁": 1365,
      "±▁": 1366,
      "Ó▁": 1367,
      "ḥ▁": 1368,
      "月▁": 1369,
      "â▁": 1370,
      "½▁": 1371,
      "ß▁": 1372,
      "•▁": 1373,
      "♯▁": 1374,
      "क▁": 1375,
      "‐▁": 1376,
      "É▁": 1377,
      "ỗ▁": 1378,
      "Å▁": 1379,
      "ʻ▁": 1380,
      "遠▁": 1381,
      "Ⴀ▁": 1382,
      "ল▁": 1383,
      "に▁": 1384,
      "β▁": 1385,
      "“▁": 1386,
      "顯▁": 1387,
      "ź▁": 1388,
      "观▁": 1389,
      "⁄▁": 1390,
      "ツ▁": 1391,
      "剛▁": 1392,
      "田▁": 1393,
      "河▁": 1394,
      "|▁": 1395,
      "ド▁": 1396,
      "市▁": 1397,
      "ง▁": 1398,
      "ω▁": 1399,
      "ä▁": 1400,
      "ू▁": 1401,
      "ღ▁": 1402,
      "æ▁": 1403,
      "〉▁": 1404,
      "錡▁": 1405,
      "Ω▁": 1406,
      "ก▁": 1407,
      "+▁": 1408,
      "*▁": 1409,
      "ჹ▁": 1410,
      "☫▁": 1411,
      "キ▁": 1412,
      "г▁": 1413,
      "ا▁": 1414,
      "๊▁": 1415,
      "대▁": 1416,
      "曦▁": 1417,
      "ỹ▁": 1418,
      "″▁": 1419,
      "§▁": 1420,
      "ქ▁": 1421,
      "世▁": 1422,
      "თ▁": 1423,
      "清▁": 1424,
      "ग▁": 1425,
      "ბ▁": 1426,
      "ح▁": 1427,
      "在▁": 1428,
      "旦▁": 1429,
      "—▁": 1430,
      "れ▁": 1431,
      "ั▁": 1432,
      "判▁": 1433,
      "豫▁": 1434,
      "川▁": 1435,
      "#▁": 1436,
      "უ▁": 1437,
      "¢▁": 1438,
      "瘡▁": 1439,
      "⚳▁": 1440,
      "ɛ▁": 1441,
      "^▁": 1442,
      "წ▁": 1443,
      "①▁": 1444,
      "Ⴌ▁": 1445,
      "‑▁": 1446,
      "ù▁": 1447,
      "р▁": 1448,
      "′▁": 1449,
      "ύ▁": 1450,
      "中▁": 1451,
      "о▁": 1452,
      ",▁": 1453,
      "み▁": 1454,
      "物▁": 1455,
      "\\▁": 1456,
      "橘▁": 1457,
      "ן▁": 1458,
      "春▁": 1459,
      "\"▁": 1460,
      "​▁": 1461,
      "द▁": 1462,
      "น▁": 1463,
      "塘▁": 1464,
      "生▁": 1465,
      "人▁": 1466,
      "̍▁": 1467,
      "่▁": 1468,
      "Ⴕ▁": 1469,
      "寺▁": 1470,
      ")▁": 1471,
      "̥▁": 1472,
      "二▁": 1473,
      "雪▁": 1474,
      "ც▁": 1475,
      "る▁": 1476,
      "▁": 1477,
      "乃▁": 1478,
      "精▁": 1479,
      "シ▁": 1480,
      "ซ▁": 1481,
      "ỏ▁": 1482,
      "¥▁": 1483,
      "्▁": 1484,
      "ズ▁": 1485,
      "ご▁": 1486,
      "·▁": 1487,
      "დ▁": 1488,
      "ण▁": 1489,
      "汉▁": 1490,
      "安▁": 1491,
      "愛▁": 1492,
      "主▁": 1493,
      "⅓▁": 1494,
      "’▁": 1495,
      "ら▁": 1496,
      "フ▁": 1497,
      "ナ▁": 1498,
      "里▁": 1499,
      "~▁": 1500,
      "部▁": 1501,
      "რ▁": 1502,
      "²▁": 1503,
      "跡▁": 1504,
      "費▁": 1505,
      "্▁": 1506,
      "隊▁": 1507,
      "̃▁": 1508,
      "ė▁": 1509,
      "懷▁": 1510,
      "–▁": 1511,
      "პ▁": 1512,
      "ء▁": 1513,
      "₤▁": 1514,
      "华▁": 1515,
      "स▁": 1516,
      "選▁": 1517,
      "信▁": 1518,
      "ị▁": 1519,
      "雲▁": 1520,
      "£▁": 1521,
      "空▁": 1522,
      "¿▁": 1523,
      "ჯ▁": 1524,
      "გ▁": 1525,
      "―▁": 1526,
      "絵▁": 1527,
      ":▁": 1528,
      "誡▁": 1529,
      "府▁": 1530,
      "μ▁": 1531,
      "ɔ▁": 1532,
      "琦▁": 1533,
      "☉▁": 1534,
      "…▁": 1535,
      "ჶ▁": 1536,
      "義▁": 1537,
      "้▁": 1538,
      "−▁": 1539,
      "﻿▁": 1540,
      "場▁": 1541,
      "平▁": 1542,
      "ų▁": 1543,
      "×▁": 1544,
      "梶▁": 1545,
      "ზ▁": 1546,
      "丙▁": 1547,
      "Χ▁": 1548,
      "!▁": 1549,
      "ὁ▁": 1550,
      "th": 1551,
      "the▁": 1552,
      "in": 1553,
      "an": 1554,
      "ed▁": 1555,
      "er": 1556,
      "re": 1557,
      "ar": 1558,
      "ti": 1559,
      "on": 1560,
      "of▁": 1561,
      "and▁": 1562,
      "or": 1563,
      "en": 1564,
      "er▁": 1565,
      "on▁": 1566,
      "in▁": 1567,
      "ing▁": 1568,
      "ou": 1569,
      "it": 1570,
      "al": 1571,
      "to▁": 1572,
      "as▁": 1573,
      "st": 1574,
      "es▁": 1575,
      "at": 1576,
      "ro": 1577,
      "hi": 1578,
      "ac": 1579,
      "al▁": 1580,
      "he▁": 1581,
      "si": 1582,
      "at▁": 1583,
      "an▁": 1584,
      "el": 1585,
      "ri": 1586,
      "or▁": 1587,
      "st▁": 1588,
      "ur": 1589,
      "ec": 1590,
      "om": 1591,
      "am": 1592,
      "li": 1593,
      "was▁": 1594,
      "ly▁": 1595,
      "en▁": 1596,
      "di": 1597,
      "ea": 1598,
      "tion▁": 1599,
      "il": 1600,
      "The▁": 1601,
      "ol": 1602,
      "-@▁": 1603,
      "@-@▁": 1604,
      "is▁": 1605,
      "ic": 1606,
      "la": 1607,
      "ha": 1608,
      "de": 1609,
      "ra": 1610,
      "le▁": 1611,
      "un": 1612,
      "em": 1613,
      "that▁": 1614,
      "ow": 1615,
      "ith▁": 1616,
      "ve▁": 1617,
      "is": 1618,
      "es": 1619,
      "for▁": 1620,
      "be": 1621,
      "by▁": 1622,
      "ch▁": 1623,
      "with▁": 1624,
      "ir": 1625,
      "ent": 1626,
      "con": 1627,
      "ent▁": 1628,
      "ch": 1629,
      "su": 1630,
      "ag": 1631,
      "ere▁": 1632,
      "ev": 1633,
      "th▁": 1634,
      "ce▁": 1635,
      "as": 1636,
      "ers▁": 1637,
      "19": 1638,
      "lo": 1639,
      "ad": 1640,
      "po": 1641,
      "pro": 1642,
      "oun": 1643,
      "his▁": 1644,
      "the": 1645,
      "bu": 1646,
      "vi": 1647,
      "com": 1648,
      "et": 1649,
      "for": 1650,
      "wh": 1651,
      "rom▁": 1652,
      "gh": 1653,
      "sp": 1654,
      "us": 1655,
      "tion": 1656,
      "from▁": 1657,
      "ov": 1658,
      "op": 1659,
      "ted▁": 1660,
      "ab": 1661,
      "it▁": 1662,
      "ex": 1663,
      "ation▁": 1664,
      "ap": 1665,
      "20": 1666,
      "no": 1667,
      "ts▁": 1668,
      "whi": 1669,
      "sh": 1670,
      "ay▁": 1671,
      "were▁": 1672,
      "ter▁": 1673,
      "ds▁": 1674,
      "ul": 1675,
      "ear": 1676,
      "ther▁": 1677,
      "im": 1678,
      "oo": 1679,
      "se▁": 1680,
      "ter": 1681,
      "rec": 1682,
      "ate▁": 1683,
      "le": 1684,
      "ated▁": 1685,
      "sc": 1686,
      "ding▁": 1687,
      "ity▁": 1688,
      "ru": 1689,
      "lu": 1690,
      "qu": 1691,
      "de▁": 1692,
      "ded▁": 1693,
      "pre": 1694,
      "mo": 1695,
      "ame▁": 1696,
      "per": 1697,
      "du": 1698,
      "ing": 1699,
      "ma": 1700,
      "ir▁": 1701,
      "ep": 1702,
      "ff": 1703,
      "are▁": 1704,
      "ta": 1705,
      "tw": 1706,
      "ld▁": 1707,
      "had▁": 1708,
      "all▁": 1709,
      "which▁": 1710,
      "In▁": 1711,
      "one▁": 1712,
      "gu": 1713,
      "et▁": 1714,
      "oc": 1715,
      "pl": 1716,
      "be▁": 1717,
      "ong▁": 1718,
      "ran": 1719,
      "ally▁": 1720,
      "um": 1721,
      "tions▁": 1722,
      "out▁": 1723,
      "inc": 1724,
      "so▁": 1725,
      "ver": 1726,
      "fir": 1727,
      "gh▁": 1728,
      "ne": 1729,
      "ber▁": 1730,
      "par": 1731,
      "fi": 1732,
      "tim": 1733,
      "man": 1734,
      "its▁": 1735,
      "ar▁": 1736,
      "ge▁": 1737,
      "por": 1738,
      "ine▁": 1739,
      "ght▁": 1740,
      "St": 1741,
      "lea": 1742,
      "der": 1743,
      "ies▁": 1744,
      "est": 1745,
      "wor": 1746,
      "ary▁": 1747,
      "sion▁": 1748,
      "son▁": 1749,
      "ke▁": 1750,
      "att": 1751,
      "bo": 1752,
      "se": 1753,
      "but▁": 1754,
      "rou": 1755,
      "Ch": 1756,
      "tic": 1757,
      "200": 1758,
      "ser": 1759,
      "own▁": 1760,
      "tur": 1761,
      "their▁": 1762,
      "Th": 1763,
      "ca": 1764,
      "not▁": 1765,
      "est▁": 1766,
      "first▁": 1767,
      "og": 1768,
      "der▁": 1769,
      "pla": 1770,
      "pu": 1771,
      "fter▁": 1772,
      "sed▁": 1773,
      "ore▁": 1774,
      "her▁": 1775,
      "sa": 1776,
      "ould▁": 1777,
      "also▁": 1778,
      "ni": 1779,
      "led▁": 1780,
      "ali": 1781,
      "ard▁": 1782,
      "cont": 1783,
      "ound▁": 1784,
      "el▁": 1785,
      "00▁": 1786,
      "our": 1787,
      "have▁": 1788,
      "ack▁": 1789,
      "age▁": 1790,
      "ents▁": 1791,
      "fe": 1792,
      "has▁": 1793,
      "ome▁": 1794,
      "ks▁": 1795,
      "id": 1796,
      "stor": 1797,
      "ting▁": 1798,
      "ence▁": 1799,
      "been▁": 1800,
      "gi": 1801,
      "us▁": 1802,
      "two▁": 1803,
      "ment▁": 1804,
      "shi": 1805,
      ".@▁": 1806,
      "@.@▁": 1807,
      "duc": 1808,
      "to": 1809,
      "ess▁": 1810,
      "other▁": 1811,
      "land▁": 1812,
      "low": 1813,
      "bec": 1814,
      "ved▁": 1815,
      "this▁": 1816,
      "ater▁": 1817,
      "ous▁": 1818,
      "ear▁": 1819,
      "sh▁": 1820,
      "ig": 1821,
      "tr": 1822,
      "uring▁": 1823,
      "In": 1824,
      "ely▁": 1825,
      "who▁": 1826,
      "sec": 1827,
      "te▁": 1828,
      "they▁": 1829,
      "201": 1830,
      "mil": 1831,
      "over": 1832,
      "pres": 1833,
      "Al": 1834,
      "tive▁": 1835,
      "ons▁": 1836,
      "fin": 1837,
      "ite▁": 1838,
      "ric": 1839,
      "king▁": 1840,
      "pe": 1841,
      "ei": 1842,
      "comm": 1843,
      "He▁": 1844,
      "form": 1845,
      "ren": 1846,
      "18": 1847,
      "res▁": 1848,
      "co": 1849,
      "inclu": 1850,
      "our▁": 1851,
      "id▁": 1852,
      ",@▁": 1853,
      "@,@▁": 1854,
      "ell▁": 1855,
      "ned▁": 1856,
      "ant▁": 1857,
      "time▁": 1858,
      "rit": 1859,
      "ho": 1860,
      "after▁": 1861,
      "pa": 1862,
      "wi": 1863,
      "min": 1864,
      "ree▁": 1865,
      "tra": 1866,
      "str": 1867,
      "ss▁": 1868,
      "sig": 1869,
      "tional▁": 1870,
      "pri": 1871,
      "au": 1872,
      "me": 1873,
      "over▁": 1874,
      "ade▁": 1875,
      "It▁": 1876,
      "able▁": 1877,
      "mu": 1878,
      "Mar": 1879,
      "ember▁": 1880,
      "lan": 1881,
      "ci": 1882,
      "into▁": 1883,
      "ic▁": 1884,
      "een▁": 1885,
      "more▁": 1886,
      "spec": 1887,
      "ed": 1888,
      "ay": 1889,
      "ked▁": 1890,
      "tic▁": 1891,
      "ty▁": 1892,
      "thou": 1893,
      "ese▁": 1894,
      "ure▁": 1895,
      "cent": 1896,
      "na": 1897,
      "als▁": 1898,
      "Ro": 1899,
      "play": 1900,
      "ever▁": 1901,
      "re▁": 1902,
      "would▁": 1903,
      "up▁": 1904,
      "ace▁": 1905,
      "way▁": 1906,
      "used▁": 1907,
      "An": 1908,
      "ited▁": 1909,
      "use▁": 1910,
      "char": 1911,
      "man▁": 1912,
      "ten": 1913,
      "ings▁": 1914,
      "ey▁": 1915,
      "eral▁": 1916,
      "aga": 1917,
      "les▁": 1918,
      "inter": 1919,
      "ft▁": 1920,
      "ance▁": 1921,
      "lar": 1922,
      "mar": 1923,
      "tu": 1924,
      "most▁": 1925,
      "ach": 1926,
      "ins▁": 1927,
      "ates▁": 1928,
      "Au": 1929,
      "ern▁": 1930,
      "ined▁": 1931,
      "ces▁": 1932,
      "go": 1933,
      "do": 1934,
      "off": 1935,
      "ew": 1936,
      "pan": 1937,
      "sea": 1938,
      "fil": 1939,
      "ew▁": 1940,
      "mer": 1941,
      "stru": 1942,
      "dec": 1943,
      "bli": 1944,
      "ning▁": 1945,
      "only▁": 1946,
      "ties▁": 1947,
      "ess": 1948,
      "are": 1949,
      "av": 1950,
      "when▁": 1951,
      "mon": 1952,
      "ical▁": 1953,
      "gen": 1954,
      "pp": 1955,
      "during▁": 1956,
      "En": 1957,
      "she▁": 1958,
      "col": 1959,
      "ong": 1960,
      "ans▁": 1961,
      "ps▁": 1962,
      "cre": 1963,
      "than▁": 1964,
      "sti": 1965,
      "app": 1966,
      "ss": 1967,
      "loc": 1968,
      "sev": 1969,
      "kn": 1970,
      "ial▁": 1971,
      "Ar": 1972,
      "um▁": 1973,
      "ations▁": 1974,
      "pi": 1975,
      "sel": 1976,
      "ach▁": 1977,
      "Bri": 1978,
      "Jo": 1979,
      "him▁": 1980,
      "game▁": 1981,
      "about▁": 1982,
      "te": 1983,
      "199": 1984,
      "ond▁": 1985,
      "old▁": 1986,
      "ad▁": 1987,
      "ari": 1988,
      "cc": 1989,
      "ving▁": 1990,
      "while▁": 1991,
      "three▁": 1992,
      "end▁": 1993,
      "ears▁": 1994,
      "Com": 1995,
      "ship▁": 1996,
      "sy": 1997,
      "fu": 1998,
      "ass": 1999,
      "Un": 2000,
      "gra": 2001,
      "betw": 2002,
      "between▁": 2003,
      "tor": 2004,
      "recor": 2005,
      "fol": 2006,
      "hea": 2007,
      "of": 2008,
      "throu": 2009,
      "ber": 2010,
      "ble▁": 2011,
      "though▁": 2012,
      "num": 2013,
      "ang": 2014,
      "star": 2015,
      "ating▁": 2016,
      "ee": 2017,
      "struc": 2018,
      "fore▁": 2019,
      "gre": 2020,
      "scri": 2021,
      "ice▁": 2022,
      "coun": 2023,
      "ves▁": 2024,
      "ook▁": 2025,
      "Li": 2026,
      "later▁": 2027,
      "season▁": 2028,
      "ling▁": 2029,
      "writ": 2030,
      "nor": 2031,
      "beg": 2032,
      "cla": 2033,
      "ls▁": 2034,
      "outh▁": 2035,
      "made▁": 2036,
      "ph": 2037,
      "olog": 2038,
      "where▁": 2039,
      "emp": 2040,
      "row": 2041,
      "produc": 2042,
      "fa": 2043,
      "vel": 2044,
      "day▁": 2045,
      "new▁": 2046,
      "ury▁": 2047,
      "ten▁": 2048,
      "hel": 2049,
      "sub": 2050,
      "meric": 2051,
      "sur": 2052,
      "Americ": 2053,
      "ement▁": 2054,
      "relea": 2055,
      "cal": 2056,
      "ill▁": 2057,
      "eg": 2058,
      "red▁": 2059,
      "and": 2060,
      "Par": 2061,
      "tro": 2062,
      "bi": 2063,
      "ist": 2064,
      "ver▁": 2065,
      "000▁": 2066,
      "rac": 2067,
      "ames▁": 2068,
      "ry▁": 2069,
      "them▁": 2070,
      "Wh": 2071,
      "such▁": 2072,
      "ards▁": 2073,
      "publi": 2074,
      "ud": 2075,
      "year▁": 2076,
      "eb": 2077,
      "some▁": 2078,
      "cri": 2079,
      "ob": 2080,
      "with": 2081,
      "enti": 2082,
      "buil": 2083,
      "This▁": 2084,
      "sm": 2085,
      "am▁": 2086,
      "ssi": 2087,
      "can▁": 2088,
      "ann": 2089,
      "tri": 2090,
      "On▁": 2091,
      "fe▁": 2092,
      "ture▁": 2093,
      "albu": 2094,
      "song▁": 2095,
      "ood▁": 2096,
      "side▁": 2097,
      "before▁": 2098,
      "bas": 2099,
      "aw": 2100,
      "ect▁": 2101,
      "being▁": 2102,
      "lar▁": 2103,
      "ste": 2104,
      "Eng": 2105,
      "well▁": 2106,
      "mi": 2107,
      "years▁": 2108,
      "yp": 2109,
      "follow": 2110,
      "dre": 2111,
      "owever▁": 2112,
      "fic": 2113,
      "ton▁": 2114,
      "gr": 2115,
      "Nor": 2116,
      "ected▁": 2117,
      "early▁": 2118,
      "mov": 2119,
      "work▁": 2120,
      "many▁": 2121,
      "ying▁": 2122,
      "known▁": 2123,
      "ga": 2124,
      "od▁": 2125,
      "cap": 2126,
      "mat": 2127,
      "line▁": 2128,
      "bel": 2129,
      "low▁": 2130,
      "poin": 2131,
      "chi": 2132,
      "tly▁": 2133,
      "part▁": 2134,
      "series▁": 2135,
      "iso": 2136,
      "ms▁": 2137,
      "sic▁": 2138,
      "album▁": 2139,
      "then▁": 2140,
      "story▁": 2141,
      "ort▁": 2142,
      "ced▁": 2143,
      "through▁": 2144,
      "second▁": 2145,
      "des▁": 2146,
      "consi": 2147,
      "posi": 2148,
      "iz": 2149,
      "tran": 2150,
      "acc": 2151,
      "Con": 2152,
      "fac": 2153,
      "ters▁": 2154,
      "shed▁": 2155,
      "both▁": 2156,
      "Mo": 2157,
      "ince▁": 2158,
      "ia▁": 2159,
      "mp": 2160,
      "end": 2161,
      "Ju": 2162,
      "direc": 2163,
      "no▁": 2164,
      "inst▁": 2165,
      "ale▁": 2166,
      "including▁": 2167,
      "Car": 2168,
      "New▁": 2169,
      "fer": 2170,
      "lin": 2171,
      "film▁": 2172,
      "against▁": 2173,
      "number▁": 2174,
      "cu": 2175,
      "became▁": 2176,
      "episo": 2177,
      "ors▁": 2178,
      "port▁": 2179,
      "charac": 2180,
      "dic": 2181,
      "nam": 2182,
      "my▁": 2183,
      "tiv": 2184,
      "Joh": 2185,
      "eng": 2186,
      "ak": 2187,
      "reas": 2188,
      "198": 2189,
      "inv": 2190,
      "sup": 2191,
      "Bo": 2192,
      "descri": 2193,
      "10▁": 2194,
      "there▁": 2195,
      "ack": 2196,
      "cer": 2197,
      "peri": 2198,
      "tor▁": 2199,
      "orig": 2200,
      "sing": 2201,
      "United▁": 2202,
      "devel": 2203,
      "tho": 2204,
      "ily▁": 2205,
      "sch": 2206,
      "clu": 2207,
      "sul": 2208,
      "dy▁": 2209,
      "ered▁": 2210,
      "succ": 2211,
      "cha": 2212,
      "ised▁": 2213,
      "century▁": 2214,
      "emb": 2215,
      "Ma": 2216,
      "contin": 2217,
      "ish": 2218,
      "four▁": 2219,
      "inf": 2220,
      "lion▁": 2221,
      "ler▁": 2222,
      "bor": 2223,
      "sk": 2224,
      "rema": 2225,
      "tish▁": 2226,
      "ays▁": 2227,
      "ery▁": 2228,
      "il▁": 2229,
      "sts▁": 2230,
      "ish▁": 2231,
      "tle▁": 2232,
      "arri": 2233,
      "ster▁": 2234,
      "under▁": 2235,
      "Ri": 2236,
      "diff": 2237,
      "several▁": 2238,
      "sho": 2239,
      "After▁": 2240,
      "ets▁": 2241,
      "air": 2242,
      "tre": 2243,
      "0s▁": 2244,
      "began▁": 2245,
      "dep": 2246,
      "ause▁": 2247,
      "like▁": 2248,
      "ll▁": 2249,
      "194": 2250,
      "197": 2251,
      "eam▁": 2252,
      "196": 2253,
      "sing▁": 2254,
      "develop": 2255,
      "ns▁": 2256,
      "bed▁": 2257,
      "Di": 2258,
      "Wor": 2259,
      "oper": 2260,
      "win": 2261,
      "ron": 2262,
      "origin": 2263,
      "mis": 2264,
      "ey": 2265,
      "ses▁": 2266,
      "jo": 2267,
      "ory▁": 2268,
      "tain▁": 2269,
      "any▁": 2270,
      "do▁": 2271,
      "ore": 2272,
      "ant": 2273,
      "serv": 2274,
      "called▁": 2275,
      "episode▁": 2276,
      "continu": 2277,
      "found▁": 2278,
      "ne▁": 2279,
      "As▁": 2280,
      "ley▁": 2281,
      "uni": 2282,
      "une▁": 2283,
      "Col": 2284,
      "high": 2285,
      "til▁": 2286,
      "gg": 2287,
      "comp": 2288,
      "ople▁": 2289,
      "back▁": 2290,
      "recei": 2291,
      "city▁": 2292,
      "Na": 2293,
      "now▁": 2294,
      "self▁": 2295,
      "Su": 2296,
      "ath▁": 2297,
      "Ger": 2298,
      "ful▁": 2299,
      "gue▁": 2300,
      "ef": 2301,
      "ining▁": 2302,
      "could▁": 2303,
      "said▁": 2304,
      "sol": 2305,
      "feat": 2306,
      "overn": 2307,
      "ot": 2308,
      "don▁": 2309,
      "poli": 2310,
      "American▁": 2311,
      "set▁": 2312,
      "these▁": 2313,
      "tical▁": 2314,
      "may▁": 2315,
      "oci": 2316,
      "clo": 2317,
      "eld▁": 2318,
      "each▁": 2319,
      "ane▁": 2320,
      "bl": 2321,
      "sted▁": 2322,
      "dis": 2323,
      "desig": 2324,
      "British▁": 2325,
      "until▁": 2326,
      "ju": 2327,
      "tel": 2328,
      "off▁": 2329,
      "released▁": 2330,
      "sive▁": 2331,
      "fam": 2332,
      "Hi": 2333,
      "om▁": 2334,
      "urch▁": 2335,
      "did▁": 2336,
      "ou▁": 2337,
      "same▁": 2338,
      "20▁": 2339,
      "ept": 2340,
      "dist": 2341,
      "dra": 2342,
      "30▁": 2343,
      "dered▁": 2344,
      "ini": 2345,
      "bro": 2346,
      "appear": 2347,
      "ward▁": 2348,
      "thern▁": 2349,
      "retur": 2350,
      "vers": 2351,
      "They▁": 2352,
      "Oc": 2353,
      "area▁": 2354,
      "ner▁": 2355,
      "me▁": 2356,
      "bri": 2357,
      "del": 2358,
      "formed▁": 2359,
      "ut": 2360,
      "disc": 2361,
      "because▁": 2362,
      "down▁": 2363,
      "ection▁": 2364,
      "under": 2365,
      "pany▁": 2366,
      "II▁": 2367,
      "ill": 2368,
      "Pro": 2369,
      "million▁": 2370,
      "eal": 2371,
      "Chri": 2372,
      "try▁": 2373,
      "50▁": 2374,
      "Augu": 2375,
      "offic": 2376,
      "sta": 2377,
      "cur": 2378,
      "people▁": 2379,
      "lation▁": 2380,
      "Is": 2381,
      "John▁": 2382,
      "tics▁": 2383,
      "Gu": 2384,
      "Wil": 2385,
      "cam": 2386,
      "life▁": 2387,
      "along▁": 2388,
      "compl": 2389,
      "sions▁": 2390,
      "adv": 2391,
      "She▁": 2392,
      "ly": 2393,
      "team▁": 2394,
      "Sh": 2395,
      "dition▁": 2396,
      "view": 2397,
      "grou": 2398,
      "lish▁": 2399,
      "Austr": 2400,
      "around▁": 2401,
      "ower▁": 2402,
      "vision▁": 2403,
      "plac": 2404,
      "However▁": 2405,
      "met": 2406,
      "ird▁": 2407,
      "vo": 2408,
      "ented▁": 2409,
      "popu": 2410,
      "form▁": 2411,
      "Can": 2412,
      "At▁": 2413,
      "sid": 2414,
      "Po": 2415,
      "Sept": 2416,
      "May▁": 2417,
      "long▁": 2418,
      "September▁": 2419,
      "uro": 2420,
      "August▁": 2421,
      "ales▁": 2422,
      "following▁": 2423,
      "org": 2424,
      "hou": 2425,
      "contro": 2426,
      "Mon": 2427,
      "Australi": 2428,
      "requ": 2429,
      "World▁": 2430,
      "bre": 2431,
      "dam": 2432,
      "loo": 2433,
      "Jan": 2434,
      "five▁": 2435,
      "sou": 2436,
      "wee": 2437,
      "music▁": 2438,
      "spon": 2439,
      "resul": 2440,
      "ai": 2441,
      "km▁": 2442,
      "national▁": 2443,
      "large▁": 2444,
      "out": 2445,
      "complet": 2446,
      "lic": 2447,
      "def": 2448,
      "what▁": 2449,
      "15▁": 2450,
      "ast▁": 2451,
      "ful": 2452,
      "very▁": 2453,
      "ast": 2454,
      "ip": 2455,
      "12▁": 2456,
      "port": 2457,
      "ral▁": 2458,
      "ous": 2459,
      "state▁": 2460,
      "els▁": 2461,
      "ens▁": 2462,
      "maj": 2463,
      "stem▁": 2464,
      "June▁": 2465,
      "Fran": 2466,
      "ened▁": 2467,
      "sion": 2468,
      "reg": 2469,
      "ording▁": 2470,
      "ther": 2471,
      "inten": 2472,
      "amp": 2473,
      "eff": 2474,
      "play▁": 2475,
      "ball▁": 2476,
      "vari": 2477,
      "ately▁": 2478,
      "sis▁": 2479,
      "16": 2480,
      "195": 2481,
      "fied▁": 2482,
      "name▁": 2483,
      "ord": 2484,
      "arm": 2485,
      "ext▁": 2486,
      "ys▁": 2487,
      "art▁": 2488,
      "since▁": 2489,
      "up": 2490,
      "States▁": 2491,
      "species▁": 2492,
      "ements▁": 2493,
      "final▁": 2494,
      "cul": 2495,
      "ool▁": 2496,
      "received▁": 2497,
      "hal": 2498,
      "govern": 2499,
      "uc": 2500,
      "ole▁": 2501,
      "took▁": 2502,
      "ead▁": 2503,
      "appro": 2504,
      "partic": 2505,
      "17": 2506,
      "batt": 2507,
      "fun": 2508,
      "east▁": 2509,
      "ork▁": 2510,
      "Her": 2511,
      "War▁": 2512,
      "ven▁": 2513,
      "ise▁": 2514,
      "exp": 2515,
      "described▁": 2516,
      "men▁": 2517,
      "per▁": 2518,
      "son": 2519,
      "will▁": 2520,
      "even▁": 2521,
      "ology▁": 2522,
      "tober▁": 2523,
      "played▁": 2524,
      "October▁": 2525,
      "Lo": 2526,
      "ist▁": 2527,
      "ross▁": 2528,
      "moved▁": 2529,
      "high▁": 2530,
      "larg": 2531,
      "place▁": 2532,
      "Uni": 2533,
      "Euro": 2534,
      "Nov": 2535,
      "field▁": 2536,
      "som": 2537,
      "ina▁": 2538,
      "fri": 2539,
      "late▁": 2540,
      "pical▁": 2541,
      "deo▁": 2542,
      "less▁": 2543,
      "anc": 2544,
      "193": 2545,
      "ground▁": 2546,
      "South▁": 2547,
      "so": 2548,
      "provi": 2549,
      "ue▁": 2550,
      "car": 2551,
      "position▁": 2552,
      "lit": 2553,
      "increas": 2554,
      "rote▁": 2555,
      "sequ": 2556,
      "..": 2557,
      "ision▁": 2558,
      "wrote▁": 2559,
      "Pre": 2560,
      "her": 2561,
      "ported▁": 2562,
      "Per": 2563,
      "lev": 2564,
      "ently▁": 2565,
      "July▁": 2566,
      "Coun": 2567,
      "Dec": 2568,
      "cra": 2569,
      "arly▁": 2570,
      "named▁": 2571,
      "won▁": 2572,
      "construc": 2573,
      "times▁": 2574,
      "medi": 2575,
      "vic": 2576,
      "reli": 2577,
      "due▁": 2578,
      "bur": 2579,
      "gener": 2580,
      "ects▁": 2581,
      "ility▁": 2582,
      "uary▁": 2583,
      "kil": 2584,
      "ven": 2585,
      "rela": 2586,
      "ian▁": 2587,
      "During▁": 2588,
      "ages▁": 2589,
      "much▁": 2590,
      "sen": 2591,
      "udi": 2592,
      "25▁": 2593,
      "respon": 2594,
      "Apri": 2595,
      "single▁": 2596,
      "April▁": 2597,
      "cor": 2598,
      "stri": 2599,
      "ches▁": 2600,
      "North▁": 2601,
      "west▁": 2602,
      "inst": 2603,
      "...▁": 2604,
      "posed▁": 2605,
      "ships▁": 2606,
      "prot": 2607,
      "16▁": 2608,
      "18▁": 2609,
      "hum": 2610,
      "14▁": 2611,
      "typ": 2612,
      "omin": 2613,
      "oman▁": 2614,
      "ched▁": 2615,
      "another▁": 2616,
      "Ad": 2617,
      "Mc": 2618,
      "run": 2619,
      "included▁": 2620,
      "record▁": 2621,
      "kes▁": 2622,
      "ems▁": 2623,
      "January▁": 2624,
      "ual▁": 2625,
      "stud": 2626,
      "estab": 2627,
      "differ": 2628,
      "aged▁": 2629,
      "within▁": 2630,
      "England▁": 2631,
      "Gre": 2632,
      "York▁": 2633,
      "ath": 2634,
      "yl": 2635,
      "enn": 2636,
      "built▁": 2637,
      "based▁": 2638,
      "ged▁": 2639,
      "if▁": 2640,
      "beli": 2641,
      "ongs▁": 2642,
      "pr": 2643,
      "although▁": 2644,
      "left▁": 2645,
      "yed▁": 2646,
      "attemp": 2647,
      "family▁": 2648,
      "ats▁": 2649,
      "ines▁": 2650,
      "previ": 2651,
      "11▁": 2652,
      "site▁": 2653,
      "ech": 2654,
      "games▁": 2655,
      "ony▁": 2656,
      "sour": 2657,
      "light▁": 2658,
      "ored▁": 2659,
      "ken▁": 2660,
      "water▁": 2661,
      "eight▁": 2662,
      "ick▁": 2663,
      "Bar": 2664,
      "Vi": 2665,
      "ati": 2666,
      "main▁": 2667,
      "care": 2668,
      "ign▁": 2669,
      "March▁": 2670,
      "ments▁": 2671,
      "stan": 2672,
      "own": 2673,
      "November▁": 2674,
      "ended▁": 2675,
      "six▁": 2676,
      "Ge": 2677,
      "pe▁": 2678,
      "vil": 2679,
      "them": 2680,
      "adi": 2681,
      "all": 2682,
      "Re": 2683,
      "tal▁": 2684,
      "lim": 2685,
      "cl": 2686,
      "ths▁": 2687,
      "small▁": 2688,
      "ard": 2689,
      "home▁": 2690,
      "system▁": 2691,
      "book▁": 2692,
      "ze▁": 2693,
      "group▁": 2694,
      "organ": 2695,
      "north▁": 2696,
      "December▁": 2697,
      "hy": 2698,
      "third▁": 2699,
      "view▁": 2700,
      "using▁": 2701,
      "auth": 2702,
      "those▁": 2703,
      "show▁": 2704,
      "ram": 2705,
      "thing▁": 2706,
      "urric": 2707,
      "last▁": 2708,
      "ogra": 2709,
      "zed▁": 2710,
      "13▁": 2711,
      "dge▁": 2712,
      "leg": 2713,
      "storm▁": 2714,
      "just▁": 2715,
      "cou": 2716,
      "plan": 2717,
      "ached▁": 2718,
      "sum": 2719,
      "dom▁": 2720,
      "City▁": 2721,
      "Ho": 2722,
      "regi": 2723,
      "ject▁": 2724,
      "ker▁": 2725,
      "Indi": 2726,
      "ribu": 2727,
      "near▁": 2728,
      "ature▁": 2729,
      "ampi": 2730,
      "original▁": 2731,
      "government▁": 2732,
      "war▁": 2733,
      "world▁": 2734,
      "south▁": 2735,
      "ham▁": 2736,
      "character▁": 2737,
      "fur": 2738,
      "thers▁": 2739,
      "ously▁": 2740,
      "ell": 2741,
      "cep": 2742,
      "phi": 2743,
      "ital▁": 2744,
      "head▁": 2745,
      "ences▁": 2746,
      "His▁": 2747,
      "Mu": 2748,
      "tow": 2749,
      "itary▁": 2750,
      "best▁": 2751,
      "sure▁": 2752,
      "Ca": 2753,
      "For": 2754,
      "Fe": 2755,
      "fl": 2756,
      "When▁": 2757,
      "German▁": 2758,
      "versity▁": 2759,
      "ili": 2760,
      "ening▁": 2761,
      "At": 2762,
      "2009▁": 2763,
      "chan": 2764,
      "stitu": 2765,
      "17▁": 2766,
      "video▁": 2767,
      "trans": 2768,
      "Da": 2769,
      "2008▁": 2770,
      "arti": 2771,
      "2010▁": 2772,
      "ock▁": 2773,
      "cour": 2774,
      "ring▁": 2775,
      "some": 2776,
      "allow": 2777,
      "esp": 2778,
      "act▁": 2779,
      "National▁": 2780,
      "ety▁": 2781,
      "make▁": 2782,
      "ff▁": 2783,
      "issu": 2784,
      "forman": 2785,
      "int▁": 2786,
      "ality▁": 2787,
      "ired▁": 2788,
      "ism▁": 2789,
      "Le": 2790,
      "ether▁": 2791,
      "ound": 2792,
      "establi": 2793,
      "death▁": 2794,
      "pur": 2795,
      "There▁": 2796,
      "Man": 2797,
      "success": 2798,
      "Cor": 2799,
      "possi": 2800,
      "player▁": 2801,
      "US▁": 2802,
      "ough▁": 2803,
      "19▁": 2804,
      "wea": 2805,
      "still▁": 2806,
      "Gen": 2807,
      "cal▁": 2808,
      "read": 2809,
      "role▁": 2810,
      "divi": 2811,
      "iled▁": 2812,
      "track▁": 2813,
      "history▁": 2814,
      "served▁": 2815,
      "ind▁": 2816,
      "River▁": 2817,
      "major▁": 2818,
      "val": 2819,
      "version▁": 2820,
      "can": 2821,
      "top▁": 2822,
      "Lea": 2823,
      "nov": 2824,
      "often▁": 2825,
      "100▁": 2826,
      "Bra": 2827,
      "urricane▁": 2828,
      "ol▁": 2829,
      "simil": 2830,
      "oot": 2831,
      "rown▁": 2832,
      "town▁": 2833,
      "ld": 2834,
      "yle▁": 2835,
      "chang": 2836,
      "ra▁": 2837,
      "stre": 2838,
      "continued▁": 2839,
      "By▁": 2840,
      "tively▁": 2841,
      "company▁": 2842,
      "considered▁": 2843,
      "sugg": 2844,
      "12": 2845,
      "band▁": 2846,
      "cas": 2847,
      "next▁": 2848,
      "quar": 2849,
      "2007▁": 2850,
      "bir": 2851,
      "ef▁": 2852,
      "Fren": 2853,
      "vis": 2854,
      "ick": 2855,
      "recorded▁": 2856,
      "initi": 2857,
      "published▁": 2858,
      "Char": 2859,
      "One▁": 2860,
      "Rec": 2861,
      "em▁": 2862,
      "fel": 2863,
      "Inter": 2864,
      "career▁": 2865,
      "dro": 2866,
      "Batt": 2867,
      "again▁": 2868,
      "Acc": 2869,
      "mer▁": 2870,
      "performan": 2871,
      "came▁": 2872,
      "show": 2873,
      "pas": 2874,
      "set": 2875,
      "take▁": 2876,
      "period▁": 2877,
      "bs▁": 2878,
      "held▁": 2879,
      "ire▁": 2880,
      "sses▁": 2881,
      "bar": 2882,
      "English▁": 2883,
      "sw": 2884,
      "mor": 2885,
      "aff": 2886,
      "you▁": 2887,
      "ops▁": 2888,
      "ghts▁": 2889,
      "half▁": 2890,
      "ped▁": 2891,
      "songs▁": 2892,
      "signed▁": 2893,
      "without▁": 2894,
      "Qu": 2895,
      "let": 2896,
      "body▁": 2897,
      "public▁": 2898,
      "ges▁": 2899,
      "written▁": 2900,
      "den▁": 2901,
      "days▁": 2902,
      "ang▁": 2903,
      "repres": 2904,
      "French▁": 2905,
      "local▁": 2906,
      "rev": 2907,
      "eved▁": 2908,
      "refer": 2909,
      "Ser": 2910,
      "ult▁": 2911,
      "dri": 2912,
      "ures▁": 2913,
      "res": 2914,
      "ams▁": 2915,
      "ek▁": 2916,
      "disp": 2917,
      "Mic": 2918,
      "cy": 2919,
      "ested▁": 2920,
      "point▁": 2921,
      "acks▁": 2922,
      "former▁": 2923,
      "memb": 2924,
      "ston▁": 2925,
      "21▁": 2926,
      "east": 2927,
      "ana▁": 2928,
      "State▁": 2929,
      "dren▁": 2930,
      "ldren▁": 2931,
      "scen": 2932,
      "placed▁": 2933,
      "os▁": 2934,
      "support▁": 2935,
      "10": 2936,
      "ghout▁": 2937,
      "new": 2938,
      "wat": 2939,
      "ured▁": 2940,
      "2011▁": 2941,
      "cy▁": 2942,
      "sit": 2943,
      "que▁": 2944,
      "few▁": 2945,
      "release▁": 2946,
      "tropical▁": 2947,
      "ll": 2948,
      "dest": 2949,
      "ration▁": 2950,
      "Ber": 2951,
      "Chi": 2952,
      "Du": 2953,
      "ized▁": 2954,
      "club▁": 2955,
      "row▁": 2956,
      "import": 2957,
      "become▁": 2958,
      "ished▁": 2959,
      "Division▁": 2960,
      "Cre": 2961,
      "sha": 2962,
      "white▁": 2963,
      "2006▁": 2964,
      "fic▁": 2965,
      "Although▁": 2966,
      "hor": 2967,
      "action▁": 2968,
      "Ab": 2969,
      "den": 2970,
      "however▁": 2971,
      "Mis": 2972,
      "No▁": 2973,
      "further▁": 2974,
      "Bl": 2975,
      "power▁": 2976,
      "win▁": 2977,
      "studi": 2978,
      "estern▁": 2979,
      "road▁": 2980,
      "title▁": 2981,
      "right▁": 2982,
      "According▁": 2983,
      "Cha": 2984,
      "different▁": 2985,
      "Bu": 2986,
      "ative▁": 2987,
      "war": 2988,
      "ants▁": 2989,
      "Ni": 2990,
      "Fin": 2991,
      "ually▁": 2992,
      "yal▁": 2993,
      "cho": 2994,
      "run▁": 2995,
      "military▁": 2996,
      "claim": 2997,
      "23▁": 2998,
      "Af": 2999,
      "ours▁": 3000,
      "production▁": 3001,
      "fore": 3002,
      "lat": 3003,
      "proc": 3004,
      "signi": 3005,
      "League▁": 3006,
      "28▁": 3007,
      "Tw": 3008,
      "ich": 3009,
      "histor": 3010,
      "Whi": 3011,
      "get▁": 3012,
      "pit": 3013,
      "tru": 3014,
      "bert▁": 3015,
      "40▁": 3016,
      "ders▁": 3017,
      "ness▁": 3018,
      "cot": 3019,
      "Feb": 3020,
      "ur▁": 3021,
      "ruary▁": 3022,
      "February▁": 3023,
      "Co": 3024,
      "ford▁": 3025,
      "how▁": 3026,
      "24▁": 3027,
      "moder": 3028,
      "De": 3029,
      "bit": 3030,
      "Be": 3031,
      "For▁": 3032,
      "exten": 3033,
      "gave▁": 3034,
      "church▁": 3035,
      "epar": 3036,
      "produced▁": 3037,
      "ylan▁": 3038,
      "deci": 3039,
      "Dylan▁": 3040,
      "pra": 3041,
      "Tim": 3042,
      "order▁": 3043,
      "among▁": 3044,
      "fre": 3045,
      "Church▁": 3046,
      "ones▁": 3047,
      "tors▁": 3048,
      "ator▁": 3049,
      "evision▁": 3050,
      "overed▁": 3051,
      "ain▁": 3052,
      "equ": 3053,
      "ot▁": 3054,
      "2012▁": 3055,
      "Pri": 3056,
      "val▁": 3057,
      "defe": 3058,
      "children▁": 3059,
      "members▁": 3060,
      "we▁": 3061,
      "ney▁": 3062,
      "ests▁": 3063,
      "tory▁": 3064,
      "Mor": 3065,
      "da▁": 3066,
      "forces▁": 3067,
      "Sim": 3068,
      "him": 3069,
      "fire▁": 3070,
      "seen▁": 3071,
      "fron": 3072,
      "va▁": 3073,
      "atter": 3074,
      "ail": 3075,
      "face▁": 3076,
      "having▁": 3077,
      "22▁": 3078,
      "Jap": 3079,
      "tes▁": 3080,
      "Geor": 3081,
      "ide": 3082,
      "main": 3083,
      "fes": 3084,
      "similar▁": 3085,
      "Min": 3086,
      "include▁": 3087,
      "away▁": 3088,
      "ba": 3089,
      "my": 3090,
      "oung▁": 3091,
      "peti": 3092,
      "invol": 3093,
      "Ac": 3094,
      "common▁": 3095,
      "signific": 3096,
      "ars▁": 3097,
      "given▁": 3098,
      "influ": 3099,
      "sident▁": 3100,
      "26▁": 3101,
      "Mi": 3102,
      "ering▁": 3103,
      "alion▁": 3104,
      "house▁": 3105,
      "tal": 3106,
      "star▁": 3107,
      "lost▁": 3108,
      "making▁": 3109,
      "range▁": 3110,
      "Har": 3111,
      "Or": 3112,
      "Sch": 3113,
      "ine": 3114,
      "conta": 3115,
      "cel": 3116,
      "mul": 3117,
      "ways▁": 3118,
      "xim": 3119,
      "manag": 3120,
      "Ex": 3121,
      "short▁": 3122,
      "school▁": 3123,
      "rand▁": 3124,
      "sent▁": 3125,
      "stated▁": 3126,
      "gun": 3127,
      "ending▁": 3128,
      "coll": 3129,
      "wards▁": 3130,
      "ditional▁": 3131,
      "All▁": 3132,
      "co▁": 3133,
      "ends▁": 3134,
      "event": 3135,
      "2013▁": 3136,
      "developed▁": 3137,
      "ck▁": 3138,
      "reported▁": 3139,
      "tin▁": 3140,
      "onom": 3141,
      "craft▁": 3142,
      "ori": 3143,
      "ably▁": 3144,
      "control▁": 3145,
      "Sa": 3146,
      "agre": 3147,
      "13": 3148,
      "ban": 3149,
      "fem": 3150,
      "pass": 3151,
      "force▁": 3152,
      "cial▁": 3153,
      "Willi": 3154,
      "ental▁": 3155,
      "St▁": 3156,
      "go▁": 3157,
      "went▁": 3158,
      "comman": 3159,
      "lead▁": 3160,
      "ket▁": 3161,
      "General▁": 3162,
      "Sta": 3163,
      "total▁": 3164,
      "Cent": 3165,
      "oms▁": 3166,
      "While▁": 3167,
      "writing▁": 3168,
      "nec": 3169,
      "intro": 3170,
      "duced▁": 3171,
      "returned▁": 3172,
      "Lon": 3173,
      "University▁": 3174,
      "Si": 3175,
      "reland▁": 3176,
      "person": 3177,
      "lands▁": 3178,
      "Fi": 3179,
      "lay": 3180,
      "ush": 3181,
      "pul": 3182,
      "works▁": 3183,
      "father▁": 3184,
      "ampion": 3185,
      "established▁": 3186,
      "mas": 3187,
      "comb": 3188,
      "Som": 3189,
      "match▁": 3190,
      "These▁": 3191,
      "America▁": 3192,
      "announ": 3193,
      "op▁": 3194,
      "ech▁": 3195,
      "died▁": 3196,
      "concer": 3197,
      "attack▁": 3198,
      "Comm": 3199,
      "population▁": 3200,
      "eastern▁": 3201,
      "15": 3202,
      "Pal": 3203,
      "gade▁": 3204,
      "ological▁": 3205,
      "pea": 3206,
      "spo": 3207,
      "im▁": 3208,
      "reached▁": 3209,
      "ounded▁": 3210,
      "country▁": 3211,
      "construction▁": 3212,
      "har": 3213,
      "med▁": 3214,
      "earli": 3215,
      "Ireland▁": 3216,
      "ute▁": 3217,
      "review": 3218,
      "pped▁": 3219,
      "depend": 3220,
      "never▁": 3221,
      "noted▁": 3222,
      "Ass": 3223,
      "sting▁": 3224,
      "190": 3225,
      "cast▁": 3226,
      "building▁": 3227,
      "Wal": 3228,
      "ean▁": 3229,
      "ially▁": 3230,
      "men": 3231,
      "tem": 3232,
      "across▁": 3233,
      "lot▁": 3234,
      "located▁": 3235,
      "throughout▁": 3236,
      "result▁": 3237,
      "ak▁": 3238,
      "ority▁": 3239,
      "ash": 3240,
      "north": 3241,
      "change▁": 3242,
      "ensive▁": 3243,
      "commun": 3244,
      "seven▁": 3245,
      "stat": 3246,
      "board▁": 3247,
      "thought▁": 3248,
      "pol": 3249,
      "omen▁": 3250,
      "pression▁": 3251,
      "development▁": 3252,
      "felt▁": 3253,
      "London▁": 3254,
      "ural▁": 3255,
      "ada▁": 3256,
      "Feder": 3257,
      "himself▁": 3258,
      "ake▁": 3259,
      "rest▁": 3260,
      "destro": 3261,
      "27▁": 3262,
      "vy▁": 3263,
      "performed▁": 3264,
      "phy▁": 3265,
      "El": 3266,
      "ta▁": 3267,
      "suff": 3268,
      "Australia▁": 3269,
      "Afric": 3270,
      "ubli": 3271,
      "ref": 3272,
      "Pr": 3273,
      "elec": 3274,
      "ope▁": 3275,
      "stry▁": 3276,
      "ron▁": 3277,
      "eter▁": 3278,
      "miles▁": 3279,
      "full▁": 3280,
      "West▁": 3281,
      "29▁": 3282,
      "With▁": 3283,
      "important▁": 3284,
      "air▁": 3285,
      "cro": 3286,
      "mm▁": 3287,
      "anim": 3288,
      "itar▁": 3289,
      "week▁": 3290,
      "60▁": 3291,
      "style▁": 3292,
      "television▁": 3293,
      "So": 3294,
      "squ": 3295,
      "ingdom▁": 3296,
      "areas▁": 3297,
      "ular▁": 3298,
      "abo": 3299,
      "date▁": 3300,
      "appeared▁": 3301,
      "previous▁": 3302,
      "ootball▁": 3303,
      "Fl": 3304,
      "Scot": 3305,
      "King▁": 3306,
      "ific▁": 3307,
      "Me": 3308,
      "prob": 3309,
      "events▁": 3310,
      "marri": 3311,
      "mix": 3312,
      "Sec": 3313,
      "da": 3314,
      "desp": 3315,
      "thre": 3316,
      "started▁": 3317,
      "Se": 3318,
      "tech": 3319,
      "players▁": 3320,
      "James▁": 3321,
      "ogether▁": 3322,
      "Park▁": 3323,
      "Hor": 3324,
      "Sp": 3325,
      "doc": 3326,
      "hol": 3327,
      "tis": 3328,
      "feet▁": 3329,
      "Phi": 3330,
      "tation▁": 3331,
      "experi": 3332,
      "various▁": 3333,
      "spor": 3334,
      "gran": 3335,
      "sian▁": 3336,
      "come▁": 3337,
      "lear▁": 3338,
      "Moun": 3339,
      "Por": 3340,
      "TV▁": 3341,
      "use": 3342,
      "see▁": 3343,
      "night▁": 3344,
      "County▁": 3345,
      "performance▁": 3346,
      "Song▁": 3347,
      "caused▁": 3348,
      "too▁": 3349,
      "Davi": 3350,
      "sin": 3351,
      "tioned▁": 3352,
      "nia▁": 3353,
      "idd": 3354,
      "scrip": 3355,
      "rul": 3356,
      "Hou": 3357,
      "sons▁": 3358,
      "tial▁": 3359,
      "ament▁": 3360,
      "formation▁": 3361,
      "moun": 3362,
      "ularly▁": 3363,
      "earch▁": 3364,
      "nel▁": 3365,
      "four": 3366,
      "ics▁": 3367,
      "should▁": 3368,
      "tural▁": 3369,
      "wan": 3370,
      "created▁": 3371,
      "Sy": 3372,
      "han": 3373,
      "sical▁": 3374,
      "agaz": 3375,
      "political▁": 3376,
      "Sci": 3377,
      "Tur": 3378,
      "appoin": 3379,
      "2004▁": 3380,
      "religi": 3381,
      "villa": 3382,
      "live▁": 3383,
      "promo": 3384,
      "ounds▁": 3385,
      "2005▁": 3386,
      "Cam": 3387,
      "ution▁": 3388,
      "competi": 3389,
      "189": 3390,
      "level▁": 3391,
      "Sha": 3392,
      "usu": 3393,
      "sci": 3394,
      "taken▁": 3395,
      "saur": 3396,
      "characters▁": 3397,
      "cir": 3398,
      "ington▁": 3399,
      "The": 3400,
      "strong▁": 3401,
      "draw": 3402,
      "curren": 3403,
      "ample▁": 3404,
      "sett": 3405,
      "others▁": 3406,
      "ank": 3407,
      "ils▁": 3408,
      "fav": 3409,
      "tou": 3410,
      "estim": 3411,
      "uses▁": 3412,
      "tures▁": 3413,
      "good▁": 3414,
      "hind▁": 3415,
      "once▁": 3416,
      "ically▁": 3417,
      "radi": 3418,
      "born▁": 3419,
      "long": 3420,
      "era▁": 3421,
      "gun▁": 3422,
      "ock": 3423,
      "does▁": 3424,
      "modern▁": 3425,
      "Ham": 3426,
      "ie▁": 3427,
      "yard▁": 3428,
      "black▁": 3429,
      "BC▁": 3430,
      "Wi": 3431,
      "ever": 3432,
      "survi": 3433,
      "successful▁": 3434,
      "Rich": 3435,
      "nd▁": 3436,
      "ligh": 3437,
      "move▁": 3438,
      "Ang": 3439,
      "lines▁": 3440,
      "remained▁": 3441,
      "2nd▁": 3442,
      "occu": 3443,
      "becom": 3444,
      "dings▁": 3445,
      "dem": 3446,
      "compan": 3447,
      "scored▁": 3448,
      "great▁": 3449,
      "Christ": 3450,
      "completed▁": 3451,
      "Atlan": 3452,
      "Care": 3453,
      "Gal": 3454,
      "New": 3455,
      "nuc": 3456,
      "lies▁": 3457,
      "list▁": 3458,
      "Road▁": 3459,
      "critic": 3460,
      "diffic": 3461,
      "guns▁": 3462,
      "lik": 3463,
      "campa": 3464,
      "announced▁": 3465,
      "stars▁": 3466,
      "Australian▁": 3467,
      "ple▁": 3468,
      "pow": 3469,
      "tment▁": 3470,
      "Kingdom▁": 3471,
      "fle": 3472,
      "arded▁": 3473,
      "put▁": 3474,
      "vol": 3475,
      "aly": 3476,
      "acked▁": 3477,
      "sible▁": 3478,
      "mem": 3479,
      "Company▁": 3480,
      "eve▁": 3481,
      "hun": 3482,
      "ination▁": 3483,
      "stone▁": 3484,
      "added▁": 3485,
      "compar": 3486,
      "little▁": 3487,
      "instead▁": 3488,
      "az": 3489,
      "na▁": 3490,
      "enced▁": 3491,
      "itted▁": 3492,
      "ability▁": 3493,
      "rought▁": 3494,
      "region▁": 3495,
      "Sw": 3496,
      "dou": 3497,
      "arch": 3498,
      "present▁": 3499,
      "non▁": 3500,
      "voc": 3501,
      "wood▁": 3502,
      "ances▁": 3503,
      "read▁": 3504,
      "possible▁": 3505,
      "Im": 3506,
      "boo": 3507,
      "cop": 3508,
      "wide▁": 3509,
      "popular▁": 3510,
      "novel▁": 3511,
      "Am": 3512,
      "Bi": 3513,
      "Bro": 3514,
      "br": 3515,
      "sia▁": 3516,
      "least▁": 3517,
      "followed▁": 3518,
      "Cap": 3519,
      "cat": 3520,
      "hear": 3521,
      "ink▁": 3522,
      "paren": 3523,
      "wife▁": 3524,
      "Christi": 3525,
      "killed▁": 3526,
      "Cup▁": 3527,
      "together▁": 3528,
      "respec": 3529,
      "island▁": 3530,
      "aver": 3531,
      "ose▁": 3532,
      "addition▁": 3533,
      "months▁": 3534,
      "originally▁": 3535,
      "fully▁": 3536,
      "Hen": 3537,
      "To": 3538,
      "evid": 3539,
      "Army▁": 3540,
      "ists▁": 3541,
      "Music▁": 3542,
      "Cro": 3543,
      "stra": 3544,
      "associ": 3545,
      "human▁": 3546,
      "fall▁": 3547,
      "iting▁": 3548,
      "fif": 3549,
      "relation": 3550,
      "hurricane▁": 3551,
      "women▁": 3552,
      "fort▁": 3553,
      "mi▁": 3554,
      "opened▁": 3555,
      "recog": 3556,
      "Ed": 3557,
      "Val": 3558,
      "success▁": 3559,
      "carri": 3560,
      "critics▁": 3561,
      "southern▁": 3562,
      "Mil": 3563,
      "You▁": 3564,
      "hon": 3565,
      "dies▁": 3566,
      "ching▁": 3567,
      "termin": 3568,
      "2003▁": 3569,
      "lowing▁": 3570,
      "either▁": 3571,
      "return▁": 3572,
      "nal▁": 3573,
      "inning▁": 3574,
      "eventually▁": 3575,
      "ow▁": 3576,
      "features▁": 3577,
      "An▁": 3578,
      "Nav": 3579,
      "Ra": 3580,
      "To▁": 3581,
      "wal": 3582,
      "achi": 3583,
      "sist": 3584,
      "lic▁": 3585,
      "tained▁": 3586,
      "saw▁": 3587,
      "2015▁": 3588,
      "chae": 3589,
      "France▁": 3590,
      "David▁": 3591,
      "fo": 3592,
      "Fol": 3593,
      "On": 3594,
      "ve": 3595,
      "impro": 3596,
      "ampionship▁": 3597,
      "met▁": 3598,
      "nat": 3599,
      "ago▁": 3600,
      "every▁": 3601,
      "ports▁": 3602,
      "route▁": 3603,
      "Europe▁": 3604,
      "birds▁": 3605,
      "fourth▁": 3606,
      "tar": 3607,
      "indu": 3608,
      "ense▁": 3609,
      "lay▁": 3610,
      "forced▁": 3611,
      "gular▁": 3612,
      "contrac": 3613,
      "Europe": 3614,
      "Two▁": 3615,
      "lated▁": 3616,
      "young▁": 3617,
      "antry▁": 3618,
      "commer": 3619,
      "points▁": 3620,
      "sional▁": 3621,
      "decided▁": 3622,
      "bal": 3623,
      "pat": 3624,
      "minist": 3625,
      "class▁": 3626,
      "vir": 3627,
      "prote": 3628,
      "identi": 3629,
      "damage▁": 3630,
      "ols▁": 3631,
      "mother▁": 3632,
      "ota▁": 3633,
      "Ver": 3634,
      "ide▁": 3635,
      "playing▁": 3636,
      "Battalion▁": 3637,
      "agazine▁": 3638,
      "Ear": 3639,
      "sold▁": 3640,
      "separ": 3641,
      "forms▁": 3642,
      "pain": 3643,
      "bes▁": 3644,
      "ge": 3645,
      "nar": 3646,
      "tit": 3647,
      "behind▁": 3648,
      "leading▁": 3649,
      "finished▁": 3650,
      "heavy▁": 3651,
      "writer▁": 3652,
      "Grand▁": 3653,
      "indivi": 3654,
      "argu": 3655,
      "stand": 3656,
      "Stre": 3657,
      "structure▁": 3658,
      "believed▁": 3659,
      "Carey▁": 3660,
      "individu": 3661,
      "Jer": 3662,
      "Rep": 3663,
      "ming▁": 3664,
      "exic": 3665,
      "design▁": 3666,
      "eu": 3667,
      "mea": 3668,
      "front▁": 3669,
      "Gi": 3670,
      "occur": 3671,
      "aching▁": 3672,
      "ger▁": 3673,
      "vier▁": 3674,
      "mater": 3675,
      "appearance▁": 3676,
      "Love▁": 3677,
      "Shi": 3678,
      "bility▁": 3679,
      "gin": 3680,
      "stage▁": 3681,
      "emplo": 3682,
      "directed▁": 3683,
      "Mexic": 3684,
      "example▁": 3685,
      "eption▁": 3686,
      "langu": 3687,
      "piec": 3688,
      "close▁": 3689,
      "Rev": 3690,
      "ious▁": 3691,
      "kers▁": 3692,
      "almost▁": 3693,
      "goal▁": 3694,
      "31▁": 3695,
      "eel": 3696,
      "poem▁": 3697,
      "iment▁": 3698,
      "classi": 3699,
      "case▁": 3700,
      "Bal": 3701,
      "dy": 3702,
      "tice▁": 3703,
      "tured▁": 3704,
      "significant▁": 3705,
      "European▁": 3706,
      "Reg": 3707,
      "sem": 3708,
      "lied▁": 3709,
      "via▁": 3710,
      "shor": 3711,
      "188": 3712,
      "service▁": 3713,
      "generally▁": 3714,
      "Federer▁": 3715,
      "Mag": 3716,
      "cent▁": 3717,
      "elements▁": 3718,
      "ght": 3719,
      "Royal▁": 3720,
      "Robert▁": 3721,
      "going▁": 3722,
      "towards▁": 3723,
      "claimed▁": 3724,
      "open▁": 3725,
      "Fre": 3726,
      "brought▁": 3727,
      "yards▁": 3728,
      "ories▁": 3729,
      "ective▁": 3730,
      "laun": 3731,
      "Brigade▁": 3732,
      "weeks▁": 3733,
      "ready▁": 3734,
      "Oli": 3735,
      "Wales▁": 3736,
      "tan": 3737,
      "200▁": 3738,
      "William▁": 3739,
      "ida▁": 3740,
      "highway▁": 3741,
      "study▁": 3742,
      "Flor": 3743,
      "bers▁": 3744,
      "cru": 3745,
      "any": 3746,
      "lower▁": 3747,
      "audi": 3748,
      "featured▁": 3749,
      "1st▁": 3750,
      "Sar": 3751,
      "Some▁": 3752,
      "western▁": 3753,
      "vil▁": 3754,
      "cil▁": 3755,
      "aircraft▁": 3756,
      "Rom": 3757,
      "ai▁": 3758,
      "lear": 3759,
      "member▁": 3760,
      "pen": 3761,
      "tour▁": 3762,
      "project▁": 3763,
      "ators▁": 3764,
      "start▁": 3765,
      "upon▁": 3766,
      "hom": 3767,
      "ata▁": 3768,
      "room▁": 3769,
      "viol": 3770,
      "general▁": 3771,
      "deli": 3772,
      "Fil": 3773,
      "Ru": 3774,
      "Tri": 3775,
      "net": 3776,
      "conf": 3777,
      "pos": 3778,
      "scre": 3779,
      "Micha": 3780,
      "af": 3781,
      "parts▁": 3782,
      "ordan▁": 3783,
      "provided▁": 3784,
      "Other▁": 3785,
      "conclu": 3786,
      "Hol": 3787,
      "sen▁": 3788,
      "ark▁": 3789,
      "enth▁": 3790,
      "ha▁": 3791,
      "tom": 3792,
      "lue▁": 3793,
      "syn": 3794,
      "help▁": 3795,
      "Jordan▁": 3796,
      "Roman▁": 3797,
      "Tro": 3798,
      "race▁": 3799,
      "ws▁": 3800,
      "inj": 3801,
      "sea▁": 3802,
      "central▁": 3803,
      "ealth▁": 3804,
      "earlier▁": 3805,
      "conduc": 3806,
      "worked▁": 3807,
      "phy": 3808,
      "mission▁": 3809,
      "allowed▁": 3810,
      "mid▁": 3811,
      "nomin": 3812,
      "prac": 3813,
      "rather▁": 3814,
      "2014▁": 3815,
      "subsequ": 3816,
      "White▁": 3817,
      "south": 3818,
      "cept▁": 3819,
      "female▁": 3820,
      "saurus▁": 3821,
      "Atlantic▁": 3822,
      "Bus": 3823,
      "rd▁": 3824,
      "opening▁": 3825,
      "section▁": 3826,
      "campaign▁": 3827,
      "III▁": 3828,
      "foc": 3829,
      "ania▁": 3830,
      "sit▁": 3831,
      "working▁": 3832,
      "director▁": 3833,
      "operations▁": 3834,
      "largest▁": 3835,
      "victory▁": 3836,
      "International▁": 3837,
      "Following▁": 3838,
      "From▁": 3839,
      "insp": 3840,
      "ester▁": 3841,
      "particularly▁": 3842,
      "George▁": 3843,
      "wanted▁": 3844,
      "500▁": 3845,
      "East▁": 3846,
      "Fir": 3847,
      "Hel": 3848,
      "leng": 3849,
      "19th▁": 3850,
      "troops▁": 3851,
      "joined▁": 3852,
      "attempt▁": 3853,
      "cle▁": 3854,
      "fla": 3855,
      "river▁": 3856,
      "aper▁": 3857,
      "find▁": 3858,
      "Bur": 3859,
      "dru": 3860,
      "ket": 3861,
      "table▁": 3862,
      "indic": 3863,
      "rest": 3864,
      "ingly▁": 3865,
      "God▁": 3866,
      "Tra": 3867,
      "grow": 3868,
      "he": 3869,
      "ior▁": 3870,
      "lam": 3871,
      "rate▁": 3872,
      "stren": 3873,
      "Thom": 3874,
      "evidence▁": 3875,
      "wa": 3876,
      "185": 3877,
      "aul▁": 3878,
      "chart▁": 3879,
      "northern▁": 3880,
      "standing▁": 3881,
      "Florida▁": 3882,
      "Bel": 3883,
      "Eg": 3884,
      "Jew": 3885,
      "back": 3886,
      "gy▁": 3887,
      "ghter▁": 3888,
      "broad": 3889,
      "Brit": 3890,
      "bil": 3891,
      "sport▁": 3892,
      "saying▁": 3893,
      "designed▁": 3894,
      "outside▁": 3895,
      "ography▁": 3896,
      "mag": 3897,
      "tour": 3898,
      "accoun": 3899,
      "gram▁": 3900,
      "manager▁": 3901,
      "anese▁": 3902,
      "hours▁": 3903,
      "sex": 3904,
      "ym": 3905,
      "ano▁": 3906,
      "acy▁": 3907,
      "whom▁": 3908,
      "Street▁": 3909,
      "streng": 3910,
      "45▁": 3911,
      "70▁": 3912,
      "Hu": 3913,
      "ries▁": 3914,
      "event▁": 3915,
      "2001▁": 3916,
      "avail": 3917,
      "ociety▁": 3918,
      "Island▁": 3919,
      "souri▁": 3920,
      "Missouri▁": 3921,
      "iddle▁": 3922,
      "Hai": 3923,
      "Ne": 3924,
      "Tech▁": 3925,
      "love▁": 3926,
      "territ": 3927,
      "mach": 3928,
      "pressed▁": 3929,
      "drew▁": 3930,
      "Hero▁": 3931,
      "flo": 3932,
      "ke": 3933,
      "ession▁": 3934,
      "exist": 3935,
      "ama▁": 3936,
      "depic": 3937,
      "process▁": 3938,
      "Ara": 3939,
      "ind": 3940,
      "battle▁": 3941,
      "Rou": 3942,
      "fa▁": 3943,
      "vest": 3944,
      "ero": 3945,
      "amoun": 3946,
      "duction▁": 3947,
      "head": 3948,
      "great": 3949,
      "Air": 3950,
      "Bas": 3951,
      "Ke": 3952,
      "Tor": 3953,
      "gs▁": 3954,
      "ditions▁": 3955,
      "law▁": 3956,
      "super": 3957,
      "ocial▁": 3958,
      "soon▁": 3959,
      "praised▁": 3960,
      "80▁": 3961,
      "din": 3962,
      "prev": 3963,
      "remains▁": 3964,
      "Best▁": 3965,
      "round▁": 3966,
      "rish▁": 3967,
      "liament▁": 3968,
      "ung▁": 3969,
      "Old": 3970,
      "simp": 3971,
      "ecu": 3972,
      "imp": 3973,
      "tain": 3974,
      "word▁": 3975,
      "winds▁": 3976,
      "appointed▁": 3977,
      "Michael▁": 3978,
      "Vir": 3979,
      "nation▁": 3980,
      "resid": 3981,
      "profes": 3982,
      "taking▁": 3983,
      "month▁": 3984,
      "increased▁": 3985,
      "ublic▁": 3986,
      "House▁": 3987,
      "Paul▁": 3988,
      "Squ": 3989,
      "US": 3990,
      "ry": 3991,
      "league▁": 3992,
      "previously▁": 3993,
      "Black▁": 3994,
      "First▁": 3995,
      "Egyp": 3996,
      "Desp": 3997,
      "Mac": 3998,
      "od": 3999,
      "replaced▁": 4000,
      "lice▁": 4001,
      "units▁": 4002,
      "tionally▁": 4003,
      "illa▁": 4004,
      "above▁": 4005,
      "Cra": 4006,
      "Gra": 4007,
      "domin": 4008,
      "down": 4009,
      "prec": 4010,
      "busin": 4011,
      "pper▁": 4012,
      "John": 4013,
      "ributed▁": 4014,
      "estimated▁": 4015,
      "Man▁": 4016,
      "ald▁": 4017,
      "pool▁": 4018,
      "ood": 4019,
      "useum▁": 4020,
      "relationship▁": 4021,
      "Cri": 4022,
      "jects▁": 4023,
      "conn": 4024,
      "lege▁": 4025,
      "eep▁": 4026,
      "mph▁": 4027,
      "shot▁": 4028,
      "Despite▁": 4029,
      "Sou": 4030,
      "bit▁": 4031,
      "ples▁": 4032,
      "travel": 4033,
      "Canada▁": 4034,
      "key▁": 4035,
      "nine▁": 4036,
      "ades▁": 4037,
      "mean": 4038,
      "ential▁": 4039,
      "official▁": 4040,
      "75▁": 4041,
      "dol": 4042,
      "spe": 4043,
      "passed▁": 4044,
      "far▁": 4045,
      "complete▁": 4046,
      "involved▁": 4047,
      "settl": 4048,
      "available▁": 4049,
      "here▁": 4050,
      "ran▁": 4051,
      "vice▁": 4052,
      "zz": 4053,
      "esti": 4054,
      "plan▁": 4055,
      "portra": 4056,
      "sym": 4057,
      "highest▁": 4058,
      "Japanese▁": 4059,
      "Ev": 4060,
      "Ter": 4061,
      "erous▁": 4062,
      "ita▁": 4063,
      "activ": 4064,
      "size▁": 4065,
      "spea": 4066,
      "exc": 4067,
      "mixed▁": 4068,
      "Oldham▁": 4069,
      "top": 4070,
      "told▁": 4071,
      "rock▁": 4072,
      "hop▁": 4073,
      "ization▁": 4074,
      "discus": 4075,
      "suggested▁": 4076,
      "Times▁": 4077,
      "Cla": 4078,
      "wid": 4079,
      "turned▁": 4080,
      "goals▁": 4081,
      "anna▁": 4082,
      "scene▁": 4083,
      "introduced▁": 4084,
      "sal": 4085,
      "unc": 4086,
      "ept▁": 4087,
      "utes▁": 4088,
      "Canadi": 4089,
      "Viet": 4090,
      "situ": 4091,
      "usually▁": 4092,
      "likely▁": 4093,
      "Henry▁": 4094,
      "Olivier▁": 4095,
      "38▁": 4096,
      "Mal": 4097,
      "Nic": 4098,
      "pho": 4099,
      "ret": 4100,
      "itself▁": 4101,
      "actions▁": 4102,
      "bet": 4103,
      "oot▁": 4104,
      "let▁": 4105,
      "Chin": 4106,
      "give▁": 4107,
      "186": 4108,
      "type▁": 4109,
      "recogni": 4110,
      "Cer": 4111,
      "bloc": 4112,
      "dau": 4113,
      "ping▁": 4114,
      "ices▁": 4115,
      "serve▁": 4116,
      "Most▁": 4117,
      "average▁": 4118,
      "Mexico▁": 4119,
      "Play": 4120,
      "atic▁": 4121,
      "regular▁": 4122,
      "India▁": 4123,
      "Pac": 4124,
      "ton": 4125,
      "wil": 4126,
      "expla": 4127,
      "alist▁": 4128,
      "know": 4129,
      "base▁": 4130,
      "damaged▁": 4131,
      "limited▁": 4132,
      "Later▁": 4133,
      "happ": 4134,
      "whose▁": 4135,
      "term▁": 4136,
      "recording▁": 4137,
      "village▁": 4138,
      "Mad": 4139,
      "Rus": 4140,
      "fru": 4141,
      "mary▁": 4142,
      "thy▁": 4143,
      "oring▁": 4144,
      "ster": 4145,
      "atory▁": 4146,
      "porary▁": 4147,
      "coast▁": 4148,
      "court▁": 4149,
      "Thomas▁": 4150,
      "Govern": 4151,
      "Irish▁": 4152,
      "ris": 4153,
      "character": 4154,
      "approxim": 4155,
      "Indian▁": 4156,
      "Mer": 4157,
      "football▁": 4158,
      "wr": 4159,
      "alter": 4160,
      "lig": 4161,
      "lab": 4162,
      "loss▁": 4163,
      "Ban": 4164,
      "Pol": 4165,
      "hand▁": 4166,
      "six": 4167,
      "press▁": 4168,
      "shows▁": 4169,
      "Britain▁": 4170,
      "Ba": 4171,
      "eding▁": 4172,
      "independ": 4173,
      "econom": 4174,
      "thed": 4175,
      "forward▁": 4176,
      "prepar": 4177,
      "duce▁": 4178,
      "native▁": 4179,
      "gradu": 4180,
      "tries▁": 4181,
      "Hurricane▁": 4182,
      "cover▁": 4183,
      "ti▁": 4184,
      "ani▁": 4185,
      "progr": 4186,
      "entire▁": 4187,
      "President▁": 4188,
      "Many▁": 4189,
      "NY▁": 4190,
      "nearly▁": 4191,
      "aries▁": 4192,
      "archae": 4193,
      "ords▁": 4194,
      "stly▁": 4195,
      "defin": 4196,
      "supp": 4197,
      "must▁": 4198,
      "Wheel": 4199,
      "changes▁": 4200,
      "despite▁": 4201,
      "religious▁": 4202,
      "Jack": 4203,
      "Town": 4204,
      "Zeal": 4205,
      "rely▁": 4206,
      "spac": 4207,
      "land": 4208,
      "community▁": 4209,
      "90▁": 4210,
      "Pl": 4211,
      "gam": 4212,
      "names▁": 4213,
      "real▁": 4214,
      "enon▁": 4215,
      "ric▁": 4216,
      "listed▁": 4217,
      "nei": 4218,
      "appear▁": 4219,
      "fication▁": 4220,
      "friend▁": 4221,
      "issue▁": 4222,
      "Cal": 4223,
      "bom": 4224,
      "woman▁": 4225,
      "immedi": 4226,
      "international▁": 4227,
      "marked▁": 4228,
      "liter": 4229,
      "ville▁": 4230,
      "initially▁": 4231,
      "techn": 4232,
      "bar▁": 4233,
      "hold▁": 4234,
      "pil": 4235,
      "rated▁": 4236,
      "sity▁": 4237,
      "already▁": 4238,
      "verse▁": 4239,
      "colla": 4240,
      "cut▁": 4241,
      "lyric": 4242,
      "Christian▁": 4243,
      "length▁": 4244,
      "35▁": 4245,
      "4th▁": 4246,
      "Early▁": 4247,
      "Game▁": 4248,
      "free▁": 4249,
      "ky": 4250,
      "ki▁": 4251,
      "related▁": 4252,
      "ordered▁": 4253,
      "deta": 4254,
      "Championship▁": 4255,
      "failed▁": 4256,
      "winning▁": 4257,
      "Guitar▁": 4258,
      "espec": 4259,
      "Chinese▁": 4260,
      "Dev": 4261,
      "Em": 4262,
      "fal": 4263,
      "occa": 4264,
      "training▁": 4265,
      "Union▁": 4266,
      "probably▁": 4267,
      "commercial▁": 4268,
      "language▁": 4269,
      "especially▁": 4270,
      "Tre": 4271,
      "ids▁": 4272,
      "ro▁": 4273,
      "dia▁": 4274,
      "spent▁": 4275,
      "2002▁": 4276,
      "High": 4277,
      "gold▁": 4278,
      "rus": 4279,
      "ssed▁": 4280,
      "review▁": 4281,
      "aller▁": 4282,
      "states▁": 4283,
      "speci": 4284,
      "studio▁": 4285,
      "Wheeler▁": 4286,
      "ners▁": 4287,
      "ph▁": 4288,
      "pic": 4289,
      "enough▁": 4290,
      "expan": 4291,
      "includes▁": 4292,
      "might▁": 4293,
      "positions▁": 4294,
      "arrived▁": 4295,
      "History▁": 4296,
      "Pacific▁": 4297,
      "Awards▁": 4298,
      "Bill": 4299,
      "UK▁": 4300,
      "nature▁": 4301,
      "rat": 4302,
      "sla": 4303,
      "social▁": 4304,
      "army▁": 4305,
      "ord▁": 4306,
      "entary▁": 4307,
      "cations▁": 4308,
      "ducation▁": 4309,
      "secon": 4310,
      "priv": 4311,
      "moving▁": 4312,
      "remaining▁": 4313,
      "quarters▁": 4314,
      "Associ": 4315,
      "Canadian▁": 4316,
      "thedral▁": 4317,
      "Sing": 4318,
      "floo": 4319,
      "jour": 4320,
      "male▁": 4321,
      "active▁": 4322,
      "notes▁": 4323,
      "plat": 4324,
      "surr": 4325,
      "stein▁": 4326,
      "soldi": 4327,
      "Catho": 4328,
      "sometimes▁": 4329,
      "Navy▁": 4330,
      "San▁": 4331,
      "Tru": 4332,
      "kan▁": 4333,
      "tt": 4334,
      "cher▁": 4335,
      "rict▁": 4336,
      "chap": 4337,
      "required▁": 4338,
      "reviews▁": 4339,
      "docum": 4340,
      "approximately▁": 4341,
      "dam▁": 4342,
      "xon▁": 4343,
      "thus▁": 4344,
      "ara▁": 4345,
      "conc": 4346,
      "popul": 4347,
      "eting▁": 4348,
      "latter▁": 4349,
      "School▁": 4350,
      "ami▁": 4351,
      "2000▁": 4352,
      "past▁": 4353,
      "achel▁": 4354,
      "decision▁": 4355,
      "beginning▁": 4356,
      "ference▁": 4357,
      "Africa▁": 4358,
      "Brown▁": 4359,
      "Oly": 4360,
      "gl": 4361,
      "habit": 4362,
      "conv": 4363,
      "asked▁": 4364,
      "rang": 4365,
      "nee": 4366,
      "figh": 4367,
      "discovered▁": 4368,
      "running▁": 4369,
      "FA▁": 4370,
      "Red▁": 4371,
      "dium▁": 4372,
      "debut▁": 4373,
      "special▁": 4374,
      "pping▁": 4375,
      "Creek▁": 4376,
      "defeated▁": 4377,
      "Scient": 4378,
      "Pi": 4379,
      "hit▁": 4380,
      "lie▁": 4381,
      "additional▁": 4382,
      "ferred▁": 4383,
      "Jin▁": 4384,
      "Rachel▁": 4385,
      "sil": 4386,
      "ica▁": 4387,
      "positive▁": 4388,
      "metres▁": 4389,
      "response▁": 4390,
      "dated▁": 4391,
      "ens": 4392,
      "ought▁": 4393,
      "ites▁": 4394,
      "enting▁": 4395,
      "adron▁": 4396,
      "declar": 4397,
      "location▁": 4398,
      "larger▁": 4399,
      "constructed▁": 4400,
      "students▁": 4401,
      "Day▁": 4402,
      "fer▁": 4403,
      "food▁": 4404,
      "magazine▁": 4405,
      "ret▁": 4406,
      "ounding▁": 4407,
      "person▁": 4408,
      "crew▁": 4409,
      "supported▁": 4410,
      "changed▁": 4411,
      "idea▁": 4412,
      "Regiment▁": 4413,
      "better▁": 4414,
      "Award▁": 4415,
      "Met": 4416,
      "nes": 4417,
      "acqu": 4418,
      "depression▁": 4419,
      "probl": 4420,
      "sey▁": 4421,
      "pressure▁": 4422,
      "according▁": 4423,
      "fact▁": 4424,
      "police▁": 4425,
      "agreed▁": 4426,
      "hand": 4427,
      "vers▁": 4428,
      "score▁": 4429,
      "fig": 4430,
      "rick▁": 4431,
      "bridge▁": 4432,
      "Charles▁": 4433,
      "Lu": 4434,
      "Op": 4435,
      "lo▁": 4436,
      "rap": 4437,
      "emo": 4438,
      "shown▁": 4439,
      "That▁": 4440,
      "Mari": 4441,
      "tee▁": 4442,
      "1995▁": 4443,
      "capital▁": 4444,
      "certain▁": 4445,
      "comple": 4446,
      "Billboard▁": 4447,
      "Fer": 4448,
      "ials▁": 4449,
      "ser▁": 4450,
      "orial▁": 4451,
      "187": 4452,
      "selves▁": 4453,
      "future▁": 4454,
      "scho": 4455,
      "particular▁": 4456,
      "fleet▁": 4457,
      "3rd▁": 4458,
      "Peter▁": 4459,
      "program▁": 4460,
      "center▁": 4461,
      "emple▁": 4462,
      "provide▁": 4463,
      "difficult▁": 4464,
      "fifth▁": 4465,
      "Hall▁": 4466,
      "bing▁": 4467,
      "lack▁": 4468,
      "hou▁": 4469,
      "5th▁": 4470,
      "Do": 4471,
      "Oper": 4472,
      "Pe": 4473,
      "We▁": 4474,
      "gla": 4475,
      "rin": 4476,
      "reti": 4477,
      "amm": 4478,
      "extr": 4479,
      "esting▁": 4480,
      "surface▁": 4481,
      "feature▁": 4482,
      "draw▁": 4483,
      "Japan▁": 4484,
      "becoming▁": 4485,
      "Route▁": 4486,
      "Zealand▁": 4487,
      "FI": 4488,
      "frequ": 4489,
      "lec": 4490,
      "ising▁": 4491,
      "direct▁": 4492,
      "Cali": 4493,
      "Sm": 4494,
      "ads▁": 4495,
      "intended▁": 4496,
      "Olymp": 4497,
      "It": 4498,
      "Old▁": 4499,
      "wall▁": 4500,
      "anti": 4501,
      "amed▁": 4502,
      "pose▁": 4503,
      "alized▁": 4504,
      "smaller▁": 4505,
      "suppor": 4506,
      "stitute▁": 4507,
      "cycl": 4508,
      "tian▁": 4509,
      "ull▁": 4510,
      "anti▁": 4511,
      "groups▁": 4512,
      "explo": 4513,
      "summer▁": 4514,
      "Scientology▁": 4515,
      "33▁": 4516,
      "Bay▁": 4517,
      "Dis": 4518,
      "Tel": 4519,
      "Wat": 4520,
      "ben": 4521,
      "doms▁": 4522,
      "ka▁": 4523,
      "omet": 4524,
      "poor▁": 4525,
      "mostly▁": 4526,
      "commis": 4527,
      "Great▁": 4528,
      "themselves▁": 4529,
      "Haifa▁": 4530,
      "cm▁": 4531,
      "dom": 4532,
      "gan▁": 4533,
      "sley▁": 4534,
      "rag": 4535,
      "ques": 4536,
      "2016▁": 4537,
      "minutes▁": 4538,
      "office▁": 4539,
      "colon": 4540,
      "arian▁": 4541,
      "Comman": 4542,
      "captured▁": 4543,
      "media▁": 4544,
      "referred▁": 4545,
      "Ci": 4546,
      "No": 4547,
      "Sur": 4548,
      "Since▁": 4549,
      "Vic": 4550,
      "Western▁": 4551,
      "gen▁": 4552,
      "ky▁": 4553,
      "ption▁": 4554,
      "actu": 4555,
      "entered▁": 4556,
      "eph": 4557,
      "ffic▁": 4558,
      "Inf": 4559,
      "operation▁": 4560,
      "largely▁": 4561,
      "Angel": 4562,
      "material▁": 4563,
      "Association▁": 4564,
      "problems▁": 4565,
      "48▁": 4566,
      "Ben": 4567,
      "Off": 4568,
      "ep▁": 4569,
      "tivi": 4570,
      "ici": 4571,
      "progre": 4572,
      "coming▁": 4573,
      "ranked▁": 4574,
      "contem": 4575,
      "interest▁": 4576,
      "syl": 4577,
      "Isra": 4578,
      "temper": 4579,
      "Portu": 4580,
      "6th▁": 4581,
      "Ka": 4582,
      "Sev": 4583,
      "Var": 4584,
      "bly▁": 4585,
      "gir": 4586,
      "hu": 4587,
      "teen▁": 4588,
      "station▁": 4589,
      "acking▁": 4590,
      "div": 4591,
      "quick": 4592,
      "bia▁": 4593,
      "Carol": 4594,
      "ski▁": 4595,
      "Gul": 4596,
      "ma▁": 4597,
      "send▁": 4598,
      "election▁": 4599,
      "exam": 4600,
      "pus▁": 4601,
      "stories▁": 4602,
      "Sun▁": 4603,
      "Mont": 4604,
      "contains▁": 4605,
      "estig": 4606,
      "Califor": 4607,
      "32▁": 4608,
      "gar▁": 4609,
      "ied▁": 4610,
      "jected▁": 4611,
      "tons▁": 4612,
      "ya▁": 4613,
      "analy": 4614,
      "allow▁": 4615,
      "sters▁": 4616,
      "enty▁": 4617,
      "post▁": 4618,
      "contra": 4619,
      "sign▁": 4620,
      "appears▁": 4621,
      "1999▁": 4622,
      "critical▁": 4623,
      "Chic": 4624,
      "experience▁": 4625,
      "Ha": 4626,
      "Hill▁": 4627,
      "Port▁": 4628,
      "fy▁": 4629,
      "nis▁": 4630,
      "pha": 4631,
      "sent": 4632,
      "adop": 4633,
      "turn▁": 4634,
      "money▁": 4635,
      "effects▁": 4636,
      "particip": 4637,
      "celeb": 4638,
      "Galvest": 4639,
      "Croati": 4640,
      "contract▁": 4641,
      "Ano": 4642,
      "Bey": 4643,
      "Haw": 4644,
      "Kh": 4645,
      "Res": 4646,
      "Wel": 4647,
      "ban▁": 4648,
      "ee▁": 4649,
      "mur": 4650,
      "ox": 4651,
      "pon": 4652,
      "ray▁": 4653,
      "owl▁": 4654,
      "bodies▁": 4655,
      "musical▁": 4656,
      "create▁": 4657,
      "ishing▁": 4658,
      "voice▁": 4659,
      "majority▁": 4660,
      "Council▁": 4661,
      "current▁": 4662,
      "natural▁": 4663,
      "business▁": 4664,
      "47▁": 4665,
      "Cong": 4666,
      "don": 4667,
      "near": 4668,
      "leaving▁": 4669,
      "schol": 4670,
      "culture▁": 4671,
      "princ": 4672,
      "research▁": 4673,
      "But▁": 4674,
      "every": 4675,
      "professional▁": 4676,
      "Galveston▁": 4677,
      "Lou": 4678,
      "SA": 4679,
      "mel": 4680,
      "edit": 4681,
      "married▁": 4682,
      "dow": 4683,
      "plu": 4684,
      "tac": 4685,
      "del▁": 4686,
      "determin": 4687,
      "owler▁": 4688,
      "adap": 4689,
      "execu": 4690,
      "makes▁": 4691,
      "attrac": 4692,
      "primary▁": 4693,
      "Parliament▁": 4694,
      "engine": 4695,
      "Jewish▁": 4696,
      "Another▁": 4697,
      "36▁": 4698,
      "War": 4699,
      "yer▁": 4700,
      "int": 4701,
      "always▁": 4702,
      "lived▁": 4703,
      "det": 4704,
      "space▁": 4705,
      "Station▁": 4706,
      "tically▁": 4707,
      "feder": 4708,
      "shire▁": 4709,
      "aches▁": 4710,
      "gods▁": 4711,
      "films▁": 4712,
      "writers▁": 4713,
      "officers▁": 4714,
      "staff▁": 4715,
      "runs▁": 4716,
      "pass▁": 4717,
      "lyrics▁": 4718,
      "400▁": 4719,
      "Fur": 4720,
      "Pen": 4721,
      "gn": 4722,
      "ino▁": 4723,
      "takes▁": 4724,
      "Stor": 4725,
      "norm": 4726,
      "launched▁": 4727,
      "amount▁": 4728,
      "California▁": 4729,
      "Hav": 4730,
      "Jack▁": 4731,
      "ah▁": 4732,
      "ham": 4733,
      "sor": 4734,
      "antly▁": 4735,
      "assigned▁": 4736,
      "ume▁": 4737,
      "minute▁": 4738,
      "teams▁": 4739,
      "quickly▁": 4740,
      "39▁": 4741,
      "37▁": 4742,
      "Il": 4743,
      "ba▁": 4744,
      "mas▁": 4745,
      "urity▁": 4746,
      "und": 4747,
      "proposed▁": 4748,
      "avo": 4749,
      "episodes▁": 4750,
      "treat": 4751,
      "llery▁": 4752,
      "Richard▁": 4753,
      "occurred▁": 4754,
      "Hea": 4755,
      "If▁": 4756,
      "Lit": 4757,
      "pole▁": 4758,
      "proper": 4759,
      "whether▁": 4760,
      "exper": 4761,
      "shar": 4762,
      "pair▁": 4763,
      "Jos": 4764,
      "control": 4765,
      "increase▁": 4766,
      "sources▁": 4767,
      "atin▁": 4768,
      "mass▁": 4769,
      "daughter▁": 4770,
      "fighting▁": 4771,
      "Cu": 4772,
      "Del": 4773,
      "Lan": 4774,
      "Mat": 4775,
      "fans▁": 4776,
      "tially▁": 4777,
      "depar": 4778,
      "admi": 4779,
      "traffic▁": 4780,
      "cient▁": 4781,
      "Maj": 4782,
      "armed▁": 4783,
      "defeat▁": 4784,
      "destroyed▁": 4785,
      "Bec": 4786,
      "Ori": 4787,
      "Pet": 4788,
      "Span": 4789,
      "Tex": 4790,
      "ac▁": 4791,
      "dram": 4792,
      "mig": 4793,
      "ergy▁": 4794,
      "activi": 4795,
      "ich▁": 4796,
      "ishop▁": 4797,
      "entation▁": 4798,
      "Enter": 4799,
      "closed▁": 4800,
      "Central▁": 4801,
      "longer▁": 4802,
      "books▁": 4803,
      "knowle": 4804,
      "Chicago▁": 4805,
      "App": 4806,
      "Mey": 4807,
      "bra": 4808,
      "kel": 4809,
      "sound▁": 4810,
      "tives▁": 4811,
      "sides▁": 4812,
      "eau": 4813,
      "emer": 4814,
      "istic▁": 4815,
      "asp": 4816,
      "ady▁": 4817,
      "leave▁": 4818,
      "numbers▁": 4819,
      "Northern▁": 4820,
      "dical▁": 4821,
      "theme▁": 4822,
      "newsp": 4823,
      "Star▁": 4824,
      "competition▁": 4825,
      "nucle": 4826,
      "carried▁": 4827,
      "soldiers▁": 4828,
      "Alice▁": 4829,
      "les": 4830,
      "onic▁": 4831,
      "lations▁": 4832,
      "trade▁": 4833,
      "awarded▁": 4834,
      "servation▁": 4835,
      "Saint▁": 4836,
      "Fore": 4837,
      "Latin▁": 4838,
      "Ta": 4839,
      "blo": 4840,
      "bird▁": 4841,
      "crow": 4842,
      "done▁": 4843,
      "vel▁": 4844,
      "olution▁": 4845,
      "pain▁": 4846,
      "1998▁": 4847,
      "Light▁": 4848,
      "child▁": 4849,
      "directly▁": 4850,
      "conducted▁": 4851,
      "private▁": 4852,
      "Ever": 4853,
      "earned▁": 4854,
      "attacks▁": 4855,
      "ayl": 4856,
      "records▁": 4857,
      "Liver": 4858,
      "func": 4859,
      "subsequently▁": 4860,
      "7th▁": 4861,
      "Her▁": 4862,
      "Villa▁": 4863,
      "mir": 4864,
      "ention▁": 4865,
      "itation▁": 4866,
      "ile▁": 4867,
      "20th▁": 4868,
      "president▁": 4869,
      "tains▁": 4870,
      "plans▁": 4871,
      "cause▁": 4872,
      "ides▁": 4873,
      "Alkan▁": 4874,
      "forming▁": 4875,
      "got▁": 4876,
      "source▁": 4877,
      "issued▁": 4878,
      "Brad": 4879,
      "radio▁": 4880,
      "piece▁": 4881,
      "tournam": 4882,
      "Itali": 4883,
      "Der": 4884,
      "Penn": 4885,
      "Rock▁": 4886,
      "ians▁": 4887,
      "mom": 4888,
      "mental▁": 4889,
      "ny▁": 4890,
      "ois▁": 4891,
      "report▁": 4892,
      "onto▁": 4893,
      "did": 4894,
      "bel▁": 4895,
      "irs▁": 4896,
      "vili": 4897,
      "overall▁": 4898,
      "command▁": 4899,
      "commented▁": 4900,
      "prior▁": 4901,
      "edy▁": 4902,
      "interview▁": 4903,
      "1993▁": 4904,
      "Polish▁": 4905,
      "break▁": 4906,
      "phic▁": 4907,
      "influence▁": 4908,
      "Somer": 4909,
      "industry▁": 4910,
      "after": 4911,
      "Pu": 4912,
      "know▁": 4913,
      "vely▁": 4914,
      "emy▁": 4915,
      "administ": 4916,
      "buri": 4917,
      "nest▁": 4918,
      "fiel": 4919,
      "finally▁": 4920,
      "quarter▁": 4921,
      "Nixon▁": 4922,
      "multi": 4923,
      "Liverpool▁": 4924,
      "Clu": 4925,
      "Tran": 4926,
      "aging▁": 4927,
      "whole▁": 4928,
      "mark▁": 4929,
      "greater▁": 4930,
      "scenes▁": 4931,
      "orities▁": 4932,
      "necess": 4933,
      "power": 4934,
      "compared▁": 4935,
      "double▁": 4936,
      "network▁": 4937,
      "Dan": 4938,
      "Its▁": 4939,
      "Jam": 4940,
      "Oma": 4941,
      "edi": 4942,
      "tun": 4943,
      "refl": 4944,
      "ittee▁": 4945,
      "sici": 4946,
      "unable▁": 4947,
      "escap": 4948,
      "poten": 4949,
      "casu": 4950,
      "gian▁": 4951,
      "purcha": 4952,
      "Texas▁": 4953,
      "aylor▁": 4954,
      "49▁": 4955,
      "Air▁": 4956,
      "Lady▁": 4957,
      "Pit": 4958,
      "cing▁": 4959,
      "car▁": 4960,
      "sa▁": 4961,
      "ught▁": 4962,
      "yet▁": 4963,
      "deal▁": 4964,
      "Studi": 4965,
      "eigh": 4966,
      "buildings▁": 4967,
      "concert▁": 4968,
      "status▁": 4969,
      "sylv": 4970,
      "Somerset▁": 4971,
      "Law": 4972,
      "bran": 4973,
      "ez▁": 4974,
      "la▁": 4975,
      "sli": 4976,
      "intel": 4977,
      "centre▁": 4978,
      "accep": 4979,
      "Mosley▁": 4980,
      "advant": 4981,
      "course▁": 4982,
      "Battle▁": 4983,
      "Spec": 4984,
      "Tropical▁": 4985,
      "Tenn": 4986,
      "cen": 4987,
      "information▁": 4988,
      "oul": 4989,
      "alty▁": 4990,
      "actor▁": 4991,
      "living▁": 4992,
      "poss": 4993,
      "party▁": 4994,
      "1996▁": 4995,
      "heavi": 4996,
      "begins▁": 4997,
      "brother▁": 4998,
      "legal▁": 4999,
      "Republic▁": 5000,
      "conflic": 5001,
      "Busch▁": 5002,
      "9th▁": 5003,
      "Hum": 5004,
      "Sal": 5005,
      "cell▁": 5006,
      "gri": 5007,
      "hus": 5008,
      "ency▁": 5009,
      "alties▁": 5010,
      "deb": 5011,
      "dedic": 5012,
      "terms▁": 5013,
      "giving▁": 5014,
      "fail": 5015,
      "smis": 5016,
      "sioned▁": 5017,
      "meaning▁": 5018,
      "Fri": 5019,
      "La": 5020,
      "Lake▁": 5021,
      "Taylor▁": 5022,
      "gas▁": 5023,
      "ight▁": 5024,
      "ities▁": 5025,
      "pre▁": 5026,
      "sop": 5027,
      "think▁": 5028,
      "onc": 5029,
      "sty▁": 5030,
      "ecting▁": 5031,
      "chester▁": 5032,
      "aband": 5033,
      "shing▁": 5034,
      "dering▁": 5035,
      "minor▁": 5036,
      "Ross▁": 5037,
      "counter": 5038,
      "movement▁": 5039,
      "ilities▁": 5040,
      "marriage▁": 5041,
      "Christmas▁": 5042,
      "inspired▁": 5043,
      "Spanish▁": 5044,
      "Cour": 5045,
      "Fowler▁": 5046,
      "Gam": 5047,
      "My▁": 5048,
      "gro": 5049,
      "ress▁": 5050,
      "alle": 5051,
      "dest▁": 5052,
      "raised▁": 5053,
      "traditional▁": 5054,
      "bery▁": 5055,
      "helped▁": 5056,
      "ordin": 5057,
      "planned▁": 5058,
      "reveal": 5059,
      "associated▁": 5060,
      "activity▁": 5061,
      "Several▁": 5062,
      "dead▁": 5063,
      "ón▁": 5064,
      "forts▁": 5065,
      "ultim": 5066,
      "see": 5067,
      "Three▁": 5068,
      "tracks▁": 5069,
      "hosp": 5070,
      "Rose": 5071,
      "starting▁": 5072,
      "embly▁": 5073,
      "effect▁": 5074,
      "sequence▁": 5075,
      "suffered▁": 5076,
      "African▁": 5077,
      "Sovi": 5078,
      "machine▁": 5079,
      "schools▁": 5080,
      "300▁": 5081,
      "42▁": 5082,
      "Go": 5083,
      "Gol": 5084,
      "eless▁": 5085,
      "illu": 5086,
      "conver": 5087,
      "agon": 5088,
      "assa": 5089,
      "presence▁": 5090,
      "finan": 5091,
      "meant▁": 5092,
      "struction▁": 5093,
      "venue▁": 5094,
      "allowing▁": 5095,
      "performances▁": 5096,
      "Earth▁": 5097,
      "figure▁": 5098,
      "Infantry▁": 5099,
      "How": 5100,
      "covered▁": 5101,
      "gent": 5102,
      "kin": 5103,
      "unit▁": 5104,
      "condoms▁": 5105,
      "chall": 5106,
      "compu": 5107,
      "leg▁": 5108,
      "incor": 5109,
      "cast": 5110,
      "presented▁": 5111,
      "Mark▁": 5112,
      "Party▁": 5113,
      "continue▁": 5114,
      "Series▁": 5115,
      "peak▁": 5116,
      "broadcast▁": 5117,
      "Gar": 5118,
      "Hun": 5119,
      "Rel": 5120,
      "ae▁": 5121,
      "batter": 5122,
      "oned▁": 5123,
      "ext": 5124,
      "gures▁": 5125,
      "Ander": 5126,
      "genus▁": 5127,
      "touch": 5128,
      "companies▁": 5129,
      "greatest▁": 5130,
      "Fo": 5131,
      "NA▁": 5132,
      "education▁": 5133,
      "upper▁": 5134,
      "confir": 5135,
      "shel": 5136,
      "ginia▁": 5137,
      "Virginia▁": 5138,
      "Carolina▁": 5139,
      "nearby▁": 5140,
      "Pennsylv": 5141,
      "lights▁": 5142,
      "die▁": 5143,
      "theat": 5144,
      "vie▁": 5145,
      "image▁": 5146,
      "Live▁": 5147,
      "extended▁": 5148,
      "collection▁": 5149,
      "cyclone▁": 5150,
      "found": 5151,
      "pun": 5152,
      "acting▁": 5153,
      "composed▁": 5154,
      "figures▁": 5155,
      "anger▁": 5156,
      "annual▁": 5157,
      "services▁": 5158,
      "College▁": 5159,
      "expected▁": 5160,
      "friends▁": 5161,
      "sense▁": 5162,
      "sumed▁": 5163,
      "commander▁": 5164,
      "proteins▁": 5165,
      "Catholic▁": 5166,
      "0th▁": 5167,
      "Fort▁": 5168,
      "bury▁": 5169,
      "hop": 5170,
      "things▁": 5171,
      "really▁": 5172,
      "reach▁": 5173,
      "alled▁": 5174,
      "sic": 5175,
      "assi": 5176,
      "guitar▁": 5177,
      "cathedral▁": 5178,
      "1997▁": 5179,
      "numerous▁": 5180,
      "producer▁": 5181,
      "territory▁": 5182,
      "Beyonc": 5183,
      "Beyoncé▁": 5184,
      "Pat": 5185,
      "fell▁": 5186,
      "mitted▁": 5187,
      "ans": 5188,
      "ere": 5189,
      "rep": 5190,
      "enjo": 5191,
      "stand▁": 5192,
      "cav": 5193,
      "Germany▁": 5194,
      "distinc": 5195,
      "something▁": 5196,
      "Miami▁": 5197,
      "personal▁": 5198,
      "Second▁": 5199,
      "vocals▁": 5200,
      "44▁": 5201,
      "Aca": 5202,
      "Don": 5203,
      "Dou": 5204,
      "Nations▁": 5205,
      "cric": 5206,
      "plot▁": 5207,
      "ambi": 5208,
      "division▁": 5209,
      "eman▁": 5210,
      "attacked▁": 5211,
      "tival▁": 5212,
      "ception▁": 5213,
      "Service▁": 5214,
      "nuclear▁": 5215,
      "standard▁": 5216,
      "Club▁": 5217,
      "dea": 5218,
      "unity▁": 5219,
      "owned▁": 5220,
      "promin": 5221,
      "vic▁": 5222,
      "rough▁": 5223,
      "highly▁": 5224,
      "responsible▁": 5225,
      "attempts▁": 5226,
      "morning▁": 5227,
      "scienti": 5228,
      "Their▁": 5229,
      "archit": 5230,
      "34▁": 5231,
      "Hal": 5232,
      "Kar": 5233,
      "ium▁": 5234,
      "mus": 5235,
      "ner": 5236,
      "sets▁": 5237,
      "thir": 5238,
      "disea": 5239,
      "scoring▁": 5240,
      "specific▁": 5241,
      "ssing▁": 5242,
      "distance▁": 5243,
      "immediately▁": 5244,
      "admium▁": 5245,
      "Pennsylvania▁": 5246,
      "11": 5247,
      "43▁": 5248,
      "Year▁": 5249,
      "bb": 5250,
      "flu": 5251,
      "kets▁": 5252,
      "inside▁": 5253,
      "removed▁": 5254,
      "demy▁": 5255,
      "beer▁": 5256,
      "rup": 5257,
      "secu": 5258,
      "god▁": 5259,
      "piano▁": 5260,
      "Paris▁": 5261,
      "pursu": 5262,
      "initial▁": 5263,
      "studies▁": 5264,
      "Squadron▁": 5265,
      "situation▁": 5266,
      "Ga": 5267,
      "jum": 5268,
      "mol": 5269,
      "ody▁": 5270,
      "ues▁": 5271,
      "web": 5272,
      "weight▁": 5273,
      "portion▁": 5274,
      "overy▁": 5275,
      "offered▁": 5276,
      "selected▁": 5277,
      "subject▁": 5278,
      "investig": 5279,
      "singer▁": 5280,
      "tress▁": 5281,
      "variety▁": 5282,
      "ribution▁": 5283,
      "artillery▁": 5284,
      "weap": 5285,
      "peaked▁": 5286,
      "Scotland▁": 5287,
      "speed▁": 5288,
      "needed▁": 5289,
      "Storm▁": 5290,
      "8th▁": 5291,
      "Bol": 5292,
      "Ram": 5293,
      "Sam": 5294,
      "We": 5295,
      "au▁": 5296,
      "call▁": 5297,
      "kno": 5298,
      "nings▁": 5299,
      "sound": 5300,
      "iny▁": 5301,
      "anas": 5302,
      "rule▁": 5303,
      "percent▁": 5304,
      "means▁": 5305,
      "1991▁": 5306,
      "countries▁": 5307,
      "claim▁": 5308,
      "famili": 5309,
      "Chris▁": 5310,
      "houses▁": 5311,
      "attempted▁": 5312,
      "artist▁": 5313,
      "copies▁": 5314,
      "individual▁": 5315,
      "headquarters▁": 5316,
      "Depar": 5317,
      "Museum▁": 5318,
      "fect▁": 5319,
      "gar": 5320,
      "ut▁": 5321,
      "resc": 5322,
      "arity▁": 5323,
      "demo": 5324,
      "constitu": 5325,
      "ashi": 5326,
      "extre": 5327,
      "China▁": 5328,
      "says▁": 5329,
      "All": 5330,
      "com▁": 5331,
      "coach▁": 5332,
      "Colon": 5333,
      "appearances▁": 5334,
      "Los▁": 5335,
      "respectively▁": 5336,
      "Revi": 5337,
      "widely▁": 5338,
      "Games▁": 5339,
      "Lar": 5340,
      "Nes": 5341,
      "Tour▁": 5342,
      "rein": 5343,
      "manu": 5344,
      "tradition▁": 5345,
      "strong": 5346,
      "essa▁": 5347,
      "Both▁": 5348,
      "describes▁": 5349,
      "higher▁": 5350,
      "free": 5351,
      "Anderson▁": 5352,
      "Department▁": 5353,
      "Football▁": 5354,
      "Sla": 5355,
      "middle▁": 5356,
      "chem": 5357,
      "1992▁": 5358,
      "ologist▁": 5359,
      "public": 5360,
      "observed▁": 5361,
      "reason▁": 5362,
      "sky▁": 5363,
      "Colum": 5364,
      "completely▁": 5365,
      "author▁": 5366,
      "Corps▁": 5367,
      "equi": 5368,
      "lightly▁": 5369,
      "strength▁": 5370,
      "powerful▁": 5371,
      "heavily▁": 5372,
      "canc": 5373,
      "jud": 5374,
      "san": 5375,
      "xenon▁": 5376,
      "reduced▁": 5377,
      "prof": 5378,
      "apo▁": 5379,
      "managed▁": 5380,
      "deri": 5381,
      "serves▁": 5382,
      "story": 5383,
      "meeting▁": 5384,
      "lock▁": 5385,
      "1994▁": 5386,
      "gain▁": 5387,
      "matches▁": 5388,
      "below▁": 5389,
      "design": 5390,
      "metal▁": 5391,
      "look▁": 5392,
      "true▁": 5393,
      "Open▁": 5394,
      "AA▁": 5395,
      "Clar": 5396,
      "Han": 5397,
      "Mary▁": 5398,
      "ko": 5399,
      "kly▁": 5400,
      "rhy": 5401,
      "sun": 5402,
      "alo": 5403,
      "demon": 5404,
      "assist": 5405,
      "opport": 5406,
      "rical▁": 5407,
      "primar": 5408,
      "Like▁": 5409,
      "faced▁": 5410,
      "advance▁": 5411,
      "resulted▁": 5412,
      "burn▁": 5413,
      "Queen▁": 5414,
      "sites▁": 5415,
      "Minnes": 5416,
      "parents▁": 5417,
      "audience▁": 5418,
      "concluded▁": 5419,
      "sixth▁": 5420,
      "Jackson▁": 5421,
      "Major▁": 5422,
      "Minnesota▁": 5423,
      "53▁": 5424,
      "Lab": 5425,
      "MS▁": 5426,
      "clear▁": 5427,
      "flight▁": 5428,
      "hour▁": 5429,
      "mun": 5430,
      "wing▁": 5431,
      "wit": 5432,
      "stay▁": 5433,
      "accompan": 5434,
      "elled▁": 5435,
      "elected▁": 5436,
      "desi": 5437,
      "enter▁": 5438,
      "tar▁": 5439,
      "cost▁": 5440,
      "nam▁": 5441,
      "plays▁": 5442,
      "akapo▁": 5443,
      "Franc": 5444,
      "Force▁": 5445,
      "birth▁": 5446,
      "Time▁": 5447,
      "Center▁": 5448,
      "viron": 5449,
      "titled▁": 5450,
      "activities▁": 5451,
      "Meyer": 5452,
      "Bul": 5453,
      "core▁": 5454,
      "lined▁": 5455,
      "say▁": 5456,
      "anced▁": 5457,
      "stating▁": 5458,
      "quality▁": 5459,
      "High▁": 5460,
      "there": 5461,
      "kilomet": 5462,
      "Film▁": 5463,
      "Southern▁": 5464,
      "write▁": 5465,
      "Townsend▁": 5466,
      "declared▁": 5467,
      "contemporary▁": 5468,
      "revealed▁": 5469,
      "Rosebery▁": 5470,
      "51▁": 5471,
      "Emp": 5472,
      "bat": 5473,
      "hard▁": 5474,
      "health▁": 5475,
      "rating▁": 5476,
      "sm▁": 5477,
      "sely▁": 5478,
      "zer▁": 5479,
      "tified▁": 5480,
      "onym": 5481,
      "acted▁": 5482,
      "dian▁": 5483,
      "rain▁": 5484,
      "post": 5485,
      "part": 5486,
      "trees▁": 5487,
      "levels▁": 5488,
      "types▁": 5489,
      "McC": 5490,
      "historical▁": 5491,
      "refused▁": 5492,
      "techni": 5493,
      "separate▁": 5494,
      "account▁": 5495,
      "Hawai": 5496,
      "AS": 5497,
      "Dist": 5498,
      "He": 5499,
      "Ly": 5500,
      "Ven": 5501,
      "hood▁": 5502,
      "zy▁": 5503,
      "deep▁": 5504,
      "ado▁": 5505,
      "overs▁": 5506,
      "words▁": 5507,
      "sex▁": 5508,
      "host▁": 5509,
      "1970▁": 5510,
      "issues▁": 5511,
      "Finkel": 5512,
      "Walpole▁": 5513,
      "sexual▁": 5514,
      "Because▁": 5515,
      "husband▁": 5516,
      "Meyerbeer▁": 5517,
      "Finkelstein▁": 5518,
      "55▁": 5519,
      "61▁": 5520,
      "CE▁": 5521,
      "Er": 5522,
      "Ott": 5523,
      "Sun": 5524,
      "Tessa▁": 5525,
      "hanna▁": 5526,
      "thick▁": 5527,
      "real": 5528,
      "spir": 5529,
      "recent▁": 5530,
      "peror▁": 5531,
      "need▁": 5532,
      "today▁": 5533,
      "offensive▁": 5534,
      "ister▁": 5535,
      "gained▁": 5536,
      "university▁": 5537,
      "featuring▁": 5538,
      "approach▁": 5539,
      "typically▁": 5540,
      "water": 5541,
      "favor": 5542,
      "titles▁": 5543,
      "Shiva▁": 5544,
      "Dem": 5545,
      "Society▁": 5546,
      "Yue▁": 5547,
      "flan": 5548,
      "ots▁": 5549,
      "arm▁": 5550,
      "conditions▁": 5551,
      "exclu": 5552,
      "quali": 5553,
      "versi": 5554,
      "idge▁": 5555,
      "civili": 5556,
      "charge▁": 5557,
      "esses▁": 5558,
      "antas": 5559,
      "Super▁": 5560,
      "hands▁": 5561,
      "doub": 5562,
      "vehi": 5563,
      "Nicole▁": 5564,
      "Illin": 5565,
      "Ottoman▁": 5566,
      "Bre": 5567,
      "Cross▁": 5568,
      "Sen": 5569,
      "havi": 5570,
      "appe": 5571,
      "ulp": 5572,
      "reception▁": 5573,
      "attention▁": 5574,
      "ident▁": 5575,
      "mile▁": 5576,
      "ricul": 5577,
      "prise▁": 5578,
      "edge▁": 5579,
      "eeded▁": 5580,
      "efforts▁": 5581,
      "ipal▁": 5582,
      "organized▁": 5583,
      "mainly▁": 5584,
      "becomes▁": 5585,
      "tainment▁": 5586,
      "Cl": 5587,
      "May": 5588,
      "bon": 5589,
      "cles▁": 5590,
      "get": 5591,
      "ix▁": 5592,
      "instru": 5593,
      "stems▁": 5594,
      "condom▁": 5595,
      "produce▁": 5596,
      "ingu": 5597,
      "maxim": 5598,
      "specim": 5599,
      "strugg": 5600,
      "build▁": 5601,
      "athens▁": 5602,
      "divided▁": 5603,
      "Braathens▁": 5604,
      "affected▁": 5605,
      "residents▁": 5606,
      "Highway▁": 5607,
      "Italian▁": 5608,
      "Vo": 5609,
      "Wood": 5610,
      "fly▁": 5611,
      "arms▁": 5612,
      "amb": 5613,
      "timony▁": 5614,
      "cred": 5615,
      "struck▁": 5616,
      "calling▁": 5617,
      "award▁": 5618,
      "infall▁": 5619,
      "unities▁": 5620,
      "mentioned▁": 5621,
      "Sea▁": 5622,
      "practice▁": 5623,
      "actually▁": 5624,
      "incorpor": 5625,
      "Blue▁": 5626,
      "Gla": 5627,
      "Grou": 5628,
      "blue▁": 5629,
      "ex▁": 5630,
      "kh": 5631,
      "mouth▁": 5632,
      "insul": 5633,
      "roles▁": 5634,
      "dig": 5635,
      "rail": 5636,
      "iser▁": 5637,
      "fight▁": 5638,
      "serving▁": 5639,
      "finals▁": 5640,
      "seasons▁": 5641,
      "1990▁": 5642,
      "cannot▁": 5643,
      "achieved▁": 5644,
      "protein▁": 5645,
      "Johnson▁": 5646,
      "Smith▁": 5647,
      "Portugu": 5648,
      "accepted▁": 5649,
      "BA▁": 5650,
      "Bon": 5651,
      "Cas": 5652,
      "nh▁": 5653,
      "institu": 5654,
      "ano": 5655,
      "rit▁": 5656,
      "edly▁": 5657,
      "follow▁": 5658,
      "fiction▁": 5659,
      "Mont▁": 5660,
      "circu": 5661,
      "difficul": 5662,
      "advantage▁": 5663,
      "Soviet▁": 5664,
      "designated▁": 5665,
      "Portuguese▁": 5666,
      "41▁": 5667,
      "Fa": 5668,
      "Fam": 5669,
      "Fle": 5670,
      "Pan": 5671,
      "Tin": 5672,
      "Thi": 5673,
      "cli": 5674,
      "dary▁": 5675,
      "eth": 5676,
      "gin▁": 5677,
      "want▁": 5678,
      "arding▁": 5679,
      "ura▁": 5680,
      "adver": 5681,
      "pop▁": 5682,
      "sculp": 5683,
      "bot": 5684,
      "paid▁": 5685,
      "essor▁": 5686,
      "ongside▁": 5687,
      "Direc": 5688,
      "echan": 5689,
      "ella▁": 5690,
      "communic": 5691,
      "drawn▁": 5692,
      "Government▁": 5693,
      "Academy▁": 5694,
      "primarily▁": 5695,
      "Of▁": 5696,
      "Wee": 5697,
      "foot▁": 5698,
      "stic▁": 5699,
      "slightly▁": 5700,
      "ty": 5701,
      "rer▁": 5702,
      "sister▁": 5703,
      "rights▁": 5704,
      "lob": 5705,
      "scale▁": 5706,
      "tations▁": 5707,
      "twenty▁": 5708,
      "Thunder": 5709,
      "aliz": 5710,
      "1986▁": 5711,
      "infantry▁": 5712,
      "remain▁": 5713,
      "Eli": 5714,
      "Mog": 5715,
      "Rock": 5716,
      "Spain▁": 5717,
      "ri▁": 5718,
      "yel": 5719,
      "inches▁": 5720,
      "concent": 5721,
      "expressed▁": 5722,
      "tail▁": 5723,
      "neu": 5724,
      "box▁": 5725,
      "obj": 5726,
      "job▁": 5727,
      "bitt▁": 5728,
      "Prince▁": 5729,
      "Captain▁": 5730,
      "Victor": 5731,
      "Bet": 5732,
      "Cul": 5733,
      "Fey▁": 5734,
      "gate▁": 5735,
      "pag": 5736,
      "itch": 5737,
      "estic▁": 5738,
      "susta": 5739,
      "visit▁": 5740,
      "excav": 5741,
      "transpor": 5742,
      "access▁": 5743,
      "officer▁": 5744,
      "looking▁": 5745,
      "Frank▁": 5746,
      "relief▁": 5747,
      "showed▁": 5748,
      "Horse▁": 5749,
      "script▁": 5750,
      "Vietnam▁": 5751,
      "neigh": 5752,
      "Court▁": 5753,
      "64▁": 5754,
      "Cat": 5755,
      "Sir▁": 5756,
      "Young▁": 5757,
      "Zhou▁": 5758,
      "cks▁": 5759,
      "kind▁": 5760,
      "recomm": 5761,
      "itu": 5762,
      "dissi": 5763,
      "iss": 5764,
      "conven": 5765,
      "prov": 5766,
      "county▁": 5767,
      "cerem": 5768,
      "battalion▁": 5769,
      "prin": 5770,
      "themes▁": 5771,
      "represented▁": 5772,
      "Act▁": 5773,
      "combined▁": 5774,
      "complex▁": 5775,
      "Varanas": 5776,
      "Welsh▁": 5777,
      "Empire▁": 5778,
      "onymous▁": 5779,
      "Tintin▁": 5780,
      "Varanasi▁": 5781,
      "46▁": 5782,
      "65▁": 5783,
      "Gor": 5784,
      "ML▁": 5785,
      "Mus": 5786,
      "Oda": 5787,
      "SR▁": 5788,
      "bin": 5789,
      "bat▁": 5790,
      "cle": 5791,
      "ees▁": 5792,
      "founded▁": 5793,
      "ging▁": 5794,
      "keep▁": 5795,
      "tel▁": 5796,
      "enath": 5797,
      "list": 5798,
      "ills▁": 5799,
      "entran": 5800,
      "exhi": 5801,
      "expl": 5802,
      "ape▁": 5803,
      "boat▁": 5804,
      "Though▁": 5805,
      "strated▁": 5806,
      "doing▁": 5807,
      "observ": 5808,
      "union▁": 5809,
      "places▁": 5810,
      "cultural▁": 5811,
      "casualties▁": 5812,
      "Nesbitt▁": 5813,
      "Odaenath": 5814,
      "Eva▁": 5815,
      "Mul": 5816,
      "RA▁": 5817,
      "Yank": 5818,
      "aj": 5819,
      "m2▁": 5820,
      "mes▁": 5821,
      "mine▁": 5822,
      "net▁": 5823,
      "uk": 5824,
      "vey▁": 5825,
      "wen▁": 5826,
      "yers▁": 5827,
      "iness▁": 5828,
      "ancient▁": 5829,
      "repe": 5830,
      "alone▁": 5831,
      "stop": 5832,
      "rich▁": 5833,
      "bul": 5834,
      "tionary▁": 5835,
      "workers▁": 5836,
      "door▁": 5837,
      "berg▁": 5838,
      "eye▁": 5839,
      "continues▁": 5840,
      "weak": 5841,
      "earliest▁": 5842,
      "science▁": 5843,
      "prevent▁": 5844,
      "Angeles▁": 5845,
      "Israel▁": 5846,
      "newspaper▁": 5847,
      "Odaenathus▁": 5848,
      "Meg": 5849,
      "Ob": 5850,
      "Tom": 5851,
      "Up": 5852,
      "ational▁": 5853,
      "mic": 5854,
      "sales▁": 5855,
      "tower▁": 5856,
      "debu": 5857,
      "serious▁": 5858,
      "18th▁": 5859,
      "market▁": 5860,
      "aria▁": 5861,
      "Engine": 5862,
      "officially▁": 5863,
      "resulting▁": 5864,
      "orders▁": 5865,
      "authorities▁": 5866,
      "Hot▁": 5867,
      "artists▁": 5868,
      "Records▁": 5869,
      "letters▁": 5870,
      "DuMont▁": 5871,
      "influenced▁": 5872,
      "identified▁": 5873,
      "Sarnia▁": 5874,
      "flooding▁": 5875,
      "Olympic▁": 5876,
      "adopted▁": 5877,
      "Little▁": 5878,
      "disease▁": 5879,
      "manufac": 5880,
      "150▁": 5881,
      "Bor": 5882,
      "Cast": 5883,
      "Dj": 5884,
      "East": 5885,
      "Land▁": 5886,
      "Mr▁": 5887,
      "Wash": 5888,
      "care▁": 5889,
      "cross▁": 5890,
      "thin▁": 5891,
      "reports▁": 5892,
      "rol": 5893,
      "sively▁": 5894,
      "proved▁": 5895,
      "apparen": 5896,
      "earth": 5897,
      "tices▁": 5898,
      "feel": 5899,
      "meet▁": 5900,
      "viewers▁": 5901,
      "displa": 5902,
      "Simp": 5903,
      "basis▁": 5904,
      "background▁": 5905,
      "impact▁": 5906,
      "Illinois▁": 5907,
      "Ath": 5908,
      "San": 5909,
      "ca▁": 5910,
      "if": 5911,
      "lin▁": 5912,
      "mechan": 5913,
      "nin": 5914,
      "paper▁": 5915,
      "test▁": 5916,
      "wel": 5917,
      "za▁": 5918,
      "hip▁": 5919,
      "acts▁": 5920,
      "urch": 5921,
      "shore▁": 5922,
      "uled▁": 5923,
      "premi": 5924,
      "perman": 5925,
      "Chron": 5926,
      "strat": 5927,
      "ayed▁": 5928,
      "begin▁": 5929,
      "tribu": 5930,
      "North": 5931,
      "broken▁": 5932,
      "Wilhel": 5933,
      "defense▁": 5934,
      "toward▁": 5935,
      "Manchester▁": 5936,
      "square▁": 5937,
      "determined▁": 5938,
      "tournament▁": 5939,
      "soundtrack▁": 5940,
      "95▁": 5941,
      "Home▁": 5942,
      "cin": 5943,
      "fted▁": 5944,
      "kakapo▁": 5945,
      "youn": 5946,
      "encou": 5947,
      "alongside▁": 5948,
      "lives▁": 5949,
      "oppon": 5950,
      "except▁": 5951,
      "And▁": 5952,
      "dow▁": 5953,
      "mond▁": 5954,
      "monum": 5955,
      "torpe": 5956,
      "eball▁": 5957,
      "critic▁": 5958,
      "tried▁": 5959,
      "capture▁": 5960,
      "regim": 5961,
      "relatively▁": 5962,
      "Black": 5963,
      "electr": 5964,
      "blood▁": 5965,
      "dedicated▁": 5966,
      "Washington▁": 5967,
      "RA": 5968,
      "Rol": 5969,
      "Sum": 5970,
      "aid▁": 5971,
      "cadmium▁": 5972,
      "edition▁": 5973,
      "mid": 5974,
      "pes▁": 5975,
      "sac": 5976,
      "environ": 5977,
      "roman": 5978,
      "actors▁": 5979,
      "older▁": 5980,
      "isation▁": 5981,
      "chor": 5982,
      "losing▁": 5983,
      "ulated▁": 5984,
      "attended▁": 5985,
      "cities▁": 5986,
      "empha": 5987,
      "dress▁": 5988,
      "direction▁": 5989,
      "1988▁": 5990,
      "deplo": 5991,
      "wind▁": 5992,
      "soli": 5993,
      "adish": 5994,
      "transferred▁": 5995,
      "street▁": 5996,
      "individuals▁": 5997,
      "physical▁": 5998,
      "Alab": 5999,
      "Don▁": 6000,
      "patter": 6001,
      "behavi": 6002,
      "concept▁": 6003,
      "opposed▁": 6004,
      "shoo": 6005,
      "worth▁": 6006,
      "boats▁": 6007,
      "Mary": 6008,
      "effort▁": 6009,
      "officials▁": 6010,
      "brea": 6011,
      "surrounding▁": 6012,
      "Omaha▁": 6013,
      "castle▁": 6014,
      "Mogadish": 6015,
      "Alabama▁": 6016,
      "Bran": 6017,
      "Dest": 6018,
      "Hom": 6019,
      "Sol": 6020,
      "rush": 6021,
      "oration▁": 6022,
      "energy▁": 6023,
      "rainfall▁": 6024,
      "ete▁": 6025,
      "lem▁": 6026,
      "color▁": 6027,
      "camp▁": 6028,
      "possibly▁": 6029,
      "knowledge▁": 6030,
      "neutr": 6031,
      "Back": 6032,
      "Win": 6033,
      "society▁": 6034,
      "restor": 6035,
      "stop▁": 6036,
      "emed▁": 6037,
      "timore▁": 6038,
      "Independ": 6039,
      "Innis▁": 6040,
      "essing▁": 6041,
      "Argent": 6042,
      "follows▁": 6043,
      "Const": 6044,
      "1940▁": 6045,
      "1960s▁": 6046,
      "intensity▁": 6047,
      "Perón▁": 6048,
      "Reception▁": 6049,
      "shape▁": 6050,
      "northeast▁": 6051,
      "shortly▁": 6052,
      "focus▁": 6053,
      "Helms▁": 6054,
      "Ceres▁": 6055,
      "financial▁": 6056,
      "Group▁": 6057,
      "dissip": 6058,
      "Mogadishu▁": 6059,
      "Dun": 6060,
      "Jour": 6061,
      "Kra": 6062,
      "Lis": 6063,
      "Lord▁": 6064,
      "kare▁": 6065,
      "pal": 6066,
      "slow": 6067,
      "ria▁": 6068,
      "lis▁": 6069,
      "earing▁": 6070,
      "images▁": 6071,
      "security▁": 6072,
      "albums▁": 6073,
      "1980s▁": 6074,
      "1964▁": 6075,
      "Histor": 6076,
      "dams▁": 6077,
      "athlet": 6078,
      "believ": 6079,
      "legis": 6080,
      "poly": 6081,
      "Edward▁": 6082,
      "simply▁": 6083,
      "maximum▁": 6084,
      "Wilhelm▁": 6085,
      "600▁": 6086,
      "96▁": 6087,
      "Dr▁": 6088,
      "eth▁": 6089,
      "gby▁": 6090,
      "kept▁": 6091,
      "tol": 6092,
      "west": 6093,
      "inch▁": 6094,
      "enture▁": 6095,
      "aggre": 6096,
      "ask▁": 6097,
      "comedy▁": 6098,
      "eph▁": 6099,
      "interpre": 6100,
      "systems▁": 6101,
      "borough▁": 6102,
      "Ocean▁": 6103,
      "ipment▁": 6104,
      "increasing▁": 6105,
      "successfully▁": 6106,
      "visited▁": 6107,
      "management▁": 6108,
      "Assembly▁": 6109,
      "Mount▁": 6110,
      "pieces▁": 6111,
      "wave▁": 6112,
      "girl▁": 6113,
      "Joseph▁": 6114,
      "buried▁": 6115,
      "necessary▁": 6116,
      "potential▁": 6117,
      "Dre": 6118,
      "Kil": 6119,
      "Kore": 6120,
      "Mur": 6121,
      "Town▁": 6122,
      "eet▁": 6123,
      "etic▁": 6124,
      "foun": 6125,
      "ores▁": 6126,
      "pay▁": 6127,
      "thin": 6128,
      "movie▁": 6129,
      "sel▁": 6130,
      "grew▁": 6131,
      "Jupit": 6132,
      "Bob▁": 6133,
      "letter▁": 6134,
      "forest▁": 6135,
      "argued▁": 6136,
      "retary▁": 6137,
      "PlayStation▁": 6138,
      "McCall▁": 6139,
      "DV": 6140,
      "Des": 6141,
      "Hon": 6142,
      "brown▁": 6143,
      "dges▁": 6144,
      "ko▁": 6145,
      "zi▁": 6146,
      "artic": 6147,
      "tis▁": 6148,
      "sty": 6149,
      "ditionally▁": 6150,
      "sures▁": 6151,
      "aded▁": 6152,
      "projects▁": 6153,
      "nega": 6154,
      "tom▁": 6155,
      "musici": 6156,
      "sched": 6157,
      "Rihanna▁": 6158,
      "Premi": 6159,
      "organiz": 6160,
      "authority▁": 6161,
      "suggests▁": 6162,
      "cases▁": 6163,
      "Hamels▁": 6164,
      "Baltimore▁": 6165,
      "connected▁": 6166,
      "Bowl▁": 6167,
      "Hear": 6168,
      "Jes": 6169,
      "Os": 6170,
      "cies▁": 6171,
      "titu": 6172,
      "royal▁": 6173,
      "rif": 6174,
      "essions▁": 6175,
      "consecu": 6176,
      "spring▁": 6177,
      "oods▁": 6178,
      "twice▁": 6179,
      "boy▁": 6180,
      "Chan": 6181,
      "causing▁": 6182,
      "content▁": 6183,
      "gency▁": 6184,
      "structures▁": 6185,
      "bie▁": 6186,
      "aker▁": 6187,
      "inva": 6188,
      "border▁": 6189,
      "Post▁": 6190,
      "couple▁": 6191,
      "combat▁": 6192,
      "Palest": 6193,
      "occup": 6194,
      "criticized▁": 6195,
      "Valley▁": 6196,
      "Apple": 6197,
      "ultimately▁": 6198,
      "website▁": 6199,
      "entrance▁": 6200,
      "54▁": 6201,
      "Over▁": 6202,
      "Vil": 6203,
      "Writ": 6204,
      "cover": 6205,
      "dark▁": 6206,
      "farm": 6207,
      "yn▁": 6208,
      "replac": 6209,
      "onal▁": 6210,
      "dismis": 6211,
      "beat▁": 6212,
      "inger▁": 6213,
      "tav": 6214,
      "Indu": 6215,
      "edkare▁": 6216,
      "transport▁": 6217,
      "viewed▁": 6218,
      "results▁": 6219,
      "claims▁": 6220,
      "containing▁": 6221,
      "News▁": 6222,
      "industri": 6223,
      "employ": 6224,
      "homes▁": 6225,
      "debuted▁": 6226,
      "Djedkare▁": 6227,
      "Jupiter▁": 6228,
      "56▁": 6229,
      "Gir": 6230,
      "Net": 6231,
      "ger": 6232,
      "gal▁": 6233,
      "kg▁": 6234,
      "tings▁": 6235,
      "wounded▁": 6236,
      "ora▁": 6237,
      "its": 6238,
      "aca": 6239,
      "lit▁": 6240,
      "diff▁": 6241,
      "spi": 6242,
      "opini": 6243,
      "sher▁": 6244,
      "versions▁": 6245,
      "Stan": 6246,
      "Alex": 6247,
      "Andrew▁": 6248,
      "consider": 6249,
      "aired▁": 6250,
      "1947▁": 6251,
      "defence▁": 6252,
      "defensive▁": 6253,
      "organization▁": 6254,
      "phia▁": 6255,
      "chosen▁": 6256,
      "mountain▁": 6257,
      "currently▁": 6258,
      "growing▁": 6259,
      "Torres▁": 6260,
      "collabor": 6261,
      "domestic▁": 6262,
      "contrast▁": 6263,
      "intellig": 6264,
      "My": 6265,
      "Ox": 6266,
      "bid▁": 6267,
      "dates▁": 6268,
      "gation▁": 6269,
      "ero▁": 6270,
      "rejected▁": 6271,
      "diam": 6272,
      "sus▁": 6273,
      "sphere▁": 6274,
      "model": 6275,
      "prison": 6276,
      "aware▁": 6277,
      "brigade▁": 6278,
      "reference▁": 6279,
      "Chap": 6280,
      "passes▁": 6281,
      "animal▁": 6282,
      "threat": 6283,
      "granted▁": 6284,
      "keep": 6285,
      "program": 6286,
      "seconds▁": 6287,
      "analysis▁": 6288,
      "abandoned▁": 6289,
      "confirmed▁": 6290,
      "prominent▁": 6291,
      "Eastern▁": 6292,
      "consecutive▁": 6293,
      "Dar": 6294,
      "Ken": 6295,
      "Middle▁": 6296,
      "NC▁": 6297,
      "Pho": 6298,
      "Tu": 6299,
      "ga▁": 6300,
      "mess": 6301,
      "temple▁": 6302,
      "uel▁": 6303,
      "van▁": 6304,
      "vement▁": 6305,
      "we": 6306,
      "rebel": 6307,
      "devo": 6308,
      "ett▁": 6309,
      "etry▁": 6310,
      "quake▁": 6311,
      "gues▁": 6312,
      "lane▁": 6313,
      "colony▁": 6314,
      "substan": 6315,
      "Juli": 6316,
      "1941▁": 6317,
      "operated▁": 6318,
      "broke▁": 6319,
      "sionally▁": 6320,
      "student▁": 6321,
      "regions▁": 6322,
      "cells▁": 6323,
      "Scottish▁": 6324,
      "Mean": 6325,
      "Once▁": 6326,
      "Airport▁": 6327,
      "Civil▁": 6328,
      "conflict▁": 6329,
      "therefore▁": 6330,
      "Applewhite▁": 6331,
      "62▁": 6332,
      "94▁": 6333,
      "FE▁": 6334,
      "Pra": 6335,
      "Ry": 6336,
      "fr": 6337,
      "ki": 6338,
      "nor▁": 6339,
      "oil▁": 6340,
      "sand▁": 6341,
      "stic": 6342,
      "zi": 6343,
      "resol": 6344,
      "enemy▁": 6345,
      "itting▁": 6346,
      "roads▁": 6347,
      "imag": 6348,
      "model▁": 6349,
      "travel▁": 6350,
      "selling▁": 6351,
      "rows▁": 6352,
      "1987▁": 6353,
      "singles▁": 6354,
      "organ▁": 6355,
      "screen▁": 6356,
      "growth▁": 6357,
      "independent▁": 6358,
      "touchdown▁": 6359,
      "antasy▁": 6360,
      "AI▁": 6361,
      "Def": 6362,
      "Lev": 6363,
      "ahead▁": 6364,
      "bla": 6365,
      "oes▁": 6366,
      "sy▁": 6367,
      "erat": 6368,
      "revi": 6369,
      "reign▁": 6370,
      "reaching▁": 6371,
      "tili": 6372,
      "ror▁": 6373,
      "ease▁": 6374,
      "laid▁": 6375,
      "hair▁": 6376,
      "eval▁": 6377,
      "losop": 6378,
      "ghly▁": 6379,
      "ults▁": 6380,
      "seems▁": 6381,
      "nie▁": 6382,
      "idly▁": 6383,
      "Institute▁": 6384,
      "civil▁": 6385,
      "chief▁": 6386,
      "1970s▁": 6387,
      "winter▁": 6388,
      "Prot": 6389,
      "Michi": 6390,
      "equipment▁": 6391,
      "passing▁": 6392,
      "holds▁": 6393,
      "nominated▁": 6394,
      "Egyptian▁": 6395,
      "explained▁": 6396,
      "fruit▁": 6397,
      "economic▁": 6398,
      "temperature▁": 6399,
      "controlled▁": 6400,
      "Fleet▁": 6401,
      "Background▁": 6402,
      "DVD▁": 6403,
      "BBC▁": 6404,
      "Dom": 6405,
      "Ital": 6406,
      "Le▁": 6407,
      "clim": 6408,
      "males▁": 6409,
      "rare▁": 6410,
      "rey▁": 6411,
      "itable▁": 6412,
      "elop": 6413,
      "olf▁": 6414,
      "share▁": 6415,
      "taining▁": 6416,
      "fired▁": 6417,
      "coast": 6418,
      "creation▁": 6419,
      "cust": 6420,
      "1989▁": 6421,
      "1984▁": 6422,
      "1972▁": 6423,
      "unique▁": 6424,
      "returning▁": 6425,
      "views▁": 6426,
      "effective▁": 6427,
      "Greek▁": 6428,
      "newly▁": 6429,
      "Before▁": 6430,
      "settlement▁": 6431,
      "symbo": 6432,
      "supporting▁": 6433,
      "Croatia▁": 6434,
      "SAFE▁": 6435,
      "Forest▁": 6436,
      "Ari": 6437,
      "Den": 6438,
      "El▁": 6439,
      "Each▁": 6440,
      "ble": 6441,
      "ib": 6442,
      "less": 6443,
      "sman▁": 6444,
      "tree▁": 6445,
      "xed▁": 6446,
      "your▁": 6447,
      "thu": 6448,
      "arrang": 6449,
      "ene▁": 6450,
      "itz▁": 6451,
      "stations▁": 6452,
      "atmo": 6453,
      "unknown▁": 6454,
      "oured▁": 6455,
      "writes▁": 6456,
      "1985▁": 6457,
      "utch▁": 6458,
      "breeding▁": 6459,
      "ancy▁": 6460,
      "increasingly▁": 6461,
      "Mike▁": 6462,
      "mounted▁": 6463,
      "employed▁": 6464,
      "literature▁": 6465,
      "Constant": 6466,
      "66▁": 6467,
      "Fes": 6468,
      "Gil": 6469,
      "HMS▁": 6470,
      "trou": 6471,
      "was": 6472,
      "rea▁": 6473,
      "elev": 6474,
      "desc": 6475,
      "deman": 6476,
      "theory▁": 6477,
      "bud": 6478,
      "ranged▁": 6479,
      "peace▁": 6480,
      "commonly▁": 6481,
      "bered▁": 6482,
      "mix▁": 6483,
      "ype▁": 6484,
      "Cardiff▁": 6485,
      "1960▁": 6486,
      "intensi": 6487,
      "burns▁": 6488,
      "believe▁": 6489,
      "reve": 6490,
      "horse▁": 6491,
      "historian▁": 6492,
      "Morri": 6493,
      "ideas▁": 6494,
      "Phila": 6495,
      "Bru": 6496,
      "Cy": 6497,
      "Ko": 6498,
      "Pic": 6499,
      "ax": 6500,
      "bound▁": 6501,
      "nic": 6502,
      "slo": 6503,
      "tex": 6504,
      "stood▁": 6505,
      "elim": 6506,
      "rise▁": 6507,
      "oppo": 6508,
      "perform▁": 6509,
      "mar▁": 6510,
      "gic▁": 6511,
      "Anth": 6512,
      "offer▁": 6513,
      "graph▁": 6514,
      "consist": 6515,
      "consisted▁": 6516,
      "singing▁": 6517,
      "1944▁": 6518,
      "efly▁": 6519,
      "otes▁": 6520,
      "delphia▁": 6521,
      "advanced▁": 6522,
      "herself▁": 6523,
      "dropped▁": 6524,
      "females▁": 6525,
      "Six▁": 6526,
      "experienced▁": 6527,
      "Only▁": 6528,
      "prepared▁": 6529,
      "property▁": 6530,
      "fields▁": 6531,
      "Michigan▁": 6532,
      "Philadelphia▁": 6533,
      "Rog": 6534,
      "Sat": 6535,
      "foot": 6536,
      "rear▁": 6537,
      "law": 6538,
      "deities▁": 6539,
      "spread▁": 6540,
      "expe": 6541,
      "tax": 6542,
      "leader▁": 6543,
      "alions▁": 6544,
      "eda▁": 6545,
      "colum": 6546,
      "1990s▁": 6547,
      "rowing▁": 6548,
      "depth▁": 6549,
      "killing▁": 6550,
      "horses▁": 6551,
      "maintained▁": 6552,
      "Mounted▁": 6553,
      "Keats▁": 6554,
      "Develop": 6555,
      "phase▁": 6556,
      "avoid▁": 6557,
      "failure▁": 6558,
      "Meanwhile▁": 6559,
      "76▁": 6560,
      "72▁": 6561,
      "Blo": 6562,
      "Kur": 6563,
      "Lew": 6564,
      "Ret": 6565,
      "aw▁": 6566,
      "hem": 6567,
      "push": 6568,
      "iti▁": 6569,
      "stages▁": 6570,
      "sized▁": 6571,
      "ections▁": 6572,
      "rative▁": 6573,
      "predic": 6574,
      "Albu": 6575,
      "minim": 6576,
      "tenant▁": 6577,
      "filmed▁": 6578,
      "Art▁": 6579,
      "Under▁": 6580,
      "awards▁": 6581,
      "join▁": 6582,
      "humans▁": 6583,
      "flying▁": 6584,
      "value▁": 6585,
      "pitched▁": 6586,
      "suffici": 6587,
      "promoted▁": 6588,
      "occur▁": 6589,
      "deliver": 6590,
      "injury▁": 6591,
      "restric": 6592,
      "Vietnam": 6593,
      "phot": 6594,
      "risk▁": 6595,
      "supply▁": 6596,
      "landfall▁": 6597,
      "collap": 6598,
      "popularity▁": 6599,
      "Operation▁": 6600,
      "freeway▁": 6601,
      "publication▁": 6602,
      "Boo": 6603,
      "Gro": 6604,
      "Hind": 6605,
      "La▁": 6606,
      "Long▁": 6607,
      "Rho": 6608,
      "Tom▁": 6609,
      "bill▁": 6610,
      "bring▁": 6611,
      "fran": 6612,
      "km2▁": 6613,
      "nur": 6614,
      "rying▁": 6615,
      "tting▁": 6616,
      "resta": 6617,
      "arch▁": 6618,
      "lished▁": 6619,
      "iling▁": 6620,
      "haps▁": 6621,
      "raid▁": 6622,
      "comes▁": 6623,
      "gus▁": 6624,
      "plea": 6625,
      "Steve▁": 6626,
      "rence▁": 6627,
      "nasty▁": 6628,
      "Andy▁": 6629,
      "marks▁": 6630,
      "famous▁": 6631,
      "regarded▁": 6632,
      "allows▁": 6633,
      "weather▁": 6634,
      "Horn": 6635,
      "religion▁": 6636,
      "usual▁": 6637,
      "occupi": 6638,
      "walls▁": 6639,
      "recognized▁": 6640,
      "rapidly▁": 6641,
      "retired▁": 6642,
      "battery▁": 6643,
      "cricket▁": 6644,
      "weapons▁": 6645,
      "families▁": 6646,
      "Italy▁": 6647,
      "restaur": 6648,
      "52▁": 6649,
      "85▁": 6650,
      "81▁": 6651,
      "Camp": 6652,
      "Far": 6653,
      "GA▁": 6654,
      "Mas": 6655,
      "Radi": 6656,
      "Sc": 6657,
      "eous▁": 6658,
      "ion▁": 6659,
      "sell▁": 6660,
      "zes▁": 6661,
      "ander▁": 6662,
      "acu": 6663,
      "deg": 6664,
      "chers▁": 6665,
      "agricul": 6666,
      "ette▁": 6667,
      "ules▁": 6668,
      "filled▁": 6669,
      "creating▁": 6670,
      "starts▁": 6671,
      "Americans▁": 6672,
      "big▁": 6673,
      "Conference▁": 6674,
      "description▁": 6675,
      "cougar▁": 6676,
      "planet▁": 6677,
      "Abu▁": 6678,
      "foreign▁": 6679,
      "Minister▁": 6680,
      "significantly▁": 6681,
      "northwest▁": 6682,
      "promotion▁": 6683,
      "demic▁": 6684,
      "semi▁": 6685,
      "murder▁": 6686,
      "federal▁": 6687,
      "Origin": 6688,
      "multiple▁": 6689,
      "Dani": 6690,
      "bottom▁": 6691,
      "yellow▁": 6692,
      "scheduled▁": 6693,
      "invasion▁": 6694,
      "05▁": 6695,
      "Wy": 6696,
      "beau": 6697,
      "fying▁": 6698,
      "gest▁": 6699,
      "kish▁": 6700,
      "lac": 6701,
      "slow▁": 6702,
      "text▁": 6703,
      "yson▁": 6704,
      "rem": 6705,
      "enter": 6706,
      "chest": 6707,
      "champi": 6708,
      "promp": 6709,
      "promis": 6710,
      "gie▁": 6711,
      "seventh▁": 6712,
      "counter▁": 6713,
      "phs▁": 6714,
      "producers▁": 6715,
      "fications▁": 6716,
      "matter▁": 6717,
      "ska▁": 6718,
      "sought▁": 6719,
      "Video▁": 6720,
      "bari▁": 6721,
      "waters▁": 6722,
      "Final▁": 6723,
      "chose▁": 6724,
      "agreement▁": 6725,
      "volume▁": 6726,
      "aspects▁": 6727,
      "occupied▁": 6728,
      "Lock▁": 6729,
      "Out": 6730,
      "Trac": 6731,
      "West": 6732,
      "bow": 6733,
      "bited▁": 6734,
      "height▁": 6735,
      "soci": 6736,
      "uri": 6737,
      "inscrip": 6738,
      "oud▁": 6739,
      "stead▁": 6740,
      "susp": 6741,
      "guest▁": 6742,
      "turing▁": 6743,
      "alists▁": 6744,
      "landing▁": 6745,
      "folk▁": 6746,
      "biogra": 6747,
      "trial▁": 6748,
      "ficial▁": 6749,
      "1981▁": 6750,
      "solo▁": 6751,
      "requi": 6752,
      "philosop": 6753,
      "represent▁": 6754,
      "Big▁": 6755,
      "virtu": 6756,
      "commissioned▁": 6757,
      "nucleus▁": 6758,
      "Slam▁": 6759,
      "sustained▁": 6760,
      "Vietnamese▁": 6761,
      "Due▁": 6762,
      "Gard": 6763,
      "Igu": 6764,
      "cs▁": 6765,
      "fety▁": 6766,
      "fought▁": 6767,
      "kings▁": 6768,
      "search▁": 6769,
      "zing▁": 6770,
      "āda▁": 6771,
      "tied▁": 6772,
      "aling▁": 6773,
      "stal": 6774,
      "urban▁": 6775,
      "eplay▁": 6776,
      "mind▁": 6777,
      "Cardin": 6778,
      "Nathan▁": 6779,
      "17th▁": 6780,
      "ancing▁": 6781,
      "collected▁": 6782,
      "Cambo": 6783,
      "synthe": 6784,
      "journ": 6785,
      "Gulf▁": 6786,
      "Haven▁": 6787,
      "assault▁": 6788,
      "Thunderbirds▁": 6789,
      "micro": 6790,
      "bad": 6791,
      "fish▁": 6792,
      "inder▁": 6793,
      "rie▁": 6794,
      "easi": 6795,
      "und▁": 6796,
      "bey": 6797,
      "ustice▁": 6798,
      "eared▁": 6799,
      "park▁": 6800,
      "world": 6801,
      "feel▁": 6802,
      "facilities▁": 6803,
      "perio": 6804,
      "underground▁": 6805,
      "1939▁": 6806,
      "drive▁": 6807,
      "contained▁": 6808,
      "frequently▁": 6809,
      "normal▁": 6810,
      "computer▁": 6811,
      "insula▁": 6812,
      "71▁": 6813,
      "Jim▁": 6814,
      "Leg": 6815,
      "Pa": 6816,
      "Pla": 6817,
      "Sea": 6818,
      "Ul": 6819,
      "bishop▁": 6820,
      "cited▁": 6821,
      "flow▁": 6822,
      "antimony▁": 6823,
      "reaction▁": 6824,
      "istics▁": 6825,
      "where": 6826,
      "cake▁": 6827,
      "save▁": 6828,
      "contributed▁": 6829,
      "meth": 6830,
      "centu": 6831,
      "crete▁": 6832,
      "Under": 6833,
      "1942▁": 6834,
      "establish": 6835,
      "valent▁": 6836,
      "represent": 6837,
      "shaped▁": 6838,
      "Phil": 6839,
      "heard▁": 6840,
      "executive▁": 6841,
      "Entertainment▁": 6842,
      "Gordon▁": 6843,
      "negative▁": 6844,
      "Oxford▁": 6845,
      "Festival▁": 6846,
      "degree▁": 6847,
      "78▁": 6848,
      "AF▁": 6849,
      "Bir": 6850,
      "Loc": 6851,
      "NH": 6852,
      "NBA▁": 6853,
      "Sil": 6854,
      "cus▁": 6855,
      "dating▁": 6856,
      "eur▁": 6857,
      "woo": 6858,
      "ween▁": 6859,
      "ren▁": 6860,
      "repu": 6861,
      "step": 6862,
      "unte": 6863,
      "connec": 6864,
      "chur": 6865,
      "1918▁": 6866,
      "eton▁": 6867,
      "motion▁": 6868,
      "Chel": 6869,
      "goti": 6870,
      "heads▁": 6871,
      "angers▁": 6872,
      "eeds▁": 6873,
      "ologists▁": 6874,
      "entirely▁": 6875,
      "moves▁": 6876,
      "arrison▁": 6877,
      "treated▁": 6878,
      "opera▁": 6879,
      "1950s▁": 6880,
      "extensive▁": 6881,
      "ampionships▁": 6882,
      "animals▁": 6883,
      "problem▁": 6884,
      "Phili": 6885,
      "Turner▁": 6886,
      "Broo": 6887,
      "heart▁": 6888,
      "improved▁": 6889,
      "eutenant▁": 6890,
      "subsequent▁": 6891,
      "Crazy▁": 6892,
      "Studios▁": 6893,
      "Between▁": 6894,
      "Premier▁": 6895,
      "beyond▁": 6896,
      "Cel": 6897,
      "Dutch▁": 6898,
      "Fel": 6899,
      "Med": 6900,
      "Nat": 6901,
      "Tha": 6902,
      "bound": 6903,
      "dred▁": 6904,
      "edu": 6905,
      "flow": 6906,
      "mist": 6907,
      "museum▁": 6908,
      "thro": 6909,
      "thic▁": 6910,
      "thur▁": 6911,
      "ari▁": 6912,
      "esc": 6913,
      "contain▁": 6914,
      "notable▁": 6915,
      "recently▁": 6916,
      "pred": 6917,
      "inging▁": 6918,
      "Ste": 6919,
      "gives▁": 6920,
      "finding▁": 6921,
      "medical▁": 6922,
      "edding▁": 6923,
      "Arthur▁": 6924,
      "pium▁": 6925,
      "fast▁": 6926,
      "Boise▁": 6927,
      "Boston▁": 6928,
      "develop▁": 6929,
      "skin▁": 6930,
      "1969▁": 6931,
      "1968▁": 6932,
      "anta▁": 6933,
      "request▁": 6934,
      "responded▁": 6935,
      "stream▁": 6936,
      "12th▁": 6937,
      "resear": 6938,
      "Williams▁": 6939,
      "threat▁": 6940,
      "Today▁": 6941,
      "Arab▁": 6942,
      "simple▁": 6943,
      "gradually▁": 6944,
      "Mario▁": 6945,
      "architec": 6946,
      "kilometres▁": 6947,
      "Democ": 6948,
      "Musli": 6949,
      "encoura": 6950,
      "budget▁": 6951,
      "Lewis▁": 6952,
      "TC▁": 6953,
      "ce": 6954,
      "mush": 6955,
      "wealth▁": 6956,
      "ánh▁": 6957,
      "indi": 6958,
      "enni": 6959,
      "isy▁": 6960,
      "exer": 6961,
      "finds▁": 6962,
      "severe▁": 6963,
      "headed▁": 6964,
      "1975▁": 6965,
      "distingu": 6966,
      "house": 6967,
      "Barrow▁": 6968,
      "atives▁": 6969,
      "hydro": 6970,
      "transfer▁": 6971,
      "historic▁": 6972,
      "Russian▁": 6973,
      "programs▁": 6974,
      "expanded▁": 6975,
      "secondary▁": 6976,
      "People▁": 6977,
      "challeng": 6978,
      "67▁": 6979,
      "700▁": 6980,
      "800▁": 6981,
      "Dra": 6982,
      "Ku": 6983,
      "Line▁": 6984,
      "Mem": 6985,
      "Magazine▁": 6986,
      "Not▁": 6987,
      "Sus": 6988,
      "dden▁": 6989,
      "data▁": 6990,
      "kill▁": 6991,
      "inner▁": 6992,
      "outer▁": 6993,
      "items▁": 6994,
      "acres▁": 6995,
      "eli": 6996,
      "ectively▁": 6997,
      "agement▁": 6998,
      "losses▁": 6999,
      "poses▁": 7000,
      "composition▁": 7001,
      "negoti": 7002,
      "metho": 7003,
      "arily▁": 7004,
      "faces▁": 7005,
      "engaged▁": 7006,
      "1974▁": 7007,
      "1965▁": 7008,
      "Super": 7009,
      "campus▁": 7010,
      "possibility▁": 7011,
      "display▁": 7012,
      "Theat": 7013,
      "Evita▁": 7014,
      "silver▁": 7015,
      "Water": 7016,
      "treatment▁": 7017,
      "ansas▁": 7018,
      "Upon▁": 7019,
      "centuries▁": 7020,
      "57▁": 7021,
      "Dy": 7022,
      "Jane▁": 7023,
      "Way▁": 7024,
      "len▁": 7025,
      "innings▁": 7026,
      "ali▁": 7027,
      "stable▁": 7028,
      "deter": 7029,
      "bus▁": 7030,
      "compla": 7031,
      "note▁": 7032,
      "oose▁": 7033,
      "modi": 7034,
      "ingham▁": 7035,
      "sections▁": 7036,
      "milli": 7037,
      "naval▁": 7038,
      "decades▁": 7039,
      "Commission▁": 7040,
      "anny▁": 7041,
      "lywood▁": 7042,
      "burg▁": 7043,
      "correc": 7044,
      "Hosp": 7045,
      "setting▁": 7046,
      "daily▁": 7047,
      "grand": 7048,
      "criticism▁": 7049,
      "hundred▁": 7050,
      "vocal▁": 7051,
      "straight▁": 7052,
      "floor▁": 7053,
      "MacLe": 7054,
      "independence▁": 7055,
      "Commander▁": 7056,
      "Khánh▁": 7057,
      "deaths▁": 7058,
      "molec": 7059,
      "slowly▁": 7060,
      "08▁": 7061,
      "Avenue▁": 7062,
      "Eu": 7063,
      "Jurch": 7064,
      "Songs▁": 7065,
      "bic▁": 7066,
      "ege▁": 7067,
      "gover": 7068,
      "gets▁": 7069,
      "jam": 7070,
      "sn": 7071,
      "un▁": 7072,
      "var▁": 7073,
      "ints▁": 7074,
      "tie▁": 7075,
      "itors▁": 7076,
      "iron▁": 7077,
      "vert▁": 7078,
      "leaders▁": 7079,
      "cap▁": 7080,
      "prising▁": 7081,
      "goes▁": 7082,
      "policy▁": 7083,
      "draft▁": 7084,
      "personnel▁": 7085,
      "layer▁": 7086,
      "Among▁": 7087,
      "sentence▁": 7088,
      "didn▁": 7089,
      "Jamal▁": 7090,
      "purchased▁": 7091,
      "59▁": 7092,
      "63▁": 7093,
      "Hy": 7094,
      "Me▁": 7095,
      "Mel": 7096,
      "Mun": 7097,
      "Sky": 7098,
      "dar": 7099,
      "pap": 7100,
      "rates▁": 7101,
      "rement▁": 7102,
      "outs▁": 7103,
      "stel": 7104,
      "simul": 7105,
      "begun▁": 7106,
      "concrete▁": 7107,
      "ash▁": 7108,
      "ooth▁": 7109,
      "master▁": 7110,
      "roughout▁": 7111,
      "Throughout▁": 7112,
      "aug": 7113,
      "Martin▁": 7114,
      "nation": 7115,
      "declined▁": 7116,
      "Brian▁": 7117,
      "fusion▁": 7118,
      "egory▁": 7119,
      "reasons▁": 7120,
      "1946▁": 7121,
      "briefly▁": 7122,
      "protagon": 7123,
      "stret": 7124,
      "drop▁": 7125,
      "Que": 7126,
      "revol": 7127,
      "importance▁": 7128,
      "Science▁": 7129,
      "wild▁": 7130,
      "Tennyson▁": 7131,
      "District▁": 7132,
      "elimin": 7133,
      "worldwide▁": 7134,
      "02▁": 7135,
      "58▁": 7136,
      "AR": 7137,
      "Four▁": 7138,
      "Hot": 7139,
      "Kel": 7140,
      "MTV▁": 7141,
      "Tr": 7142,
      "cum": 7143,
      "dly▁": 7144,
      "gal": 7145,
      "tty▁": 7146,
      "enge▁": 7147,
      "roll▁": 7148,
      "hired▁": 7149,
      "ises▁": 7150,
      "isol": 7151,
      "essed▁": 7152,
      "condition▁": 7153,
      "chron": 7154,
      "agent▁": 7155,
      "1950▁": 7156,
      "adding▁": 7157,
      "eter": 7158,
      "nothing▁": 7159,
      "Also▁": 7160,
      "committee▁": 7161,
      "stronom": 7162,
      "aut": 7163,
      "Arts▁": 7164,
      "council▁": 7165,
      "Liu▁": 7166,
      "fically▁": 7167,
      "Boy▁": 7168,
      "illo▁": 7169,
      "Project▁": 7170,
      "Shor": 7171,
      "break": 7172,
      "Simone▁": 7173,
      "sports▁": 7174,
      "dominated▁": 7175,
      "Congress▁": 7176,
      "escape▁": 7177,
      "79▁": 7178,
      "Area▁": 7179,
      "Bill▁": 7180,
      "Crus": 7181,
      "Temple▁": 7182,
      "Van▁": 7183,
      "dance▁": 7184,
      "fit▁": 7185,
      "fashi": 7186,
      "hur": 7187,
      "ided▁": 7188,
      "lings▁": 7189,
      "path▁": 7190,
      "smo": 7191,
      "tin": 7192,
      "anian▁": 7193,
      "ona▁": 7194,
      "alism▁": 7195,
      "rose▁": 7196,
      "accomp": 7197,
      "diss": 7198,
      "oldest▁": 7199,
      "lah▁": 7200,
      "championship▁": 7201,
      "1919▁": 7202,
      "ush▁": 7203,
      "ulate▁": 7204,
      "Stone▁": 7205,
      "seas▁": 7206,
      "lars▁": 7207,
      "decade▁": 7208,
      "sured▁": 7209,
      "clubs▁": 7210,
      "arrival▁": 7211,
      "1966▁": 7212,
      "developing▁": 7213,
      "tells▁": 7214,
      "Production▁": 7215,
      "regarding▁": 7216,
      "16th▁": 7217,
      "1952▁": 7218,
      "hero▁": 7219,
      "author": 7220,
      "Chains▁": 7221,
      "longest▁": 7222,
      "paintings▁": 7223,
      "violence▁": 7224,
      "participated▁": 7225,
      "hospital▁": 7226,
      "foundation▁": 7227,
      "enjoyed▁": 7228,
      "accompanied▁": 7229,
      "Family▁": 7230,
      "Fla": 7231,
      "Uly": 7232,
      "bell▁": 7233,
      "frag": 7234,
      "pa▁": 7235,
      "pher▁": 7236,
      "ía▁": 7237,
      "itz": 7238,
      "stum": 7239,
      "aces▁": 7240,
      "sibility▁": 7241,
      "lasted▁": 7242,
      "box": 7243,
      "roughly▁": 7244,
      "Chart▁": 7245,
      "Ali▁": 7246,
      "Rox": 7247,
      "graphic▁": 7248,
      "captain▁": 7249,
      "eyes▁": 7250,
      "populations▁": 7251,
      "1936▁": 7252,
      "senior▁": 7253,
      "Admir": 7254,
      "passeng": 7255,
      "Five▁": 7256,
      "billion▁": 7257,
      "existence▁": 7258,
      "Egypt▁": 7259,
      "dollar▁": 7260,
      "Governor▁": 7261,
      "moment▁": 7262,
      "Athle": 7263,
      "torpedo▁": 7264,
      "Villa": 7265,
      "Development▁": 7266,
      "MacLeod▁": 7267,
      "Ulysses▁": 7268,
      "Ap": 7269,
      "Cari": 7270,
      "Gold▁": 7271,
      "Pop": 7272,
      "Plat": 7273,
      "Rail": 7274,
      "jack": 7275,
      "ts": 7276,
      "von▁": 7277,
      "wise▁": 7278,
      "stones▁": 7279,
      "rooms▁": 7280,
      "eau▁": 7281,
      "1930▁": 7282,
      "poetry▁": 7283,
      "propos": 7284,
      "comic▁": 7285,
      "exist▁": 7286,
      "rub": 7287,
      "perial▁": 7288,
      "performing▁": 7289,
      "Star": 7290,
      "Instead▁": 7291,
      "train▁": 7292,
      "applied▁": 7293,
      "ario▁": 7294,
      "submar": 7295,
      "calls▁": 7296,
      "consists▁": 7297,
      "Board▁": 7298,
      "Max▁": 7299,
      "1973▁": 7300,
      "missions▁": 7301,
      "blin▁": 7302,
      "Green▁": 7303,
      "purpose▁": 7304,
      "quarter": 7305,
      "choice▁": 7306,
      "combination▁": 7307,
      "Turkish▁": 7308,
      "drawing▁": 7309,
      "learned▁": 7310,
      "existing▁": 7311,
      "archaeological▁": 7312,
      "technology▁": 7313,
      "extra▁": 7314,
      "crowd▁": 7315,
      "Francis": 7316,
      "athletes▁": 7317,
      "Anthony▁": 7318,
      "remn": 7319,
      "93▁": 7320,
      "Cur": 7321,
      "IV▁": 7322,
      "Kang▁": 7323,
      "Nev": 7324,
      "Sul": 7325,
      "eer▁": 7326,
      "fts▁": 7327,
      "za": 7328,
      "ander": 7329,
      "acher▁": 7330,
      "dev": 7331,
      "bean▁": 7332,
      "locations▁": 7333,
      "visible▁": 7334,
      "compos": 7335,
      "pregn": 7336,
      "contribu": 7337,
      "Marl": 7338,
      "filming▁": 7339,
      "End▁": 7340,
      "college▁": 7341,
      "kness▁": 7342,
      "assass": 7343,
      "Juan▁": 7344,
      "1967▁": 7345,
      "efs▁": 7346,
      "closely▁": 7347,
      "soft▁": 7348,
      "establish▁": 7349,
      "Braz": 7350,
      "competitions▁": 7351,
      "azz▁": 7352,
      "association▁": 7353,
      "drum▁": 7354,
      "habitat▁": 7355,
      "weakened▁": 7356,
      "Theatre▁": 7357,
      "DS▁": 7358,
      "Dam▁": 7359,
      "Fra": 7360,
      "MD▁": 7361,
      "Mass": 7362,
      "Row": 7363,
      "gan": 7364,
      "key": 7365,
      "lers▁": 7366,
      "nes▁": 7367,
      "ple": 7368,
      "erly▁": 7369,
      "rements▁": 7370,
      "tiz": 7371,
      "atus▁": 7372,
      "hill▁": 7373,
      "element▁": 7374,
      "uri▁": 7375,
      "ican▁": 7376,
      "1914▁": 7377,
      "perhaps▁": 7378,
      "plant▁": 7379,
      "Stev": 7380,
      "Anti": 7381,
      "dos▁": 7382,
      "Bridge▁": 7383,
      "capable▁": 7384,
      "transit▁": 7385,
      "invited▁": 7386,
      "battalions▁": 7387,
      "1930s▁": 7388,
      "provides▁": 7389,
      "visual▁": 7390,
      "news▁": 7391,
      "temporary▁": 7392,
      "Mountain▁": 7393,
      "System▁": 7394,
      "Broad": 7395,
      "painting▁": 7396,
      "inspi": 7397,
      "greatly▁": 7398,
      "neither▁": 7399,
      "pilot▁": 7400,
      "details▁": 7401,
      "occasionally▁": 7402,
      "administration▁": 7403,
      "Fox▁": 7404,
      "derived▁": 7405,
      "opportunity▁": 7406,
      "munic": 7407,
      "appeal▁": 7408,
      "ceremony▁": 7409,
      "Carib": 7410,
      "01▁": 7411,
      "Asia▁": 7412,
      "AML▁": 7413,
      "Dota▁": 7414,
      "Fal": 7415,
      "GN▁": 7416,
      "Ode▁": 7417,
      "VN▁": 7418,
      "bought▁": 7419,
      "dal": 7420,
      "gates▁": 7421,
      "hl▁": 7422,
      "hard": 7423,
      "kin▁": 7424,
      "mit▁": 7425,
      "oon▁": 7426,
      "ati▁": 7427,
      "amy▁": 7428,
      "disa": 7429,
      "ola▁": 7430,
      "lap▁": 7431,
      "convo": 7432,
      "loy": 7433,
      "poet▁": 7434,
      "abor": 7435,
      "verte": 7436,
      "seat▁": 7437,
      "Anonymous▁": 7438,
      "tual▁": 7439,
      "awa▁": 7440,
      "transi": 7441,
      "Mah": 7442,
      "aire▁": 7443,
      "receiving▁": 7444,
      "district▁": 7445,
      "generation▁": 7446,
      "protected▁": 7447,
      "protection▁": 7448,
      "typical▁": 7449,
      "Regi": 7450,
      "towns▁": 7451,
      "reading▁": 7452,
      "Field▁": 7453,
      "massive▁": 7454,
      "Princ": 7455,
      "classified▁": 7456,
      "focused▁": 7457,
      "speaking▁": 7458,
      "unction▁": 7459,
      "glas▁": 7460,
      "editor▁": 7461,
      "Douglas▁": 7462,
      "storyline▁": 7463,
      "technique▁": 7464,
      "vehicles▁": 7465,
      "credited▁": 7466,
      "itude▁": 7467,
      "dissipated▁": 7468,
      "Hornung▁": 7469,
      "churches▁": 7470,
      "Chelsea▁": 7471,
      "Caribbean▁": 7472,
      "77▁": 7473,
      "98▁": 7474,
      "Down▁": 7475,
      "Even▁": 7476,
      "ERA▁": 7477,
      "Gran": 7478,
      "Spr": 7479,
      "ea▁": 7480,
      "io▁": 7481,
      "resi": 7482,
      "arranged▁": 7483,
      "actress▁": 7484,
      "elling▁": 7485,
      "uration▁": 7486,
      "isers▁": 7487,
      "islands▁": 7488,
      "entry▁": 7489,
      "evol": 7490,
      "evacu": 7491,
      "adult▁": 7492,
      "impl": 7493,
      "twel": 7494,
      "contact▁": 7495,
      "widesp": 7496,
      "Archae": 7497,
      "Life▁": 7498,
      "Lieutenant▁": 7499,
      "biography▁": 7500,
      "accur": 7501,
      "Maeda▁": 7502,
      "ishes▁": 7503,
      "1945▁": 7504,
      "1971▁": 7505,
      "receive▁": 7506,
      "Hibari▁": 7507,
      "appearing▁": 7508,
      "looked▁": 7509,
      "funding▁": 7510,
      "Perry▁": 7511,
      "Adv": 7512,
      "fellow▁": 7513,
      "About▁": 7514,
      "Coast▁": 7515,
      "Georgian▁": 7516,
      "survived▁": 7517,
      "anything▁": 7518,
      "glades▁": 7519,
      "benef": 7520,
      "Louis▁": 7521,
      "drama▁": 7522,
      "sands▁": 7523,
      "stopped▁": 7524,
      "chorus▁": 7525,
      "westward▁": 7526,
      "Constantine▁": 7527,
      "Cardinal▁": 7528,
      "widespread▁": 7529,
      "03▁": 7530,
      "89▁": 7531,
      "Age▁": 7532,
      "Book▁": 7533,
      "Fantasy▁": 7534,
      "Gab": 7535,
      "Kir": 7536,
      "Public▁": 7537,
      "Qed": 7538,
      "Ré": 7539,
      "bad▁": 7540,
      "fare▁": 7541,
      "flights▁": 7542,
      "hi▁": 7543,
      "oli": 7544,
      "session▁": 7545,
      "recon": 7546,
      "acity▁": 7547,
      "eland▁": 7548,
      "lake▁": 7549,
      "ison▁": 7550,
      "esh▁": 7551,
      "iring▁": 7552,
      "eted▁": 7553,
      "why▁": 7554,
      "ook": 7555,
      "safety▁": 7556,
      "trying▁": 7557,
      "Rober": 7558,
      "Arti": 7559,
      "fur▁": 7560,
      "green▁": 7561,
      "eget": 7562,
      "races▁": 7563,
      "What▁": 7564,
      "ize▁": 7565,
      "akes▁": 7566,
      "1982▁": 7567,
      "embar": 7568,
      "missing▁": 7569,
      "compon": 7570,
      "brief▁": 7571,
      "Isab": 7572,
      "authors▁": 7573,
      "Simon▁": 7574,
      "Scott▁": 7575,
      "holding▁": 7576,
      "ruli▁": 7577,
      "brary▁": 7578,
      "achiev": 7579,
      "Romani▁": 7580,
      "settlers▁": 7581,
      "defined▁": 7582,
      "acquired▁": 7583,
      "shared▁": 7584,
      "Golden▁": 7585,
      "converted▁": 7586,
      "musc": 7587,
      "digital▁": 7588,
      "anodon▁": 7589,
      "06▁": 7590,
      "DNA▁": 7591,
      "Gram": 7592,
      "Jud": 7593,
      "Kn": 7594,
      "Rea": 7595,
      "Yu": 7596,
      "nu": 7597,
      "non": 7598,
      "ror": 7599,
      "wick": 7600,
      "wedding▁": 7601,
      "throw▁": 7602,
      "ilton▁": 7603,
      "label▁": 7604,
      "beth▁": 7605,
      "1916▁": 7606,
      "1913▁": 7607,
      "adj": 7608,
      "etro": 7609,
      "legen": 7610,
      "mann▁": 7611,
      "Steph": 7612,
      "routes▁": 7613,
      "plain▁": 7614,
      "finish▁": 7615,
      "Rob": 7616,
      "graded▁": 7617,
      "baseball▁": 7618,
      "Moz": 7619,
      "1980▁": 7620,
      "succeeded▁": 7621,
      "Rio▁": 7622,
      "1976▁": 7623,
      "unist▁": 7624,
      "distur": 7625,
      "1956▁": 7626,
      "planning▁": 7627,
      "watched▁": 7628,
      "Missi": 7629,
      "bank▁": 7630,
      "Stadium▁": 7631,
      "recogn": 7632,
      "southwest▁": 7633,
      "depicted▁": 7634,
      "USA▁": 7635,
      "happy▁": 7636,
      "spacing▁": 7637,
      "convinc": 7638,
      "Haiti▁": 7639,
      "issance▁": 7640,
      "permanent▁": 7641,
      "Oslo▁": 7642,
      "Phoen": 7643,
      "atmosphere▁": 7644,
      "Radio▁": 7645,
      "Shortly▁": 7646,
      "09▁": 7647,
      "Jones▁": 7648,
      "bon▁": 7649,
      "bone▁": 7650,
      "dence▁": 7651,
      "dged▁": 7652,
      "hei": 7653,
      "knew▁": 7654,
      "oo▁": 7655,
      "tled▁": 7656,
      "reality▁": 7657,
      "cham": 7658,
      "chance▁": 7659,
      "perc": 7660,
      "satis": 7661,
      "night": 7662,
      "alia▁": 7663,
      "gia▁": 7664,
      "ducing▁": 7665,
      "Allied▁": 7666,
      "pati": 7667,
      "signing▁": 7668,
      "spective▁": 7669,
      "decline▁": 7670,
      "decreas": 7671,
      "creator▁": 7672,
      "surg": 7673,
      "trip▁": 7674,
      "tric▁": 7675,
      "engine▁": 7676,
      "1943▁": 7677,
      "providing▁": 7678,
      "victor": 7679,
      "Simil": 7680,
      "penalty▁": 7681,
      "ketball▁": 7682,
      "Venus▁": 7683,
      "earthquake▁": 7684,
      "Iguanodon▁": 7685,
      "Bishop▁": 7686,
      "Good▁": 7687,
      "IGN▁": 7688,
      "Jain▁": 7689,
      "Kent▁": 7690,
      "Rome▁": 7691,
      "Rangers▁": 7692,
      "cement▁": 7693,
      "isi": 7694,
      "ja▁": 7695,
      "kā": 7696,
      "kins▁": 7697,
      "sle": 7698,
      "ves": 7699,
      "wins▁": 7700,
      "aring▁": 7701,
      "stered▁": 7702,
      "aton▁": 7703,
      "acid▁": 7704,
      "iro▁": 7705,
      "evo▁": 7706,
      "load▁": 7707,
      "recru": 7708,
      "quite▁": 7709,
      "attached▁": 7710,
      "turning▁": 7711,
      "alities▁": 7712,
      "secure▁": 7713,
      "renamed▁": 7714,
      "thousands▁": 7715,
      "And": 7716,
      "grounds▁": 7717,
      "Master▁": 7718,
      "airport▁": 7719,
      "1963▁": 7720,
      "Sub": 7721,
      "versy▁": 7722,
      "Additionally▁": 7723,
      "McCar": 7724,
      "changing▁": 7725,
      "10th▁": 7726,
      "Dublin▁": 7727,
      "introduction▁": 7728,
      "Secretary▁": 7729,
      "powers▁": 7730,
      "separated▁": 7731,
      "indicate▁": 7732,
      "supplies▁": 7733,
      "Gully▁": 7734,
      "Everglades▁": 7735,
      "getting▁": 7736,
      "titude▁": 7737,
      "eratops▁": 7738,
      "Morrison▁": 7739,
      "delivered▁": 7740,
      "franchi": 7741,
      "establishment▁": 7742,
      "69▁": 7743,
      "68▁": 7744,
      "Kom": 7745,
      "Over": 7746,
      "UTC▁": 7747,
      "avi": 7748,
      "dock▁": 7749,
      "fea": 7750,
      "gé▁": 7751,
      "psy": 7752,
      "rural▁": 7753,
      "zone▁": 7754,
      "anity▁": 7755,
      "oning▁": 7756,
      "aten▁": 7757,
      "rail▁": 7758,
      "emperor▁": 7759,
      "asser": 7760,
      "asks▁": 7761,
      "lot": 7762,
      "opposition▁": 7763,
      "rum": 7764,
      "Champi": 7765,
      "prised▁": 7766,
      "med": 7767,
      "teaching▁": 7768,
      "surren": 7769,
      "ssipp": 7770,
      "consisting▁": 7771,
      "link▁": 7772,
      "certified▁": 7773,
      "remainder▁": 7774,
      "distribution▁": 7775,
      "camps▁": 7776,
      "Australians▁": 7777,
      "carry▁": 7778,
      "protect▁": 7779,
      "truth▁": 7780,
      "commanded▁": 7781,
      "Committee▁": 7782,
      "ruled▁": 7783,
      "surviv": 7784,
      "Freder": 7785,
      "Hollywood▁": 7786,
      "southeast▁": 7787,
      "Truj": 7788,
      "Office▁": 7789,
      "Bradford▁": 7790,
      "Friends▁": 7791,
      "11th▁": 7792,
      "jump▁": 7793,
      "Columbia▁": 7794,
      "rhyth": 7795,
      "assistance▁": 7796,
      "Sunday▁": 7797,
      "flank▁": 7798,
      "regime▁": 7799,
      "Summer▁": 7800,
      "breaking▁": 7801,
      "opinion▁": 7802,
      "Alexander▁": 7803,
      "Mississipp": 7804,
      "91▁": 7805,
      "Domin": 7806,
      "More▁": 7807,
      "NBC▁": 7808,
      "Tan": 7809,
      "by": 7810,
      "bits▁": 7811,
      "du▁": 7812,
      "ik": 7813,
      "sam": 7814,
      "anni": 7815,
      "rel": 7816,
      "ony": 7817,
      "itan▁": 7818,
      "itor▁": 7819,
      "irman▁": 7820,
      "entering▁": 7821,
      "noisy▁": 7822,
      "leaves▁": 7823,
      "turns▁": 7824,
      "Alan▁": 7825,
      "Marine▁": 7826,
      "Arm": 7827,
      "producing▁": 7828,
      "fictional▁": 7829,
      "1978▁": 7830,
      "Native▁": 7831,
      "regularly▁": 7832,
      "1953▁": 7833,
      "friend": 7834,
      "sequences▁": 7835,
      "Holy▁": 7836,
      "suggest▁": 7837,
      "references▁": 7838,
      "studied▁": 7839,
      "circum": 7840,
      "fox▁": 7841,
      "narrow▁": 7842,
      "occurs▁": 7843,
      "strength": 7844,
      "Critical▁": 7845,
      "economy▁": 7846,
      "technical▁": 7847,
      "question▁": 7848,
      "Montana▁": 7849,
      "Croatian▁": 7850,
      "dows▁": 7851,
      "strateg": 7852,
      "shooting▁": 7853,
      "Maryland▁": 7854,
      "Trujillo▁": 7855,
      "86▁": 7856,
      "Dur": 7857,
      "Gang": 7858,
      "Never": 7859,
      "Plan": 7860,
      "aster▁": 7861,
      "big": 7862,
      "ck": 7863,
      "cab": 7864,
      "euro": 7865,
      "gone▁": 7866,
      "han▁": 7867,
      "kson▁": 7868,
      "tren": 7869,
      "tia▁": 7870,
      "tile▁": 7871,
      "atop": 7872,
      "rist▁": 7873,
      "dialo": 7874,
      "convic": 7875,
      "chess▁": 7876,
      "tioning▁": 7877,
      "not": 7878,
      "immig": 7879,
      "legi": 7880,
      "scra": 7881,
      "uma▁": 7882,
      "Stef": 7883,
      "leads▁": 7884,
      "attle▁": 7885,
      "seri": 7886,
      "puzz": 7887,
      "finishing▁": 7888,
      "eived▁": 7889,
      "sign": 7890,
      "interested▁": 7891,
      "interior▁": 7892,
      "protest▁": 7893,
      "channel▁": 7894,
      "successor▁": 7895,
      "Charlie▁": 7896,
      "denied▁": 7897,
      "Command▁": 7898,
      "Walter▁": 7899,
      "portrayed▁": 7900,
      "Plun": 7901,
      "chapter▁": 7902,
      "scholars▁": 7903,
      "adapted▁": 7904,
      "experim": 7905,
      "function▁": 7906,
      "branch▁": 7907,
      "Review": 7908,
      "Engineer▁": 7909,
      "intelligence▁": 7910,
      "Daniel▁": 7911,
      "reputation▁": 7912,
      "methods▁": 7913,
      "Roxas▁": 7914,
      "Mississippi▁": 7915,
      "250▁": 7916,
      "Ag": 7917,
      "By": 7918,
      "bour": 7919,
      "hin": 7920,
      "yc": 7921,
      "instruc": 7922,
      "erog": 7923,
      "tivision▁": 7924,
      "orated▁": 7925,
      "atro": 7926,
      "ago": 7927,
      "agents▁": 7928,
      "ase▁": 7929,
      "1915▁": 7930,
      "ador▁": 7931,
      "leuk": 7932,
      "predec": 7933,
      "preme▁": 7934,
      "perfect▁": 7935,
      "may": 7936,
      "guil": 7937,
      "guard▁": 7938,
      "rang▁": 7939,
      "incident▁": 7940,
      "leagues▁": 7941,
      "worst▁": 7942,
      "attributed▁": 7943,
      "mean▁": 7944,
      "charges▁": 7945,
      "offense▁": 7946,
      "fuel▁": 7947,
      "grass▁": 7948,
      "crime▁": 7949,
      "German": 7950,
      "eff▁": 7951,
      "politics▁": 7952,
      "discovery▁": 7953,
      "controversi": 7954,
      "battles": 7955,
      "senal▁": 7956,
      "allery▁": 7957,
      "Leon": 7958,
      "Recording▁": 7959,
      "maintain▁": 7960,
      "Activision▁": 7961,
      "Within▁": 7962,
      "recognition▁": 7963,
      "characteristics▁": 7964,
      "Baby▁": 7965,
      "gameplay▁": 7966,
      "seeing▁": 7967,
      "Howard▁": 7968,
      "distinct▁": 7969,
      "Samuel▁": 7970,
      "chemical▁": 7971,
      "Chronic": 7972,
      "pattern▁": 7973,
      "Homer▁": 7974,
      "dismissed▁": 7975,
      "photogra": 7976,
      "Hindu▁": 7977,
      "method▁": 7978,
      "74▁": 7979,
      "97▁": 7980,
      "BS▁": 7981,
      "Bha": 7982,
      "Bart▁": 7983,
      "OT▁": 7984,
      "Patt": 7985,
      "Ridge▁": 7986,
      "ao▁": 7987,
      "dry▁": 7988,
      "fec": 7989,
      "pel": 7990,
      "rested▁": 7991,
      "replace▁": 7992,
      "ender▁": 7993,
      "rations▁": 7994,
      "ratic▁": 7995,
      "beach▁": 7996,
      "ass▁": 7997,
      "but": 7998,
      "noting▁": 7999,
      "scop": 8000,
      "secret▁": 8001,
      "charts▁": 8002,
      "locks▁": 8003,
      "classes▁": 8004,
      "basin▁": 8005,
      "capacity▁": 8006,
      "treat▁": 8007,
      "window▁": 8008,
      "therap": 8009,
      "appropri": 8010,
      "soil▁": 8011,
      "strike▁": 8012,
      "Daily▁": 8013,
      "novels▁": 8014,
      "Quin": 8015,
      "lla▁": 8016,
      "dollars▁": 8017,
      "discussed▁": 8018,
      "Calvert▁": 8019,
      "glass▁": 8020,
      "knots▁": 8021,
      "mushroom▁": 8022,
      "exerc": 8023,
      "Isabella▁": 8024,
      "Plunket": 8025,
      "07▁": 8026,
      "120▁": 8027,
      "Cop": 8028,
      "Danny▁": 8029,
      "Ful": 8030,
      "Jon": 8031,
      "PA▁": 8032,
      "Pope▁": 8033,
      "SA▁": 8034,
      "Sor": 8035,
      "Sap": 8036,
      "eously▁": 8037,
      "gle▁": 8038,
      "ition▁": 8039,
      "tone▁": 8040,
      "inte": 8041,
      "arts▁": 8042,
      "itage▁": 8043,
      "atures▁": 8044,
      "iss▁": 8045,
      "evil▁": 8046,
      "1917▁": 8047,
      "ading▁": 8048,
      "20s▁": 8049,
      "shes▁": 8050,
      "rane▁": 8051,
      "leader": 8052,
      "ship": 8053,
      "sector▁": 8054,
      "pairs▁": 8055,
      "offers▁": 8056,
      "teenth▁": 8057,
      "crimin": 8058,
      "Moder": 8059,
      "describing▁": 8060,
      "1948▁": 8061,
      "sole▁": 8062,
      "medieval▁": 8063,
      "print▁": 8064,
      "legs▁": 8065,
      "baby▁": 8066,
      "statement▁": 8067,
      "rules▁": 8068,
      "bringing▁": 8069,
      "Jersey▁": 8070,
      "Revolution▁": 8071,
      "Saraj": 8072,
      "accounts▁": 8073,
      "emotional▁": 8074,
      "oulder▁": 8075,
      "Weekly▁": 8076,
      "lobal▁": 8077,
      "cinem": 8078,
      "younger▁": 8079,
      "Lisa▁": 8080,
      "Industry▁": 8081,
      "itsune▁": 8082,
      "coastal▁": 8083,
      "Sarajevo▁": 8084,
      "CD▁": 8085,
      "Cru": 8086,
      "Ini": 8087,
      "Jif": 8088,
      "Luc": 8089,
      "Mid": 8090,
      "Mau": 8091,
      "aim": 8092,
      "mely▁": 8093,
      "ovic▁": 8094,
      "yon▁": 8095,
      "releg": 8096,
      "ardian▁": 8097,
      "stration▁": 8098,
      "acre▁": 8099,
      "rian▁": 8100,
      "ille▁": 8101,
      "deser": 8102,
      "rarely▁": 8103,
      "owner▁": 8104,
      "expo": 8105,
      "firing▁": 8106,
      "Stra": 8107,
      "Strand▁": 8108,
      "caught▁": 8109,
      "miner▁": 8110,
      "charter▁": 8111,
      "Austri": 8112,
      "offman▁": 8113,
      "fun▁": 8114,
      "grav": 8115,
      "crip": 8116,
      "pointed▁": 8117,
      "facing▁": 8118,
      "enders▁": 8119,
      "tivity▁": 8120,
      "1979▁": 8121,
      "gged▁": 8122,
      "statis": 8123,
      "1951▁": 8124,
      "plants▁": 8125,
      "someone▁": 8126,
      "cycle▁": 8127,
      "forests▁": 8128,
      "basic▁": 8129,
      "Nether": 8130,
      "specifically▁": 8131,
      "everything▁": 8132,
      "desire▁": 8133,
      "difficulty▁": 8134,
      "Victoria▁": 8135,
      "Yankovic▁": 8136,
      "ninth▁": 8137,
      "Destiny▁": 8138,
      "article▁": 8139,
      "considerable▁": 8140,
      "restaurant▁": 8141,
      "Stephen▁": 8142,
      "Frederick▁": 8143,
      "14": 8144,
      "3D▁": 8145,
      "88▁": 8146,
      "Ale": 8147,
      "Aston▁": 8148,
      "Fu": 8149,
      "IM": 8150,
      "Lau": 8151,
      "Lenn": 8152,
      "Men": 8153,
      "RE": 8154,
      "Sav": 8155,
      "Ton": 8156,
      "Tam": 8157,
      "eo▁": 8158,
      "gades▁": 8159,
      "tell▁": 8160,
      "va": 8161,
      "eries▁": 8162,
      "itch▁": 8163,
      "alised▁": 8164,
      "rid▁": 8165,
      "liked▁": 8166,
      "didate▁": 8167,
      "che": 8168,
      "evening▁": 8169,
      "ques▁": 8170,
      "taught▁": 8171,
      "plane▁": 8172,
      "bow▁": 8173,
      "hotel▁": 8174,
      "landed▁": 8175,
      "Around▁": 8176,
      "Joe▁": 8177,
      "teacher▁": 8178,
      "anda▁": 8179,
      "accept": 8180,
      "1961▁": 8181,
      "1954▁": 8182,
      "Press▁": 8183,
      "correspon": 8184,
      "Miss▁": 8185,
      "pitch▁": 8186,
      "involvement▁": 8187,
      "Somali▁": 8188,
      "volunte": 8189,
      "relationships▁": 8190,
      "painted▁": 8191,
      "nomination▁": 8192,
      "chapel▁": 8193,
      "Television▁": 8194,
      "thirty▁": 8195,
      "Clarkson▁": 8196,
      "opponents▁": 8197,
      "Rolling▁": 8198,
      "replacement▁": 8199,
      "wooden▁": 8200,
      "Aer": 8201,
      "Adams▁": 8202,
      "Bay": 8203,
      "CA▁": 8204,
      "Fame▁": 8205,
      "Gl": 8206,
      "Hud": 8207,
      "NL▁": 8208,
      "Pur": 8209,
      "Publi": 8210,
      "Rem": 8211,
      "Santa▁": 8212,
      "Team▁": 8213,
      "Wol": 8214,
      "astronom": 8215,
      "hope▁": 8216,
      "sin▁": 8217,
      "song": 8218,
      "tune▁": 8219,
      "veget": 8220,
      "yce▁": 8221,
      "insi": 8222,
      "rever": 8223,
      "rival▁": 8224,
      "labor": 8225,
      "deed▁": 8226,
      "poems▁": 8227,
      "thetic▁": 8228,
      "usal": 8229,
      "absor": 8230,
      "ingale▁": 8231,
      "ranean▁": 8232,
      "atters▁": 8233,
      "tox": 8234,
      "secured▁": 8235,
      "communities▁": 8236,
      "intersection▁": 8237,
      "Brien▁": 8238,
      "versary▁": 8239,
      "Wilde▁": 8240,
      "controversy▁": 8241,
      "approved▁": 8242,
      "fungus▁": 8243,
      "1937▁": 8244,
      "elli▁": 8245,
      "Lee▁": 8246,
      "Duke▁": 8247,
      "Order▁": 8248,
      "13th▁": 8249,
      "Jerusal": 8250,
      "magn": 8251,
      "existed▁": 8252,
      "picked▁": 8253,
      "Singles▁": 8254,
      "progress▁": 8255,
      "divine▁": 8256,
      "emerged▁": 8257,
      "Colonel▁": 8258,
      "Bono▁": 8259,
      "Director▁": 8260,
      "recommended▁": 8261,
      "Simpsons▁": 8262,
      "believes▁": 8263,
      "Muslim▁": 8264,
      "Skye▁": 8265,
      "Francisco▁": 8266,
      "Jifna▁": 8267,
      "99▁": 8268,
      "92▁": 8269,
      "Band▁": 8270,
      "Bond▁": 8271,
      "DA": 8272,
      "Low": 8273,
      "Not": 8274,
      "Nich": 8275,
      "Ren": 8276,
      "Sel": 8277,
      "bi▁": 8278,
      "grow▁": 8279,
      "ield▁": 8280,
      "lb": 8281,
      "sear": 8282,
      "ulation▁": 8283,
      "wine▁": 8284,
      "theless▁": 8285,
      "eness▁": 8286,
      "oming▁": 8287,
      "eae▁": 8288,
      "eased▁": 8289,
      "bet▁": 8290,
      "lose▁": 8291,
      "vide": 8292,
      "commo": 8293,
      "split▁": 8294,
      "reci": 8295,
      "rus▁": 8296,
      "prey▁": 8297,
      "firm▁": 8298,
      "partial▁": 8299,
      "seg": 8300,
      "ogen": 8301,
      "formal▁": 8302,
      "nations▁": 8303,
      "genre▁": 8304,
      "dream▁": 8305,
      "missed▁": 8306,
      "distributed▁": 8307,
      "voic": 8308,
      "1955▁": 8309,
      "concerns▁": 8310,
      "harb": 8311,
      "Hamilton▁": 8312,
      "Military▁": 8313,
      "standards▁": 8314,
      "measure▁": 8315,
      "launch▁": 8316,
      "tomb▁": 8317,
      "block▁": 8318,
      "journey▁": 8319,
      "Olympics▁": 8320,
      "principal▁": 8321,
      "extremely▁": 8322,
      "specimens▁": 8323,
      "incorporated▁": 8324,
      "Independent▁": 8325,
      "Argentina▁": 8326,
      "organizations▁": 8327,
      "Kenne": 8328,
      "Protest": 8329,
      "sufficient▁": 8330,
      "whereas▁": 8331,
      "leadership▁": 8332,
      "Bab": 8333,
      "Beach▁": 8334,
      "Crown▁": 8335,
      "Dig": 8336,
      "Dav": 8337,
      "Ty": 8338,
      "Up▁": 8339,
      "WW": 8340,
      "jazz▁": 8341,
      "mation▁": 8342,
      "sat": 8343,
      "inland▁": 8344,
      "ership▁": 8345,
      "stol▁": 8346,
      "acent▁": 8347,
      "eli▁": 8348,
      "liday▁": 8349,
      "conference▁": 8350,
      "spar": 8351,
      "ustin▁": 8352,
      "apti": 8353,
      "recre": 8354,
      "scape▁": 8355,
      "parties▁": 8356,
      "manner▁": 8357,
      "coal▁": 8358,
      "god": 8359,
      "teeth▁": 8360,
      "Liber": 8361,
      "tribes▁": 8362,
      "certain": 8363,
      "Rif": 8364,
      "airs▁": 8365,
      "winner▁": 8366,
      "advoc": 8367,
      "1958▁": 8368,
      "approached▁": 8369,
      "expensive▁": 8370,
      "sequently▁": 8371,
      "vention▁": 8372,
      "Forces▁": 8373,
      "divisions▁": 8374,
      "showing▁": 8375,
      "Prime▁": 8376,
      "spot▁": 8377,
      "Elec": 8378,
      "settled▁": 8379,
      "respect▁": 8380,
      "target▁": 8381,
      "indicated▁": 8382,
      "speech▁": 8383,
      "Banai▁": 8384,
      "surrounded▁": 8385,
      "treaty▁": 8386,
      "Writing▁": 8387,
      "diameter▁": 8388,
      "threatened▁": 8389,
      "kān": 8390,
      "europium▁": 8391,
      "leukem": 8392,
      "Ani": 8393,
      "Cab": 8394,
      "Dam": 8395,
      "Jac": 8396,
      "Kri": 8397,
      "Mol": 8398,
      "NE": 8399,
      "Nap": 8400,
      "Plot▁": 8401,
      "Wim": 8402,
      "aren": 8403,
      "eiro▁": 8404,
      "rone▁": 8405,
      "wants▁": 8406,
      "antic": 8407,
      "hism▁": 8408,
      "lip": 8409,
      "unusual▁": 8410,
      "chro": 8411,
      "log": 8412,
      "pot": 8413,
      "ula▁": 8414,
      "tailed▁": 8415,
      "sects▁": 8416,
      "citiz": 8417,
      "edom▁": 8418,
      "deck▁": 8419,
      "step▁": 8420,
      "Norman▁": 8421,
      "Carter▁": 8422,
      "origin▁": 8423,
      "1949▁": 8424,
      "1977▁": 8425,
      "inian▁": 8426,
      "disci": 8427,
      "watch▁": 8428,
      "historians▁": 8429,
      "Depression▁": 8430,
      "crossed▁": 8431,
      "dynam": 8432,
      "South": 8433,
      "alternative▁": 8434,
      "immediate▁": 8435,
      "ratings▁": 8436,
      "documentary▁": 8437,
      "hoped▁": 8438,
      "favorite▁": 8439,
      "railway▁": 8440,
      "institutions▁": 8441,
      "apparent▁": 8442,
      "Ryan▁": 8443,
      "Roger▁": 8444,
      "isolated▁": 8445,
      "Modern▁": 8446,
      "Lennon▁": 8447,
      "82▁": 8448,
      "Be▁": 8449,
      "Goffman▁": 8450,
      "Ric": 8451,
      "Sab": 8452,
      "Ye": 8453,
      "bea": 8454,
      "far": 8455,
      "hang": 8456,
      "iec": 8457,
      "junction▁": 8458,
      "mon▁": 8459,
      "mel▁": 8460,
      "sessions▁": 8461,
      "ívar▁": 8462,
      "inity▁": 8463,
      "orous▁": 8464,
      "stro": 8465,
      "store▁": 8466,
      "ridge▁": 8467,
      "hau": 8468,
      "rage▁": 8469,
      "agu": 8470,
      "assumed▁": 8471,
      "admitted▁": 8472,
      "qui": 8473,
      "duties▁": 8474,
      "Unlike▁": 8475,
      "faith▁": 8476,
      "udd": 8477,
      "ssive▁": 8478,
      "bass▁": 8479,
      "dreds▁": 8480,
      "belong": 8481,
      "designation▁": 8482,
      "Janeiro▁": 8483,
      "lication▁": 8484,
      "Hergé▁": 8485,
      "ancest": 8486,
      "sequel▁": 8487,
      "protests▁": 8488,
      "stands▁": 8489,
      "regional▁": 8490,
      "weak▁": 8491,
      "reviewer▁": 8492,
      "destroyers▁": 8493,
      "squad▁": 8494,
      "languages▁": 8495,
      "short": 8496,
      "Territ": 8497,
      "speak▁": 8498,
      "literary▁": 8499,
      "expansion▁": 8500,
      "completion▁": 8501,
      "colonial▁": 8502,
      "examples▁": 8503,
      "engineering▁": 8504,
      "Bolívar▁": 8505,
      "strongly▁": 8506,
      "Kilmer▁": 8507,
      "message▁": 8508,
      "easily▁": 8509,
      "protagonist▁": 8510,
      "franchise▁": 8511,
      "anniversary▁": 8512,
      "Saprang▁": 8513,
      "73▁": 8514,
      "Bron": 8515,
      "BCE▁": 8516,
      "Gri": 8517,
      "IS": 8518,
      "Lords▁": 8519,
      "Ot": 8520,
      "Rh": 8521,
      "Roo": 8522,
      "Tower▁": 8523,
      "Wa": 8524,
      "Water▁": 8525,
      "bru": 8526,
      "di▁": 8527,
      "fen": 8528,
      "fat": 8529,
      "ras▁": 8530,
      "wood": 8531,
      "wearing▁": 8532,
      "eration▁": 8533,
      "resist": 8534,
      "ardo▁": 8535,
      "orn▁": 8536,
      "orchest": 8537,
      "ala▁": 8538,
      "deep": 8539,
      "eme▁": 8540,
      "bey▁": 8541,
      "congre": 8542,
      "superi": 8543,
      "asc": 8544,
      "1920▁": 8545,
      "etings▁": 8546,
      "whel": 8547,
      "abs": 8548,
      "absol": 8549,
      "quo": 8550,
      "parliament▁": 8551,
      "fies▁": 8552,
      "meets▁": 8553,
      "nah▁": 8554,
      "naissance▁": 8555,
      "sever": 8556,
      "teach": 8557,
      "Common": 8558,
      "eggs▁": 8559,
      "awn▁": 8560,
      "accept▁": 8561,
      "1983▁": 8562,
      "invest": 8563,
      "shots▁": 8564,
      "airline▁": 8565,
      "Christ▁": 8566,
      "spons": 8567,
      "defended▁": 8568,
      "effectively▁": 8569,
      "cult▁": 8570,
      "generated▁": 8571,
      "coup▁": 8572,
      "ldn▁": 8573,
      "resemb": 8574,
      "Georgia▁": 8575,
      "Organ": 8576,
      "neck▁": 8577,
      "Shak": 8578,
      "ockey▁": 8579,
      "improve▁": 8580,
      "minister▁": 8581,
      "Burns▁": 8582,
      "detailed▁": 8583,
      "Research▁": 8584,
      "attracted▁": 8585,
      "department▁": 8586,
      "eighth▁": 8587,
      "Lawton▁": 8588,
      "Hung": 8589,
      "theatre▁": 8590,
      "rescue▁": 8591,
      "specimen▁": 8592,
      "Hearts▁": 8593,
      "academic▁": 8594,
      "bledon▁": 8595,
      "arrangement▁": 8596,
      "Satur": 8597,
      "Jerusalem▁": 8598,
      "Wimbledon▁": 8599,
      "83▁": 8600,
      "AD▁": 8601,
      "Ash": 8602,
      "Aman": 8603,
      "Bil": 8604,
      "Jean▁": 8605,
      "OK▁": 8606,
      "Snow▁": 8607,
      "Tal": 8608,
      "Top▁": 8609,
      "Vol": 8610,
      "dg": 8611,
      "fan▁": 8612,
      "hall▁": 8613,
      "ius▁": 8614,
      "tall▁": 8615,
      "ini▁": 8616,
      "inhabit": 8617,
      "itals▁": 8618,
      "stea": 8619,
      "stab": 8620,
      "roc": 8621,
      "amat": 8622,
      "essive▁": 8623,
      "conqu": 8624,
      "consul": 8625,
      "suit▁": 8626,
      "sump": 8627,
      "ooking▁": 8628,
      "worship▁": 8629,
      "shir": 8630,
      "mun▁": 8631,
      "offs▁": 8632,
      "starling▁": 8633,
      "faster▁": 8634,
      "bili": 8635,
      "accused▁": 8636,
      "Bos": 8637,
      "operate▁": 8638,
      "Gerard▁": 8639,
      "require▁": 8640,
      "armor▁": 8641,
      "attempting▁": 8642,
      "allen▁": 8643,
      "ardson▁": 8644,
      "Attor": 8645,
      "Buil": 8646,
      "Somalia▁": 8647,
      "Cambridge▁": 8648,
      "surviving▁": 8649,
      "Richardson▁": 8650,
      "terminus▁": 8651,
      "practices▁": 8652,
      "territories▁": 8653,
      "Square▁": 8654,
      "traveled▁": 8655,
      "blocks▁": 8656,
      "challenge▁": 8657,
      "extreme▁": 8658,
      "assistant▁": 8659,
      "civilian▁": 8660,
      "Third▁": 8661,
      "feeling▁": 8662,
      "encouraged▁": 8663,
      "inspiration▁": 8664,
      "adjacent▁": 8665,
      "Blu": 8666,
      "But": 8667,
      "Es": 8668,
      "Hamp": 8669,
      "Ja": 8670,
      "Jas": 8671,
      "Kin": 8672,
      "Lam": 8673,
      "Rap": 8674,
      "RNA▁": 8675,
      "Sports▁": 8676,
      "Tech": 8677,
      "Ve": 8678,
      "Wic": 8679,
      "ade": 8680,
      "bles▁": 8681,
      "dent▁": 8682,
      "hy▁": 8683,
      "kic": 8684,
      "mised▁": 8685,
      "sanc": 8686,
      "temp": 8687,
      "task▁": 8688,
      "ug": 8689,
      "utionary▁": 8690,
      "vals▁": 8691,
      "ytho": 8692,
      "thi": 8693,
      "rets▁": 8694,
      "arc▁": 8695,
      "tiful▁": 8696,
      "itated▁": 8697,
      "stant▁": 8698,
      "accommo": 8699,
      "siege▁": 8700,
      "ela▁": 8701,
      "lists▁": 8702,
      "diag": 8703,
      "enters▁": 8704,
      "chec": 8705,
      "ager▁": 8706,
      "1910▁": 8707,
      "abled▁": 8708,
      "recovered▁": 8709,
      "recalled▁": 8710,
      "score": 8711,
      "netic▁": 8712,
      "partly▁": 8713,
      "tims▁": 8714,
      "estate▁": 8715,
      "seemed▁": 8716,
      "storms▁": 8717,
      "Ing": 8718,
      "formally▁": 8719,
      "aya▁": 8720,
      "market": 8721,
      "Arch": 8722,
      "obtained▁": 8723,
      "consider▁": 8724,
      "Just▁": 8725,
      "supposed▁": 8726,
      "compounds▁": 8727,
      "brothers▁": 8728,
      "responsibility▁": 8729,
      "Adam▁": 8730,
      "Barb": 8731,
      "phics▁": 8732,
      "towers▁": 8733,
      "Formul": 8734,
      "courts▁": 8735,
      "somewhat▁": 8736,
      "valu": 8737,
      "valley▁": 8738,
      "candidate▁": 8739,
      "Night▁": 8740,
      "Mortal▁": 8741,
      "multi▁": 8742,
      "bands▁": 8743,
      "1909▁": 8744,
      "destroy▁": 8745,
      "identity▁": 8746,
      "Republi": 8747,
      "learning▁": 8748,
      "Keamy▁": 8749,
      "connection▁": 8750,
      "Offic": 8751,
      "Further▁": 8752,
      "possession▁": 8753,
      "allel▁": 8754,
      "printed▁": 8755,
      "clean▁": 8756,
      "Castle▁": 8757,
      "romantic▁": 8758,
      "Jesus▁": 8759,
      "agricultural▁": 8760,
      "Admiral▁": 8761,
      "convoy▁": 8762,
      "Kombat▁": 8763,
      "Nichol": 8764,
      "videos▁": 8765,
      "Aniston▁": 8766,
      "Commonwealth▁": 8767,
      "Attorney▁": 8768,
      "Formula▁": 8769,
      "84▁": 8770,
      "NC": 8771,
      "Op▁": 8772,
      "Pine▁": 8773,
      "Type▁": 8774,
      "ap▁": 8775,
      "cer▁": 8776,
      "dang": 8777,
      "fon": 8778,
      "fting▁": 8779,
      "hits▁": 8780,
      "ku▁": 8781,
      "lb▁": 8782,
      "mate▁": 8783,
      "sand": 8784,
      "sort▁": 8785,
      "thri": 8786,
      "ane": 8787,
      "answ": 8788,
      "remin": 8789,
      "reduce▁": 8790,
      "itual▁": 8791,
      "stayed▁": 8792,
      "entally▁": 8793,
      "entures▁": 8794,
      "1912▁": 8795,
      "forcing▁": 8796,
      "apart▁": 8797,
      "preh": 8798,
      "preserved▁": 8799,
      "timate▁": 8800,
      "overwhel": 8801,
      "hosted▁": 8802,
      "path": 8803,
      "Marines▁": 8804,
      "calcul": 8805,
      "basketball▁": 8806,
      "child": 8807,
      "linked▁": 8808,
      "borne▁": 8809,
      "Islands▁": 8810,
      "funds▁": 8811,
      "1935▁": 8812,
      "1931▁": 8813,
      "medium▁": 8814,
      "relative▁": 8815,
      "corn▁": 8816,
      "Corytho": 8817,
      "attered▁": 8818,
      "passage▁": 8819,
      "concerned▁": 8820,
      "mention▁": 8821,
      "suffering▁": 8822,
      "honor▁": 8823,
      "flood▁": 8824,
      "Arabic▁": 8825,
      "Johnston▁": 8826,
      "willing▁": 8827,
      "Poland▁": 8828,
      "normally▁": 8829,
      "sculpture▁": 8830,
      "alization▁": 8831,
      "Eliza": 8832,
      "Descri": 8833,
      "footage▁": 8834,
      "Fraser▁": 8835,
      "Stevens▁": 8836,
      "twelve▁": 8837,
      "Germans▁": 8838,
      "Plunketts▁": 8839,
      "Shakesp": 8840,
      "Corythosaurus▁": 8841,
      "04▁": 8842,
      "Fish▁": 8843,
      "ND": 8844,
      "Ninten": 8845,
      "OC▁": 8846,
      "Sem": 8847,
      "Tig": 8848,
      "eor": 8849,
      "pine▁": 8850,
      "sal▁": 8851,
      "throwing▁": 8852,
      "income▁": 8853,
      "inaug": 8854,
      "anes▁": 8855,
      "reau▁": 8856,
      "onica▁": 8857,
      "ena▁": 8858,
      "ste▁": 8859,
      "eled▁": 8860,
      "destruction▁": 8861,
      "bearing▁": 8862,
      "astic▁": 8863,
      "1911▁": 8864,
      "adults▁": 8865,
      "prohi": 8866,
      "exter": 8867,
      "earth▁": 8868,
      "parallel▁": 8869,
      "fixed▁": 8870,
      "attacking▁": 8871,
      "sewhere▁": 8872,
      "sauri": 8873,
      "nic▁": 8874,
      "Mark": 8875,
      "dog▁": 8876,
      "assemb": 8877,
      "numbered▁": 8878,
      "dressed▁": 8879,
      "continuing▁": 8880,
      "unior▁": 8881,
      "Coll": 8882,
      "versal▁": 8883,
      "Frank": 8884,
      "1932▁": 8885,
      "Person": 8886,
      "hypo": 8887,
      "representing▁": 8888,
      "Palmy": 8889,
      "reviewers▁": 8890,
      "doctr": 8891,
      "patro": 8892,
      "taneously▁": 8893,
      "rapid▁": 8894,
      "FIA▁": 8895,
      "Peninsula▁": 8896,
      "debate▁": 8897,
      "equipped▁": 8898,
      "watershed▁": 8899,
      "circulation▁": 8900,
      "adverti": 8901,
      "province▁": 8902,
      "deployed▁": 8903,
      "opposite▁": 8904,
      "champion▁": 8905,
      "Hotel▁": 8906,
      "composer▁": 8907,
      "Marlborough▁": 8908,
      "erogative▁": 8909,
      "controversial▁": 8910,
      "Nintendo▁": 8911,
      "Av": 8912,
      "Flight▁": 8913,
      "Les": 8914,
      "Owen▁": 8915,
      "Power▁": 8916,
      "eds▁": 8917,
      "fear▁": 8918,
      "none▁": 8919,
      "sung▁": 8920,
      "zation▁": 8921,
      "reserve▁": 8922,
      "encies▁": 8923,
      "altar▁": 8924,
      "elabor": 8925,
      "laws▁": 8926,
      "emet": 8927,
      "aga▁": 8928,
      "1921▁": 8929,
      "1929▁": 8930,
      "uscrip": 8931,
      "abilities▁": 8932,
      "expres": 8933,
      "exception▁": 8934,
      "shell▁": 8935,
      "plom": 8936,
      "Story▁": 8937,
      "sees▁": 8938,
      "Through▁": 8939,
      "lowest▁": 8940,
      "eil▁": 8941,
      "meetings▁": 8942,
      "Ann": 8943,
      "charged▁": 8944,
      "essential▁": 8945,
      "phra": 8946,
      "Whit": 8947,
      "math▁": 8948,
      "Construction▁": 8949,
      "understanding▁": 8950,
      "voted▁": 8951,
      "therwise▁": 8952,
      "governor▁": 8953,
      "uck▁": 8954,
      "victims▁": 8955,
      "belief▁": 8956,
      "Fei▁": 8957,
      "initiative▁": 8958,
      "driving▁": 8959,
      "displac": 8960,
      "Bern": 8961,
      "fresh▁": 8962,
      "Palace▁": 8963,
      "crossing▁": 8964,
      "promote▁": 8965,
      "campaig": 8966,
      "measures▁": 8967,
      "learn▁": 8968,
      "Player▁": 8969,
      "stere": 8970,
      "falling▁": 8971,
      "occasions▁": 8972,
      "Fern": 8973,
      "Lawrence▁": 8974,
      "Patrick▁": 8975,
      "observations▁": 8976,
      "styles▁": 8977,
      "Stanley▁": 8978,
      "rebels▁": 8979,
      "intensified▁": 8980,
      "expedition▁": 8981,
      "pushed▁": 8982,
      "passengers▁": 8983,
      "remnants▁": 8984,
      "Netherlands▁": 8985,
      "76": 8986,
      "Al▁": 8987,
      "Bren": 8988,
      "Link▁": 8989,
      "ML": 8990,
      "NS▁": 8991,
      "Nar": 8992,
      "Num": 8993,
      "Te": 8994,
      "Ur": 8995,
      "Vis": 8996,
      "abu": 8997,
      "bol": 8998,
      "cía▁": 8999,
      "global▁": 9000,
      "kra": 9001,
      "kick▁": 9002,
      "lets▁": 9003,
      "osaurus▁": 9004,
      "rs▁": 9005,
      "ring": 9006,
      "rons▁": 9007,
      "vess": 9008,
      "inju": 9009,
      "retained▁": 9010,
      "online▁": 9011,
      "orado▁": 9012,
      "aled▁": 9013,
      "stock▁": 9014,
      "echo": 9015,
      "lau": 9016,
      "raise▁": 9017,
      "unsuccessful▁": 9018,
      "shr": 9019,
      "quez▁": 9020,
      "ocean▁": 9021,
      "bot▁": 9022,
      "comments▁": 9023,
      "lance▁": 9024,
      "Rod": 9025,
      "interchange▁": 9026,
      "fill▁": 9027,
      "angle▁": 9028,
      "count▁": 9029,
      "bition▁": 9030,
      "objects▁": 9031,
      "smen▁": 9032,
      "shop▁": 9033,
      "1962▁": 9034,
      "operating▁": 9035,
      "polis▁": 9036,
      "returns▁": 9037,
      "ealthy▁": 9038,
      "stadium▁": 9039,
      "Guardian▁": 9040,
      "defences▁": 9041,
      "1959▁": 9042,
      "uck": 9043,
      "1938▁": 9044,
      "carrying▁": 9045,
      "birth": 9046,
      "pitcher▁": 9047,
      "praise▁": 9048,
      "involving▁": 9049,
      "appointment▁": 9050,
      "villages▁": 9051,
      "Atlanta▁": 9052,
      "classical▁": 9053,
      "drums▁": 9054,
      "Bank▁": 9055,
      "Emperor▁": 9056,
      "Pitman▁": 9057,
      "slide▁": 9058,
      "García▁": 9059,
      "equivalent▁": 9060,
      "batsman▁": 9061,
      "difficulties▁": 9062,
      "provinc": 9063,
      "monument▁": 9064,
      "Korean▁": 9065,
      "musicians▁": 9066,
      "Channel▁": 9067,
      "covering▁": 9068,
      "Cambodia▁": 9069,
      "Hospital▁": 9070,
      "Track▁": 9071,
      "circumstan": 9072,
      "Stefani▁": 9073,
      "voiced▁": 9074,
      "godde": 9075,
      "Elizabeth▁": 9076,
      "emetery▁": 9077,
      "vessels▁": 9078,
      "87▁": 9079,
      "Fron": 9080,
      "Hob": 9081,
      "Má": 9082,
      "Medit": 9083,
      "Neb": 9084,
      "Raff": 9085,
      "covers▁": 9086,
      "fine▁": 9087,
      "hat▁": 9088,
      "ji▁": 9089,
      "lying▁": 9090,
      "page▁": 9091,
      "erry▁": 9092,
      "erranean▁": 9093,
      "resources▁": 9094,
      "til": 9095,
      "enz": 9096,
      "alleg": 9097,
      "stan▁": 9098,
      "elle▁": 9099,
      "lia▁": 9100,
      "dit▁": 9101,
      "olay▁": 9102,
      "esn▁": 9103,
      "confi": 9104,
      "suspec": 9105,
      "1900▁": 9106,
      "1920s▁": 9107,
      "adm": 9108,
      "promised▁": 9109,
      "vig": 9110,
      "sper": 9111,
      "abund": 9112,
      "exchange▁": 9113,
      "shoot▁": 9114,
      "terbury▁": 9115,
      "preferred▁": 9116,
      "pup": 9117,
      "pupp": 9118,
      "context▁": 9119,
      "Allah▁": 9120,
      "committed▁": 9121,
      "hot▁": 9122,
      "strate▁": 9123,
      "grade▁": 9124,
      "mature▁": 9125,
      "belt▁": 9126,
      "considers▁": 9127,
      "izing▁": 9128,
      "factors▁": 9129,
      "factory▁": 9130,
      "infra": 9131,
      "joining▁": 9132,
      "camera▁": 9133,
      "Canterbury▁": 9134,
      "represents▁": 9135,
      "Chief▁": 9136,
      "warm▁": 9137,
      "defeating▁": 9138,
      "influences▁": 9139,
      "command": 9140,
      "concerts▁": 9141,
      "electric▁": 9142,
      "narrative▁": 9143,
      "needs▁": 9144,
      "Enterprise▁": 9145,
      "purchase▁": 9146,
      "neighbor": 9147,
      "Mega▁": 9148,
      "behaviour▁": 9149,
      "Palestine▁": 9150,
      "industrial▁": 9151,
      "frame▁": 9152,
      "reveals▁": 9153,
      "periods▁": 9154,
      "Phillies▁": 9155,
      "Athletic▁": 9156,
      "heim▁": 9157,
      "survivors▁": 9158,
      "Aerith▁": 9159,
      "Mediterranean▁": 9160,
      "110▁": 9161,
      "DC▁": 9162,
      "Ky": 9163,
      "Mini": 9164,
      "Sin": 9165,
      "U2▁": 9166,
      "bbed▁": 9167,
      "fram": 9168,
      "kitsune▁": 9169,
      "lls▁": 9170,
      "osaur": 9171,
      "pty▁": 9172,
      "tado▁": 9173,
      "ern": 9174,
      "refu": 9175,
      "arrested▁": 9176,
      "onna▁": 9177,
      "orly▁": 9178,
      "stance▁": 9179,
      "aty▁": 9180,
      "else▁": 9181,
      "urs▁": 9182,
      "lications▁": 9183,
      "icop": 9184,
      "emented▁": 9185,
      "posted▁": 9186,
      "thesis▁": 9187,
      "thews▁": 9188,
      "exit▁": 9189,
      "rugby▁": 9190,
      "Championships▁": 9191,
      "Maria▁": 9192,
      "doesn▁": 9193,
      "graf▁": 9194,
      "product▁": 9195,
      "products▁": 9196,
      "steel▁": 9197,
      "followers▁": 9198,
      "eys▁": 9199,
      "Colorado▁": 9200,
      "closer▁": 9201,
      "telling▁": 9202,
      "Prov": 9203,
      "cars▁": 9204,
      "installed▁": 9205,
      "Cathedral▁": 9206,
      "candid": 9207,
      "visitors▁": 9208,
      "onomy▁": 9209,
      "Some": 9210,
      "15th▁": 9211,
      "refers▁": 9212,
      "criticised▁": 9213,
      "hundreds▁": 9214,
      "natur": 9215,
      "Rugby▁": 9216,
      "inje▁": 9217,
      "dominant▁": 9218,
      "Furtado▁": 9219,
      "Head": 9220,
      "Special▁": 9221,
      "feelings▁": 9222,
      "environment▁": 9223,
      "legislation▁": 9224,
      "Rhode": 9225,
      "fashion▁": 9226,
      "proposal▁": 9227,
      "submarine▁": 9228,
      "Grammy▁": 9229,
      "dialogue▁": 9230,
      "lbw▁": 9231,
      "absence▁": 9232,
      "Markgraf▁": 9233,
      "Raffles▁": 9234,
      "pupils▁": 9235,
      "Ben▁": 9236,
      "Bow": 9237,
      "CBS▁": 9238,
      "Day": 9239,
      "Eag": 9240,
      "Kann": 9241,
      "Nu": 9242,
      "Ph": 9243,
      "Pow": 9244,
      "Usta": 9245,
      "athan▁": 9246,
      "bay▁": 9247,
      "cements▁": 9248,
      "fallen▁": 9249,
      "kies▁": 9250,
      "lan▁": 9251,
      "lli": 9252,
      "nish▁": 9253,
      "sna": 9254,
      "ud▁": 9255,
      "utili": 9256,
      "vati▁": 9257,
      "informed▁": 9258,
      "reserv": 9259,
      "reconstruction▁": 9260,
      "ensure▁": 9261,
      "rivers▁": 9262,
      "ector▁": 9263,
      "amino▁": 9264,
      "listing▁": 9265,
      "dison▁": 9266,
      "eafter▁": 9267,
      "label": 9268,
      "deal": 9269,
      "isms▁": 9270,
      "poorly▁": 9271,
      "etts▁": 9272,
      "apers▁": 9273,
      "scar▁": 9274,
      "twork▁": 9275,
      "rants▁": 9276,
      "manuscrip": 9277,
      "boy": 9278,
      "casting▁": 9279,
      "shipping▁": 9280,
      "trading▁": 9281,
      "trained▁": 9282,
      "internal▁": 9283,
      "cold▁": 9284,
      "colour▁": 9285,
      "annually▁": 9286,
      "Carol▁": 9287,
      "skel": 9288,
      "Naz": 9289,
      "politic": 9290,
      "stationed▁": 9291,
      "Sholay▁": 9292,
      "160▁": 9293,
      "burgh▁": 9294,
      "venues▁": 9295,
      "sentim": 9296,
      "prerogative▁": 9297,
      "flat▁": 9298,
      "streets▁": 9299,
      "spores▁": 9300,
      "Media▁": 9301,
      "Sweet▁": 9302,
      "Imperial▁": 9303,
      "Valky": 9304,
      "commerci": 9305,
      "Earl▁": 9306,
      "classic▁": 9307,
      "convection▁": 9308,
      "moments▁": 9309,
      "Human▁": 9310,
      "extent▁": 9311,
      "sically▁": 9312,
      "displays▁": 9313,
      "NHL▁": 9314,
      "researchers▁": 9315,
      "modified▁": 9316,
      "reconnaissance▁": 9317,
      "muscaria▁": 9318,
      "Dominican▁": 9319,
      "Ustaš": 9320,
      "AT": 9321,
      "CC▁": 9322,
      "Greg": 9323,
      "Iron▁": 9324,
      "Ran": 9325,
      "Ron": 9326,
      "So▁": 9327,
      "SS▁": 9328,
      "Your▁": 9329,
      "aer": 9330,
      "gers▁": 9331,
      "grown▁": 9332,
      "hat": 9333,
      "ji": 9334,
      "sale▁": 9335,
      "tz▁": 9336,
      "yi▁": 9337,
      "zo": 9338,
      "archi": 9339,
      "onia▁": 9340,
      "orbit▁": 9341,
      "roo": 9342,
      "roof▁": 9343,
      "rid": 9344,
      "rice▁": 9345,
      "confron": 9346,
      "lus▁": 9347,
      "ffs▁": 9348,
      "guit": 9349,
      "incid": 9350,
      "Stal": 9351,
      "work": 9352,
      "saves▁": 9353,
      "safe▁": 9354,
      "niow": 9355,
      "eigh▁": 9356,
      "hosti": 9357,
      "Anton": 9358,
      "grey▁": 9359,
      "survey▁": 9360,
      "withdrew▁": 9361,
      "withdraw▁": 9362,
      "entitled▁": 9363,
      "facts▁": 9364,
      "ishment▁": 9365,
      "1940s▁": 9366,
      "unition▁": 9367,
      "meters▁": 9368,
      "regard▁": 9369,
      "intense▁": 9370,
      "organised▁": 9371,
      "purposes▁": 9372,
      "Corpor": 9373,
      "driven▁": 9374,
      "Design▁": 9375,
      "extension▁": 9376,
      "influential▁": 9377,
      "Wiś": 9378,
      "memory▁": 9379,
      "memorial▁": 9380,
      "Cape▁": 9381,
      "fossi": 9382,
      "Mexican▁": 9383,
      "dynasty▁": 9384,
      "Maggie▁": 9385,
      "sexu": 9386,
      "Catholic": 9387,
      "FIFA▁": 9388,
      "divor": 9389,
      "dramatic▁": 9390,
      "assist▁": 9391,
      "scientific▁": 9392,
      "reinfor": 9393,
      "spirit▁": 9394,
      "exposure▁": 9395,
      "injuries▁": 9396,
      "As": 9397,
      "Dor": 9398,
      "Education▁": 9399,
      "Hell": 9400,
      "Kam": 9401,
      "Late▁": 9402,
      "Men▁": 9403,
      "Mand": 9404,
      "Now▁": 9405,
      "Scul": 9406,
      "Tak": 9407,
      "ail▁": 9408,
      "dor": 9409,
      "fred▁": 9410,
      "gard": 9411,
      "otherwise▁": 9412,
      "tab": 9413,
      "tale▁": 9414,
      "tests▁": 9415,
      "wings▁": 9416,
      "zac▁": 9417,
      "án▁": 9418,
      "rel▁": 9419,
      "remix▁": 9420,
      "tier▁": 9421,
      "tians▁": 9422,
      "diplom": 9423,
      "eable▁": 9424,
      "raft▁": 9425,
      "estion▁": 9426,
      "1928▁": 9427,
      "prove▁": 9428,
      "usetts▁": 9429,
      "noon▁": 9430,
      "eare▁": 9431,
      "quick▁": 9432,
      "moon▁": 9433,
      "persu": 9434,
      "rant▁": 9435,
      "inct▁": 9436,
      "sati": 9437,
      "saved▁": 9438,
      "alien▁": 9439,
      "cool": 9440,
      "hol▁": 9441,
      "prison▁": 9442,
      "interests▁": 9443,
      "mark": 9444,
      "achusetts▁": 9445,
      "gosla": 9446,
      "doba▁": 9447,
      "panel▁": 9448,
      "file▁": 9449,
      "bering▁": 9450,
      "writings▁": 9451,
      "helicop": 9452,
      "subspecies▁": 9453,
      "Parvati▁": 9454,
      "Norway▁": 9455,
      "engines▁": 9456,
      "chairman▁": 9457,
      "originated▁": 9458,
      "looks▁": 9459,
      "crake▁": 9460,
      "burned▁": 9461,
      "Barker▁": 9462,
      "suggesting▁": 9463,
      "watching▁": 9464,
      "spoke▁": 9465,
      "elect": 9466,
      "crosses▁": 9467,
      "grant▁": 9468,
      "demand▁": 9469,
      "materials▁": 9470,
      "restling▁": 9471,
      "Classi": 9472,
      "happened▁": 9473,
      "wrong▁": 9474,
      "altern": 9475,
      "detail▁": 9476,
      "picture▁": 9477,
      "ammunition▁": 9478,
      "Israeli▁": 9479,
      "Portugal▁": 9480,
      "Donald▁": 9481,
      "ambique▁": 9482,
      "apparently▁": 9483,
      "Journal▁": 9484,
      "substantial▁": 9485,
      "journalist▁": 9486,
      "jackra": 9487,
      "Massachusetts▁": 9488,
      "Réunion▁": 9489,
      "therapy▁": 9490,
      "kāntav": 9491,
      "resistance▁": 9492,
      "severely▁": 9493,
      "circumstances▁": 9494,
      "niowiec": 9495,
      "900▁": 9496,
      "Bed": 9497,
      "Cec": 9498,
      "Eaton▁": 9499,
      "Flo": 9500,
      "Gary▁": 9501,
      "Gwen▁": 9502,
      "Is▁": 9503,
      "Kev": 9504,
      "Our▁": 9505,
      "Red": 9506,
      "Sis": 9507,
      "Sound▁": 9508,
      "Shel": 9509,
      "Tar": 9510,
      "UN▁": 9511,
      "Vul": 9512,
      "Xe": 9513,
      "Yo": 9514,
      "blu": 9515,
      "brac": 9516,
      "citing▁": 9517,
      "eenth▁": 9518,
      "lst▁": 9519,
      "mal▁": 9520,
      "nit": 9521,
      "py": 9522,
      "weigh": 9523,
      "than": 9524,
      "inher": 9525,
      "renew": 9526,
      "stac": 9527,
      "road": 9528,
      "eleven▁": 9529,
      "liam": 9530,
      "emble▁": 9531,
      "1927▁": 9532,
      "loan▁": 9533,
      "adhe": 9534,
      "proper▁": 9535,
      "open": 9536,
      "option▁": 9537,
      "impossible▁": 9538,
      "partially▁": 9539,
      "Stu": 9540,
      "Stew": 9541,
      "causes▁": 9542,
      "nights▁": 9543,
      "aliers▁": 9544,
      "overseas▁": 9545,
      "autom": 9546,
      "cia▁": 9547,
      "monarch▁": 9548,
      "genetic▁": 9549,
      "starlings▁": 9550,
      "phone▁": 9551,
      "movements▁": 9552,
      "engage▁": 9553,
      "disc▁": 9554,
      "designs▁": 9555,
      "understood▁": 9556,
      "Guide▁": 9557,
      "Wilson▁": 9558,
      "carved▁": 9559,
      "burning▁": 9560,
      "generals▁": 9561,
      "thema": 9562,
      "urricanes▁": 9563,
      "mort": 9564,
      "moral▁": 9565,
      "claiming▁": 9566,
      "latex▁": 9567,
      "Prior▁": 9568,
      "festival▁": 9569,
      "Federal▁": 9570,
      "mixture▁": 9571,
      "Space▁": 9572,
      "favor▁": 9573,
      "radiation▁": 9574,
      "survive▁": 9575,
      "Richmond▁": 9576,
      "Swedi": 9577,
      "falls▁": 9578,
      "rush▁": 9579,
      "Having▁": 9580,
      "departure▁": 9581,
      "Gold": 9582,
      "shells▁": 9583,
      "cancer▁": 9584,
      "instruments▁": 9585,
      "communication▁": 9586,
      "transportation▁": 9587,
      "Observ": 9588,
      "electronic▁": 9589,
      "RAAF▁": 9590,
      "Branch▁": 9591,
      "Historic▁": 9592,
      "climate▁": 9593,
      "beautiful▁": 9594,
      "disaster▁": 9595,
      "Yugosla": 9596,
      "rorist▁": 9597,
      "victories▁": 9598,
      "IMO▁": 9599,
      "sumption▁": 9600,
      "Ministry▁": 9601,
      "Kannada▁": 9602,
      "Ustaše▁": 9603,
      "Wiśniowiec": 9604,
      "kāntavāda▁": 9605,
      "Swedish▁": 9606,
      "112": 9607,
      "Bat": 9608,
      "Brow": 9609,
      "Baker▁": 9610,
      "EC": 9611,
      "Hg▁": 9612,
      "Jen": 9613,
      "Khan": 9614,
      "Midge▁": 9615,
[...]
